#ifndef NEPSPOT_MODEL_DATA_H_
#define NEPSPOT_MODEL_DATA_H_

#include <stdint.h>

const unsigned char nepspot_model_data[] = {
  0x1c, 0x00, 0x00, 0x00, 0x54, 0x46, 0x4c, 0x33, 0x14, 0x00, 0x20, 0x00,
  0x1c, 0x00, 0x18, 0x00, 0x14, 0x00, 0x10, 0x00, 0x0c, 0x00, 0x00, 0x00,
  0x08, 0x00, 0x04, 0x00, 0x14, 0x00, 0x00, 0x00, 0x1c, 0x00, 0x00, 0x00,
  0x98, 0x00, 0x00, 0x00, 0x18, 0x01, 0x00, 0x00, 0x78, 0x12, 0x00, 0x00,
  0x88, 0x12, 0x00, 0x00, 0x58, 0x33, 0x00, 0x00, 0x03, 0x00, 0x00, 0x00,
  0x01, 0x00, 0x00, 0x00, 0x10, 0x00, 0x00, 0x00, 0x00, 0x00, 0x0a, 0x00,
  0x10, 0x00, 0x0c, 0x00, 0x08, 0x00, 0x04, 0x00, 0x0a, 0x00, 0x00, 0x00,
  0x0c, 0x00, 0x00, 0x00, 0x1c, 0x00, 0x00, 0x00, 0x3c, 0x00, 0x00, 0x00,
  0x0f, 0x00, 0x00, 0x00, 0x73, 0x65, 0x72, 0x76, 0x69, 0x6e, 0x67, 0x5f,
  0x64, 0x65, 0x66, 0x61, 0x75, 0x6c, 0x74, 0x00, 0x01, 0x00, 0x00, 0x00,
  0x04, 0x00, 0x00, 0x00, 0x68, 0xff, 0xff, 0xff, 0x15, 0x00, 0x00, 0x00,
  0x04, 0x00, 0x00, 0x00, 0x08, 0x00, 0x00, 0x00, 0x6f, 0x75, 0x74, 0x70,
  0x75, 0x74, 0x5f, 0x30, 0x00, 0x00, 0x00, 0x00, 0x01, 0x00, 0x00, 0x00,
  0x04, 0x00, 0x00, 0x00, 0x6e, 0xed, 0xff, 0xff, 0x04, 0x00, 0x00, 0x00,
  0x0c, 0x00, 0x00, 0x00, 0x6b, 0x65, 0x72, 0x61, 0x73, 0x5f, 0x74, 0x65,
  0x6e, 0x73, 0x6f, 0x72, 0x00, 0x00, 0x00, 0x00, 0x03, 0x00, 0x00, 0x00,
  0x5c, 0x00, 0x00, 0x00, 0x2c, 0x00, 0x00, 0x00, 0x04, 0x00, 0x00, 0x00,
  0xb8, 0xff, 0xff, 0xff, 0x19, 0x00, 0x00, 0x00, 0x04, 0x00, 0x00, 0x00,
  0x13, 0x00, 0x00, 0x00, 0x43, 0x4f, 0x4e, 0x56, 0x45, 0x52, 0x53, 0x49,
  0x4f, 0x4e, 0x5f, 0x4d, 0x45, 0x54, 0x41, 0x44, 0x41, 0x54, 0x41, 0x00,
  0xdc, 0xff, 0xff, 0xff, 0x18, 0x00, 0x00, 0x00, 0x04, 0x00, 0x00, 0x00,
  0x13, 0x00, 0x00, 0x00, 0x6d, 0x69, 0x6e, 0x5f, 0x72, 0x75, 0x6e, 0x74,
  0x69, 0x6d, 0x65, 0x5f, 0x76, 0x65, 0x72, 0x73, 0x69, 0x6f, 0x6e, 0x00,
  0x08, 0x00, 0x0c, 0x00, 0x08, 0x00, 0x04, 0x00, 0x08, 0x00, 0x00, 0x00,
  0x17, 0x00, 0x00, 0x00, 0x04, 0x00, 0x00, 0x00, 0x13, 0x00, 0x00, 0x00,
  0x6d, 0x69, 0x6e, 0x5f, 0x72, 0x75, 0x6e, 0x74, 0x69, 0x6d, 0x65, 0x5f,
  0x76, 0x65, 0x72, 0x73, 0x69, 0x6f, 0x6e, 0x00, 0x1a, 0x00, 0x00, 0x00,
  0x5c, 0x11, 0x00, 0x00, 0x54, 0x11, 0x00, 0x00, 0x3c, 0x11, 0x00, 0x00,
  0xfc, 0x10, 0x00, 0x00, 0x6c, 0x0f, 0x00, 0x00, 0xdc, 0x0e, 0x00, 0x00,
  0xcc, 0x0a, 0x00, 0x00, 0x3c, 0x0a, 0x00, 0x00, 0x0c, 0x09, 0x00, 0x00,
  0x7c, 0x08, 0x00, 0x00, 0x6c, 0x04, 0x00, 0x00, 0xdc, 0x03, 0x00, 0x00,
  0xac, 0x02, 0x00, 0x00, 0x1c, 0x02, 0x00, 0x00, 0xec, 0x00, 0x00, 0x00,
  0xe4, 0x00, 0x00, 0x00, 0xdc, 0x00, 0x00, 0x00, 0xd4, 0x00, 0x00, 0x00,
  0xcc, 0x00, 0x00, 0x00, 0xc4, 0x00, 0x00, 0x00, 0xbc, 0x00, 0x00, 0x00,
  0xb4, 0x00, 0x00, 0x00, 0xac, 0x00, 0x00, 0x00, 0x8c, 0x00, 0x00, 0x00,
  0x6c, 0x00, 0x00, 0x00, 0x04, 0x00, 0x00, 0x00, 0x7a, 0xee, 0xff, 0xff,
  0x04, 0x00, 0x00, 0x00, 0x58, 0x00, 0x00, 0x00, 0x0c, 0x00, 0x00, 0x00,
  0x08, 0x00, 0x0e, 0x00, 0x08, 0x00, 0x04, 0x00, 0x08, 0x00, 0x00, 0x00,
  0x10, 0x00, 0x00, 0x00, 0x28, 0x00, 0x00, 0x00, 0x00, 0x00, 0x06, 0x00,
  0x08, 0x00, 0x04, 0x00, 0x06, 0x00, 0x00, 0x00, 0x04, 0x00, 0x00, 0x00,
  0x01, 0x00, 0x00, 0x00, 0xeb, 0x03, 0x00, 0x00, 0x00, 0x00, 0x0a, 0x00,
  0x10, 0x00, 0x0c, 0x00, 0x08, 0x00, 0x04, 0x00, 0x0a, 0x00, 0x00, 0x00,
  0x01, 0x00, 0x00, 0x00, 0x02, 0x00, 0x00, 0x00, 0x04, 0x00, 0x00, 0x00,
  0x06, 0x00, 0x00, 0x00, 0x32, 0x2e, 0x31, 0x36, 0x2e, 0x32, 0x00, 0x00,
  0xde, 0xee, 0xff, 0xff, 0x04, 0x00, 0x00, 0x00, 0x10, 0x00, 0x00, 0x00,
  0x00, 0x00, 0x00, 0x00, 0x00, 0x00, 0x00, 0x00, 0x00, 0x00, 0x00, 0x00,
  0x00, 0x00, 0x00, 0x00, 0xfa, 0xee, 0xff, 0xff, 0x04, 0x00, 0x00, 0x00,
  0x10, 0x00, 0x00, 0x00, 0x31, 0x2e, 0x31, 0x34, 0x2e, 0x30, 0x00, 0x00,
  0x00, 0x00, 0x00, 0x00, 0x00, 0x00, 0x00, 0x00, 0x94, 0xcf, 0xff, 0xff,
  0x98, 0xcf, 0xff, 0xff, 0x9c, 0xcf, 0xff, 0xff, 0xa0, 0xcf, 0xff, 0xff,
  0xa4, 0xcf, 0xff, 0xff, 0xa8, 0xcf, 0xff, 0xff, 0xac, 0xcf, 0xff, 0xff,
  0xb0, 0xcf, 0xff, 0xff, 0x36, 0xef, 0xff, 0xff, 0x04, 0x00, 0x00, 0x00,
  0x20, 0x01, 0x00, 0x00, 0x07, 0xec, 0xfa, 0x40, 0x7f, 0x78, 0xcc, 0xd1,
  0xd9, 0x0e, 0x0a, 0x7f, 0x1f, 0xe0, 0xff, 0x0d, 0x2c, 0x15, 0xd8, 0xcf,
  0xe6, 0xdd, 0xf4, 0x81, 0x51, 0x0c, 0xeb, 0x48, 0xf5, 0xd5, 0xb8, 0x04,
  0x7c, 0x7f, 0xd8, 0xcb, 0xe1, 0x1f, 0x17, 0x11, 0x22, 0x04, 0x7f, 0x17,
  0xa4, 0x05, 0xd7, 0x21, 0x7f, 0x3e, 0xbb, 0xbf, 0xb8, 0xf2, 0x28, 0x7f,
  0x4a, 0x06, 0xd2, 0x26, 0xe7, 0xd3, 0xf7, 0xdb, 0xfd, 0x1d, 0x81, 0xdc,
  0x29, 0xd8, 0xe6, 0x03, 0x81, 0xe5, 0x26, 0x14, 0xef, 0x2a, 0x13, 0x20,
  0xf8, 0x32, 0x21, 0xa1, 0xfa, 0x45, 0x0a, 0xa9, 0xc7, 0x7f, 0x81, 0xb4,
  0x0b, 0x82, 0xe0, 0xc8, 0x77, 0xdb, 0xc6, 0xea, 0x02, 0xf6, 0xfb, 0xe1,
  0xf4, 0x42, 0x54, 0x7f, 0x58, 0x7f, 0x65, 0x03, 0xb0, 0x18, 0x63, 0x29,
  0x15, 0xd1, 0xf7, 0x65, 0xbe, 0xe1, 0x44, 0x81, 0xba, 0xeb, 0xd2, 0x86,
  0x1f, 0x05, 0xe0, 0x8e, 0xc5, 0x81, 0x91, 0xc9, 0xca, 0xfa, 0x08, 0x6d,
  0x7f, 0xf0, 0xf0, 0x2d, 0xe7, 0xc0, 0xee, 0x04, 0x27, 0x7f, 0x50, 0xed,
  0xe2, 0x04, 0x2b, 0x26, 0x0d, 0x0d, 0x02, 0x7f, 0x27, 0x4d, 0xcd, 0x04,
  0xc0, 0x0a, 0x09, 0x09, 0x34, 0x7f, 0x6d, 0xd7, 0x0d, 0x01, 0xfe, 0x47,
  0xbc, 0xa4, 0x7f, 0x78, 0xef, 0xe7, 0xf5, 0x7f, 0x04, 0xb6, 0xf5, 0x07,
  0xa5, 0x5c, 0xcd, 0xef, 0xb2, 0xdf, 0x7f, 0x6d, 0x0f, 0x16, 0x7f, 0x37,
  0xf9, 0xf0, 0x0b, 0xbf, 0xda, 0x07, 0x0b, 0xa4, 0x18, 0x55, 0x10, 0x50,
  0x82, 0xfa, 0x4b, 0x7f, 0x08, 0xaf, 0xbc, 0x19, 0x81, 0xbf, 0xe0, 0x08,
  0xb0, 0x81, 0x91, 0x71, 0x82, 0x18, 0xf5, 0x9b, 0xd8, 0xe9, 0xf3, 0xe2,
  0x07, 0xec, 0xe8, 0xf0, 0x7f, 0x4c, 0xc5, 0xd8, 0xe1, 0x7f, 0xbb, 0xa2,
  0x11, 0xa5, 0xcb, 0x05, 0x09, 0x0d, 0xfd, 0x45, 0x28, 0x26, 0xb1, 0xf6,
  0x81, 0xe4, 0x0b, 0xd7, 0xe4, 0xd0, 0xc9, 0xcc, 0x11, 0x7f, 0xe7, 0xf1,
  0x2a, 0x7f, 0x67, 0x0c, 0x1b, 0x0a, 0x8d, 0x47, 0x1e, 0xf2, 0xdf, 0x35,
  0x1e, 0x81, 0xc6, 0xda, 0x62, 0xf0, 0xff, 0xff, 0x04, 0x00, 0x00, 0x00,
  0x80, 0x00, 0x00, 0x00, 0xdb, 0xfa, 0xff, 0xff, 0xd7, 0xfc, 0xff, 0xff,
  0x10, 0xfc, 0xff, 0xff, 0xcb, 0xfd, 0xff, 0xff, 0xd8, 0xfe, 0xff, 0xff,
  0x9e, 0x03, 0x00, 0x00, 0x2a, 0xfc, 0xff, 0xff, 0x34, 0x02, 0x00, 0x00,
  0xbb, 0xff, 0xff, 0xff, 0x7c, 0x01, 0x00, 0x00, 0xd3, 0x00, 0x00, 0x00,
  0xe4, 0xfe, 0xff, 0xff, 0xc8, 0x02, 0x00, 0x00, 0x9c, 0x00, 0x00, 0x00,
  0x7e, 0x06, 0x00, 0x00, 0x84, 0x01, 0x00, 0x00, 0x30, 0xff, 0xff, 0xff,
  0x5c, 0xff, 0xff, 0xff, 0xae, 0x02, 0x00, 0x00, 0xff, 0xfc, 0xff, 0xff,
  0x06, 0x05, 0x00, 0x00, 0x58, 0xfd, 0xff, 0xff, 0xde, 0x01, 0x00, 0x00,
  0x92, 0xfe, 0xff, 0xff, 0x9c, 0xff, 0xff, 0xff, 0x43, 0x01, 0x00, 0x00,
  0xe6, 0xfd, 0xff, 0xff, 0x76, 0xfd, 0xff, 0xff, 0x92, 0xfe, 0xff, 0xff,
  0xc1, 0xff, 0xff, 0xff, 0xca, 0xf9, 0xff, 0xff, 0xf9, 0x05, 0x00, 0x00,
  0xee, 0xf0, 0xff, 0xff, 0x04, 0x00, 0x00, 0x00, 0x20, 0x01, 0x00, 0x00,
  0x16, 0x37, 0x09, 0xfb, 0x39, 0x95, 0x43, 0xd1, 0xb0, 0x20, 0x9e, 0x99,
  0x53, 0x65, 0x02, 0xe0, 0x17, 0xf2, 0xa6, 0xc5, 0x4b, 0x0c, 0xe8, 0x46,
  0x55, 0x72, 0xe3, 0xe2, 0x3a, 0xcb, 0xe8, 0x9e, 0x1c, 0x2a, 0xe7, 0xc1,
  0xf7, 0xa9, 0x05, 0xc4, 0xc1, 0x5e, 0xfe, 0x2a, 0x19, 0x30, 0xf5, 0x05,
  0xe7, 0xca, 0x08, 0x2a, 0x2b, 0x31, 0x5f, 0x7f, 0x6e, 0x21, 0xd5, 0x1e,
  0x1f, 0x00, 0xac, 0x07, 0x3c, 0x20, 0xd9, 0xf3, 0x02, 0x18, 0x63, 0xeb,
  0xa6, 0x46, 0x4b, 0x7f, 0x24, 0x7f, 0x14, 0xac, 0x1d, 0xf0, 0x22, 0x4d,
  0x14, 0x3e, 0x29, 0x0c, 0xd3, 0x81, 0xda, 0x8e, 0x9d, 0x4e, 0xe2, 0xea,
  0x1a, 0x12, 0xfe, 0x72, 0xff, 0x81, 0x44, 0xf5, 0x7f, 0xde, 0xb3, 0xea,
  0xc4, 0x1a, 0xc0, 0xad, 0xc2, 0x7f, 0x81, 0x1f, 0xdc, 0xf8, 0x54, 0x15,
  0xde, 0xd5, 0x12, 0xaf, 0x6c, 0xd2, 0x43, 0x0b, 0xe5, 0xb8, 0x13, 0x39,
  0x12, 0x0f, 0x0f, 0xf1, 0xd8, 0xf3, 0x0e, 0xdc, 0x44, 0x4c, 0x05, 0xed,
  0x93, 0x7e, 0xdb, 0x2c, 0x43, 0x29, 0x18, 0xe2, 0x2f, 0x22, 0x59, 0xd6,
  0x15, 0xe9, 0x44, 0x0b, 0xd7, 0x8d, 0xed, 0xdc, 0x03, 0xd7, 0x87, 0x0d,
  0x13, 0x51, 0x56, 0x21, 0x7f, 0x31, 0x2e, 0x0b, 0xbe, 0x38, 0x60, 0x43,
  0x50, 0x12, 0x4c, 0xe9, 0x25, 0x3a, 0xf7, 0xf2, 0x81, 0x20, 0x81, 0x04,
  0x8a, 0x21, 0x81, 0x29, 0x7f, 0x7c, 0x81, 0x7f, 0x31, 0x44, 0x63, 0x46,
  0x32, 0xff, 0x81, 0xe5, 0x40, 0x74, 0xba, 0x46, 0x7f, 0x7f, 0x81, 0x35,
  0xfe, 0xbb, 0x81, 0xe4, 0xd6, 0x22, 0x58, 0xd7, 0x81, 0x15, 0xde, 0x7f,
  0x33, 0x53, 0xb9, 0x1f, 0xd7, 0x4e, 0xe2, 0x05, 0xd6, 0x39, 0xdf, 0x81,
  0x39, 0x35, 0x0f, 0x7f, 0x45, 0x20, 0x69, 0x45, 0x32, 0xe8, 0x91, 0x81,
  0xc6, 0x12, 0x5b, 0x57, 0xfe, 0x81, 0xdb, 0x0c, 0x17, 0x17, 0x8f, 0xeb,
  0xde, 0x7f, 0x81, 0xab, 0xd2, 0x5f, 0x70, 0x0d, 0x81, 0x3f, 0x50, 0x24,
  0x2f, 0x01, 0x47, 0x28, 0x7f, 0x02, 0x2c, 0xc5, 0x58, 0x7f, 0x0e, 0x7f,
  0x1a, 0xf2, 0xff, 0xff, 0x04, 0x00, 0x00, 0x00, 0x80, 0x00, 0x00, 0x00,
  0x70, 0x00, 0x00, 0x00, 0xeb, 0xff, 0xff, 0xff, 0x17, 0x05, 0x00, 0x00,
  0x60, 0xfe, 0xff, 0xff, 0x09, 0xfd, 0xff, 0xff, 0xd7, 0x00, 0x00, 0x00,
  0x3f, 0xff, 0xff, 0xff, 0xf0, 0xff, 0xff, 0xff, 0x6c, 0x08, 0x00, 0x00,
  0x89, 0xf4, 0xff, 0xff, 0xc4, 0xff, 0xff, 0xff, 0xd3, 0xfd, 0xff, 0xff,
  0x2a, 0xf9, 0xff, 0xff, 0x36, 0xf7, 0xff, 0xff, 0x50, 0x01, 0x00, 0x00,
  0xc9, 0x0a, 0x00, 0x00, 0x41, 0x00, 0x00, 0x00, 0x77, 0xf1, 0xff, 0xff,
  0x12, 0x02, 0x00, 0x00, 0x4d, 0xf7, 0xff, 0xff, 0x21, 0xee, 0xff, 0xff,
  0x78, 0xfd, 0xff, 0xff, 0xfb, 0xfa, 0xff, 0xff, 0x7c, 0xfc, 0xff, 0xff,
  0x00, 0xf9, 0xff, 0xff, 0xc6, 0x02, 0x00, 0x00, 0xe0, 0xff, 0xff, 0xff,
  0x6d, 0x06, 0x00, 0x00, 0x5d, 0xff, 0xff, 0xff, 0xea, 0xfe, 0xff, 0xff,
  0x7f, 0xff, 0xff, 0xff, 0x16, 0xfb, 0xff, 0xff, 0xa6, 0xf2, 0xff, 0xff,
  0x04, 0x00, 0x00, 0x00, 0x00, 0x04, 0x00, 0x00, 0x19, 0xde, 0xe1, 0xf3,
  0x18, 0xc1, 0x05, 0x00, 0x16, 0x05, 0xc6, 0x18, 0x19, 0xd8, 0xdf, 0x35,
  0xbe, 0xd8, 0xed, 0xda, 0x0f, 0x2b, 0x23, 0x37, 0x37, 0x64, 0xd9, 0x7f,
  0xd0, 0xdc, 0xef, 0x01, 0xe7, 0x29, 0xbe, 0xf9, 0xf3, 0x81, 0xfe, 0x2e,
  0x07, 0x05, 0x51, 0x32, 0x3d, 0xf0, 0xe9, 0xd1, 0xdb, 0xab, 0xcd, 0x03,
  0x15, 0x34, 0xfd, 0x0a, 0x39, 0x1a, 0x99, 0x3a, 0x2b, 0xfd, 0xd3, 0x0b,
  0xd9, 0x2e, 0xcc, 0xf0, 0x24, 0xdc, 0x12, 0x46, 0x70, 0xd1, 0x04, 0x41,
  0x47, 0x32, 0x14, 0x5c, 0x3d, 0x36, 0x26, 0x4e, 0x39, 0x10, 0x27, 0xff,
  0x1e, 0x57, 0xd4, 0x55, 0x81, 0x17, 0xee, 0x25, 0x0d, 0xef, 0x5a, 0xe2,
  0x01, 0xda, 0xa5, 0xff, 0xc7, 0x01, 0x81, 0x0d, 0x23, 0xe9, 0x05, 0xa2,
  0x2e, 0xa6, 0xbf, 0x8f, 0x16, 0xed, 0xf6, 0x3a, 0x21, 0xee, 0xe4, 0xdc,
  0xcb, 0x06, 0xc9, 0x3b, 0xe3, 0x12, 0x2b, 0xe1, 0x20, 0x24, 0xa9, 0xea,
  0x7f, 0x0f, 0x46, 0xff, 0xfc, 0xdb, 0xdf, 0x3b, 0xb2, 0xaa, 0xb8, 0xa6,
  0x20, 0x2c, 0x14, 0x37, 0x68, 0xef, 0x48, 0xac, 0x21, 0x1b, 0x1a, 0x3e,
  0x20, 0x41, 0xc9, 0x8e, 0x41, 0x07, 0xe2, 0x3a, 0x20, 0xea, 0xe6, 0x4a,
  0xe8, 0x07, 0x40, 0xf7, 0x07, 0xf4, 0x1e, 0xe4, 0x23, 0xd1, 0x11, 0xe9,
  0xf4, 0x26, 0x81, 0x18, 0x3e, 0x0a, 0x89, 0x43, 0x0a, 0xd7, 0xeb, 0x94,
  0xcd, 0x2b, 0x49, 0x81, 0xf7, 0xd5, 0xf8, 0xfc, 0xaf, 0xba, 0x26, 0xa1,
  0xc4, 0x18, 0x20, 0xd6, 0xe1, 0xcc, 0x09, 0x38, 0x15, 0xca, 0xc2, 0xcb,
  0xfb, 0xfe, 0xec, 0x0e, 0x81, 0xdf, 0x9c, 0xec, 0x19, 0x05, 0xf7, 0x1c,
  0xde, 0x17, 0x09, 0x09, 0xcd, 0xf0, 0x0b, 0x1f, 0xf5, 0x1b, 0xf7, 0x16,
  0x04, 0xd9, 0xed, 0xdb, 0xe6, 0xfd, 0xf3, 0xd4, 0xe7, 0xec, 0xdb, 0x0f,
  0x0b, 0x46, 0xf5, 0x55, 0x43, 0x0a, 0x16, 0xf2, 0x81, 0x59, 0xd2, 0x6b,
  0x2d, 0x18, 0xba, 0xc7, 0xf3, 0xfa, 0x3c, 0x3a, 0xff, 0xf1, 0xc9, 0x1f,
  0xec, 0x5a, 0xeb, 0xba, 0xdd, 0x0a, 0xd3, 0x22, 0x02, 0xbf, 0xab, 0xbb,
  0xf8, 0x9e, 0xbb, 0xc9, 0x0e, 0xe1, 0xd2, 0x59, 0x21, 0xce, 0xdc, 0xfc,
  0x7f, 0xee, 0x2a, 0xd7, 0x17, 0xf1, 0x01, 0xe3, 0xf7, 0x27, 0x0b, 0xee,
  0x22, 0x13, 0x1b, 0x11, 0x18, 0xf7, 0x56, 0x02, 0x1b, 0xea, 0x81, 0x59,
  0xe6, 0x1b, 0x3b, 0xdf, 0x23, 0x4d, 0xbb, 0x12, 0x1f, 0x1c, 0x0e, 0x03,
  0x48, 0x07, 0x3d, 0xfe, 0xff, 0x34, 0x2a, 0x25, 0x19, 0x38, 0x07, 0x16,
  0x23, 0x97, 0x10, 0xdf, 0x19, 0xf3, 0x0b, 0xe0, 0x3f, 0x18, 0x81, 0xe3,
  0xe7, 0xc6, 0xbe, 0xc1, 0x12, 0xee, 0x02, 0xd6, 0x02, 0xed, 0xfe, 0x08,
  0xe5, 0xfd, 0xf0, 0xb3, 0x0e, 0x15, 0x34, 0x1e, 0x24, 0x0f, 0x12, 0xf1,
  0xa9, 0xbe, 0xc3, 0x56, 0x16, 0x5a, 0xe2, 0x1d, 0xfb, 0xd1, 0xde, 0xff,
  0xc0, 0x33, 0x81, 0xf5, 0x0d, 0x0c, 0xf6, 0x00, 0x6c, 0x2a, 0xea, 0x16,
  0x49, 0x2b, 0x3e, 0xb4, 0x22, 0x4c, 0x96, 0xf8, 0x2c, 0xdf, 0x12, 0xd3,
  0xa9, 0x9d, 0xa4, 0x01, 0xbb, 0x9c, 0x2d, 0xc4, 0xcd, 0x12, 0x28, 0xde,
  0x24, 0xba, 0x6a, 0xa4, 0x81, 0x4c, 0xc5, 0x5b, 0x89, 0x1c, 0x8c, 0x13,
  0x09, 0x26, 0x81, 0x1a, 0xe3, 0xbb, 0x02, 0x2e, 0x14, 0x19, 0xf9, 0x1c,
  0x00, 0xbe, 0xb8, 0xc6, 0xfc, 0xef, 0xa7, 0x06, 0x4f, 0x2d, 0x59, 0xdb,
  0xae, 0x3c, 0x3f, 0xb1, 0xec, 0x02, 0xf0, 0xdc, 0x44, 0xf0, 0x81, 0x19,
  0x0b, 0xff, 0x20, 0x68, 0x09, 0xf4, 0xde, 0xee, 0x0b, 0xd9, 0xf9, 0x2a,
  0xf7, 0x04, 0xcf, 0xf2, 0x34, 0x0e, 0x39, 0xfd, 0xe3, 0xff, 0x13, 0xa2,
  0xf4, 0x07, 0x23, 0xe9, 0x69, 0x3b, 0xbc, 0xdf, 0xc7, 0xfe, 0xd6, 0x6e,
  0x67, 0x0f, 0x81, 0x58, 0xfd, 0x32, 0x14, 0x16, 0x6e, 0x44, 0xba, 0xec,
  0x20, 0xda, 0x13, 0x02, 0xeb, 0xfc, 0x25, 0x06, 0xe9, 0x24, 0xf2, 0x07,
  0xd2, 0x10, 0xd1, 0x15, 0xf1, 0xed, 0xea, 0xf3, 0x00, 0x19, 0xcf, 0xdd,
  0x23, 0x34, 0xf8, 0x3c, 0xbc, 0x04, 0x89, 0xd3, 0xf3, 0xe5, 0xf3, 0x06,
  0xe2, 0xfd, 0x0b, 0xf8, 0xff, 0x81, 0xf6, 0xd8, 0x17, 0x0c, 0x26, 0xda,
  0xaf, 0xf9, 0x48, 0x49, 0x8b, 0x4b, 0xed, 0xfc, 0xf4, 0x43, 0xa7, 0x60,
  0xdf, 0x18, 0xea, 0x81, 0x2c, 0xe6, 0xbf, 0x08, 0xaa, 0x26, 0x0a, 0x00,
  0x09, 0x25, 0xeb, 0x63, 0xca, 0xb1, 0xb8, 0x25, 0x15, 0x9c, 0x81, 0xf4,
  0xfc, 0x25, 0x38, 0xda, 0xf1, 0x42, 0xff, 0xb0, 0x46, 0x10, 0xef, 0x37,
  0xe6, 0xdd, 0x43, 0xeb, 0x23, 0xff, 0x41, 0xf6, 0xca, 0xcd, 0x34, 0x0a,
  0x65, 0x02, 0xa3, 0xea, 0xec, 0x04, 0xcd, 0x6f, 0x62, 0x81, 0x91, 0xe9,
  0xe4, 0x1d, 0xf0, 0xb9, 0x9e, 0xb7, 0xe3, 0x3a, 0x8d, 0xf9, 0x1d, 0xbd,
  0xfd, 0xcd, 0xf3, 0xe0, 0xfe, 0xd3, 0xfa, 0x23, 0x60, 0x52, 0x1d, 0xff,
  0x33, 0xef, 0xad, 0x1e, 0x2d, 0x21, 0x29, 0xe9, 0x68, 0x58, 0xf9, 0x41,
  0x26, 0x37, 0xb6, 0xc0, 0x04, 0x19, 0x52, 0x47, 0x41, 0x10, 0x7f, 0xa1,
  0xc5, 0x1b, 0x26, 0x1d, 0xb1, 0x81, 0xcd, 0x06, 0x2f, 0xec, 0xce, 0xca,
  0xfc, 0xde, 0xf5, 0xf7, 0xbb, 0xc8, 0xbb, 0xbe, 0xda, 0xd5, 0x0a, 0xfc,
  0xde, 0xfd, 0xd6, 0x1c, 0x34, 0xd5, 0x37, 0xa8, 0x0d, 0x0d, 0xc0, 0xdd,
  0x12, 0xd8, 0xb2, 0xe1, 0xe4, 0xec, 0x30, 0x31, 0x82, 0xec, 0x81, 0x6e,
  0x17, 0x1a, 0xd8, 0x16, 0x69, 0xf6, 0xcb, 0xfe, 0x0d, 0xc1, 0xda, 0x31,
  0x53, 0xa3, 0xfe, 0x56, 0xff, 0x04, 0xfc, 0xfc, 0xb5, 0x19, 0x0f, 0xc6,
  0xe4, 0x0b, 0x04, 0xb1, 0x17, 0x3b, 0x81, 0x05, 0x03, 0x03, 0xcb, 0xcb,
  0x0b, 0xdf, 0xc3, 0x14, 0x71, 0x11, 0xed, 0x4f, 0x40, 0xcc, 0x09, 0xef,
  0x19, 0x01, 0x77, 0x12, 0x65, 0xbf, 0xd8, 0xd2, 0xe5, 0x43, 0x4a, 0x19,
  0xcb, 0x1d, 0xa5, 0xa3, 0xb5, 0xd3, 0x35, 0x19, 0x7f, 0xe7, 0xf4, 0xbf,
  0xe7, 0x13, 0xf0, 0xe0, 0xa5, 0x3e, 0x51, 0x35, 0x35, 0x13, 0xd5, 0xed,
  0x1f, 0xd1, 0x87, 0x3a, 0xe7, 0xa7, 0xb4, 0x2e, 0x21, 0x21, 0x25, 0x09,
  0xab, 0x1b, 0x00, 0x32, 0x0d, 0x0d, 0x8b, 0xff, 0xd8, 0xc8, 0x29, 0x81,
  0xca, 0x34, 0x1b, 0xc4, 0x97, 0x93, 0x15, 0x18, 0xf3, 0x00, 0x8e, 0x1b,
  0xf5, 0x08, 0x16, 0x13, 0x3d, 0x99, 0xb3, 0x18, 0x81, 0xef, 0xec, 0xa7,
  0x9b, 0x1c, 0xcd, 0x17, 0x34, 0xd0, 0x28, 0xf6, 0xc4, 0xd7, 0xad, 0x44,
  0xf8, 0xf0, 0xe3, 0xf1, 0x20, 0x18, 0x95, 0xf8, 0xfa, 0x08, 0xe7, 0xe9,
  0x7f, 0xf4, 0xc1, 0xa9, 0x22, 0xd2, 0xd0, 0xe3, 0x33, 0x16, 0x27, 0xe8,
  0x16, 0xff, 0xd6, 0x11, 0xca, 0xe0, 0xee, 0x0e, 0x2d, 0xe4, 0x0a, 0x16,
  0x33, 0xc9, 0xd3, 0xe1, 0xfa, 0x24, 0x4c, 0x86, 0x7f, 0x08, 0xde, 0x2a,
  0x3a, 0x97, 0xe5, 0x7b, 0x4a, 0x69, 0xed, 0x04, 0x18, 0x39, 0x31, 0x4f,
  0x33, 0xf7, 0x16, 0xe5, 0x02, 0x1b, 0x1f, 0x37, 0x34, 0x0b, 0xd6, 0xed,
  0xc4, 0x0b, 0xc3, 0xa4, 0x43, 0xff, 0x04, 0xc8, 0x20, 0xf7, 0x81, 0xbf,
  0x0b, 0x96, 0x94, 0x48, 0x94, 0x08, 0xe3, 0x1c, 0xc7, 0xe5, 0xc2, 0x99,
  0xf7, 0xf5, 0xe7, 0xbd, 0x1b, 0x03, 0x09, 0x09, 0x1e, 0x1d, 0x12, 0x1f,
  0x00, 0xef, 0x02, 0xa6, 0xc4, 0x23, 0x9a, 0xaf, 0xd9, 0xfa, 0x05, 0x58,
  0x1a, 0xf7, 0xf9, 0x26, 0x38, 0xb5, 0x7f, 0xf9, 0xed, 0x32, 0x16, 0xf5,
  0xb2, 0xf6, 0xff, 0xff, 0x04, 0x00, 0x00, 0x00, 0x80, 0x00, 0x00, 0x00,
  0xe2, 0xf6, 0xff, 0xff, 0xbc, 0xff, 0xff, 0xff, 0xc2, 0xeb, 0xff, 0xff,
  0xbe, 0xff, 0xff, 0xff, 0x34, 0xf9, 0xff, 0xff, 0x43, 0xf9, 0xff, 0xff,
  0x21, 0x04, 0x00, 0x00, 0x7d, 0x02, 0x00, 0x00, 0xd7, 0xfe, 0xff, 0xff,
  0x50, 0x01, 0x00, 0x00, 0x8c, 0xf5, 0xff, 0xff, 0x81, 0x00, 0x00, 0x00,
  0x21, 0xf6, 0xff, 0xff, 0xf8, 0xfd, 0xff, 0xff, 0x97, 0x03, 0x00, 0x00,
  0x47, 0x01, 0x00, 0x00, 0xd1, 0xf7, 0xff, 0xff, 0x1e, 0x00, 0x00, 0x00,
  0xa2, 0xf6, 0xff, 0xff, 0xdb, 0x03, 0x00, 0x00, 0x05, 0x03, 0x00, 0x00,
  0xee, 0xf7, 0xff, 0xff, 0x50, 0x06, 0x00, 0x00, 0x87, 0x01, 0x00, 0x00,
  0xd9, 0x00, 0x00, 0x00, 0x10, 0x01, 0x00, 0x00, 0x02, 0x04, 0x00, 0x00,
  0x5b, 0x02, 0x00, 0x00, 0x0a, 0x02, 0x00, 0x00, 0x59, 0xf5, 0xff, 0xff,
  0xe2, 0x04, 0x00, 0x00, 0x3f, 0x02, 0x00, 0x00, 0x3e, 0xf7, 0xff, 0xff,
  0x04, 0x00, 0x00, 0x00, 0x20, 0x01, 0x00, 0x00, 0xe3, 0xf7, 0xe9, 0x6b,
  0xb3, 0x7e, 0x60, 0x58, 0x9e, 0x78, 0xba, 0x73, 0x39, 0x4f, 0xb5, 0xaa,
  0x86, 0x69, 0x27, 0x11, 0x7f, 0x10, 0x60, 0x5d, 0xde, 0x95, 0x59, 0x73,
  0x2e, 0xc6, 0x73, 0x11, 0xc4, 0xe1, 0x0f, 0xf8, 0xe3, 0x30, 0x33, 0x25,
  0xb4, 0x12, 0xf8, 0x30, 0xe4, 0x1c, 0x8a, 0xe1, 0xfe, 0x13, 0x14, 0xfe,
  0x34, 0x04, 0x16, 0x0c, 0xe6, 0xa0, 0x2b, 0x36, 0x35, 0xf7, 0x34, 0xf9,
  0xd3, 0xd9, 0x81, 0x5b, 0x93, 0x7f, 0x5a, 0x57, 0xc6, 0x51, 0xac, 0x7e,
  0xc1, 0x42, 0x93, 0x2f, 0xf8, 0x53, 0x18, 0x1a, 0x6b, 0x15, 0x7f, 0x41,
  0x01, 0x81, 0x63, 0x7f, 0x7f, 0xfd, 0x7c, 0x16, 0x8a, 0x1b, 0x88, 0x7f,
  0xc5, 0x75, 0x81, 0x91, 0x81, 0x79, 0x12, 0x7f, 0x50, 0x65, 0xb1, 0x81,
  0x84, 0x72, 0x00, 0xf7, 0x79, 0xe4, 0x56, 0x7f, 0x96, 0xa2, 0x60, 0x7a,
  0x3f, 0x0a, 0x69, 0xbc, 0xd2, 0x11, 0x22, 0x0d, 0xe9, 0x26, 0x8f, 0xee,
  0x94, 0x17, 0xff, 0x2b, 0xd1, 0x21, 0xbe, 0xf9, 0x0f, 0x0e, 0x0f, 0xe0,
  0x35, 0xd1, 0x11, 0x13, 0xbc, 0xa2, 0x31, 0x41, 0x1b, 0x22, 0x2d, 0xc8,
  0xd8, 0x04, 0x9a, 0x5e, 0xbd, 0x77, 0x9e, 0xb3, 0xf0, 0x49, 0x36, 0x74,
  0xa5, 0x57, 0xbb, 0x3b, 0xfb, 0x78, 0xf1, 0xc8, 0x6d, 0xbe, 0x74, 0x53,
  0xd7, 0xa1, 0x7f, 0x74, 0x77, 0x13, 0x7f, 0xcb, 0x81, 0xb2, 0xcd, 0x60,
  0x81, 0x6e, 0x67, 0x7f, 0xda, 0x7f, 0x89, 0x70, 0x51, 0x7a, 0x7f, 0xca,
  0x81, 0x5c, 0x81, 0x81, 0x68, 0x92, 0x46, 0x4e, 0x81, 0xb8, 0x70, 0x66,
  0x3a, 0xf8, 0x75, 0x81, 0xbc, 0xc1, 0xea, 0x12, 0xee, 0x29, 0x36, 0x1d,
  0x0d, 0x26, 0xcd, 0x3e, 0xcd, 0x33, 0x38, 0x0d, 0xe5, 0x08, 0xba, 0xa3,
  0x38, 0xba, 0x13, 0x18, 0xd2, 0x92, 0x3f, 0x33, 0x12, 0xd6, 0x22, 0xae,
  0xd9, 0x81, 0xd7, 0x7d, 0xa0, 0x4b, 0x6c, 0x4f, 0x44, 0x45, 0x81, 0x7a,
  0x81, 0x7f, 0x53, 0x3a, 0xaf, 0x7f, 0xa6, 0xd7, 0x78, 0x81, 0x72, 0x3b,
  0xd9, 0xa2, 0x79, 0x5a, 0x44, 0x81, 0x75, 0xd6, 0x6a, 0xf8, 0xff, 0xff,
  0x04, 0x00, 0x00, 0x00, 0x80, 0x00, 0x00, 0x00, 0x68, 0x07, 0x00, 0x00,
  0xe4, 0x03, 0x00, 0x00, 0x28, 0x05, 0x00, 0x00, 0x86, 0xfe, 0xff, 0xff,
  0x73, 0x0c, 0x00, 0x00, 0x27, 0xfc, 0xff, 0xff, 0xe1, 0xfe, 0xff, 0xff,
  0x99, 0xff, 0xff, 0xff, 0x4d, 0x07, 0x00, 0x00, 0x31, 0xfd, 0xff, 0xff,
  0x32, 0x06, 0x00, 0x00, 0x1b, 0xff, 0xff, 0xff, 0x3b, 0x00, 0x00, 0x00,
  0x8b, 0xff, 0xff, 0xff, 0x27, 0x01, 0x00, 0x00, 0x2d, 0x01, 0x00, 0x00,
  0x52, 0x03, 0x00, 0x00, 0x42, 0xff, 0xff, 0xff, 0xb8, 0xff, 0xff, 0xff,
  0x7f, 0x04, 0x00, 0x00, 0x0a, 0xff, 0xff, 0xff, 0xb9, 0x09, 0x00, 0x00,
  0xd9, 0xfd, 0xff, 0xff, 0xf6, 0xfc, 0xff, 0xff, 0x95, 0x09, 0x00, 0x00,
  0x02, 0x09, 0x00, 0x00, 0x1e, 0xfe, 0xff, 0xff, 0xbc, 0xff, 0xff, 0xff,
  0x1b, 0xfe, 0xff, 0xff, 0x8d, 0x01, 0x00, 0x00, 0x43, 0xff, 0xff, 0xff,
  0x55, 0x04, 0x00, 0x00, 0xf6, 0xf8, 0xff, 0xff, 0x04, 0x00, 0x00, 0x00,
  0x00, 0x04, 0x00, 0x00, 0x61, 0xf3, 0x0f, 0xf2, 0xeb, 0x1d, 0xc7, 0x47,
  0x0d, 0x1e, 0x02, 0x06, 0x0b, 0xd3, 0x06, 0xff, 0x9a, 0x11, 0xc4, 0x04,
  0xd6, 0xf6, 0x0b, 0xc5, 0xfa, 0xea, 0xf3, 0xe3, 0x13, 0x14, 0x7f, 0x21,
  0xda, 0x0a, 0xef, 0xfe, 0x12, 0xea, 0x06, 0x10, 0x2c, 0xf4, 0x0f, 0xe1,
  0xf2, 0x16, 0x1d, 0xea, 0x1a, 0xf7, 0x05, 0xff, 0xff, 0xfb, 0xe1, 0x0c,
  0x21, 0x02, 0x08, 0x7f, 0xfc, 0x06, 0x20, 0x29, 0x01, 0xf7, 0xc9, 0xf9,
  0xfd, 0x3c, 0x08, 0xe3, 0xe4, 0xe7, 0x34, 0x13, 0x5b, 0xda, 0xa7, 0xbd,
  0xdd, 0xbd, 0x7f, 0xca, 0xd8, 0x22, 0xd0, 0xd4, 0x15, 0xe9, 0x21, 0x57,
  0xf8, 0x53, 0xea, 0x0c, 0xb6, 0xd2, 0xc5, 0x12, 0x69, 0x3f, 0x08, 0xf9,
  0xf4, 0xd3, 0x38, 0x2a, 0x45, 0xcd, 0x94, 0xe9, 0x00, 0xc6, 0x7f, 0xbe,
  0x04, 0x26, 0xff, 0xf3, 0x1d, 0xf1, 0xff, 0x04, 0xff, 0x6f, 0x01, 0xf6,
  0xf6, 0x2c, 0xfb, 0x15, 0xf2, 0xf3, 0x04, 0x1d, 0x22, 0x02, 0x19, 0xf2,
  0xc6, 0x00, 0x42, 0xf3, 0xd7, 0x03, 0xef, 0x33, 0x7f, 0xf8, 0x04, 0xfa,
  0x17, 0xf5, 0xfc, 0xf2, 0xf9, 0xed, 0x0d, 0x18, 0xfa, 0x44, 0xf2, 0xc2,
  0xd0, 0x1d, 0xcb, 0x7f, 0x12, 0x2d, 0x3b, 0x20, 0x43, 0x2f, 0x17, 0xd4,
  0xef, 0x21, 0xa9, 0x0e, 0xbd, 0xec, 0x20, 0xc0, 0x26, 0x12, 0xfb, 0xd5,
  0xd6, 0xf6, 0x71, 0x25, 0xc8, 0xe8, 0xf6, 0xec, 0xba, 0xf8, 0xf9, 0xf8,
  0x4b, 0x1e, 0x40, 0xcb, 0xb0, 0xd0, 0x1a, 0xa9, 0xb6, 0x03, 0xd6, 0x4b,
  0x1b, 0xf5, 0x4a, 0xc5, 0x27, 0x0a, 0x7f, 0xf3, 0x06, 0x18, 0xce, 0x4c,
  0xdc, 0x42, 0xdd, 0x18, 0x59, 0xea, 0x7f, 0xf1, 0xf6, 0xd5, 0x45, 0x1a,
  0x1c, 0x23, 0x06, 0x21, 0xf1, 0xf8, 0x24, 0xfe, 0x06, 0x23, 0x00, 0x3d,
  0x08, 0x04, 0xf4, 0xf1, 0x00, 0x16, 0xe1, 0xef, 0x24, 0xc7, 0xec, 0xfe,
  0x39, 0x05, 0x53, 0xfd, 0xfa, 0xf5, 0x35, 0x4c, 0x7f, 0x33, 0xe6, 0x0b,
  0xdc, 0xee, 0x33, 0xd9, 0xfc, 0xfd, 0xd9, 0x15, 0x32, 0x08, 0xf4, 0xe4,
  0xe0, 0x39, 0xc2, 0x38, 0x92, 0x39, 0xf8, 0x30, 0x74, 0x50, 0xf6, 0xfd,
  0x44, 0x9e, 0x24, 0x24, 0x37, 0xed, 0x8c, 0xc8, 0xf4, 0xcb, 0x5b, 0xdf,
  0x5b, 0x64, 0x57, 0xfb, 0x81, 0x0e, 0xee, 0xde, 0xec, 0x7a, 0xe9, 0xfa,
  0xeb, 0x16, 0xf3, 0xee, 0x05, 0xd6, 0xfe, 0xed, 0x47, 0xfb, 0x0f, 0xea,
  0x00, 0x7f, 0x1f, 0xeb, 0xd6, 0xea, 0xf2, 0xfc, 0x05, 0x30, 0xf9, 0x0d,
  0x0d, 0x0f, 0x10, 0x54, 0xf2, 0x07, 0x1a, 0x30, 0x25, 0x46, 0x4b, 0xc7,
  0xd3, 0xe2, 0xfa, 0xf1, 0x49, 0x1c, 0x7c, 0xfa, 0xfa, 0x5c, 0x2f, 0xd6,
  0xda, 0x24, 0xb9, 0x50, 0x05, 0xc1, 0x0e, 0x10, 0x0d, 0x4e, 0x44, 0xe9,
  0xf3, 0xb7, 0xd9, 0x7f, 0xaa, 0xa9, 0x95, 0x07, 0x27, 0x03, 0x25, 0xd9,
  0x72, 0xe7, 0x1e, 0xe5, 0x32, 0xd5, 0x2e, 0xc6, 0xf4, 0xa2, 0x3f, 0x0b,
  0x0e, 0xde, 0xcf, 0xf7, 0x13, 0xe3, 0x7f, 0x63, 0x03, 0x48, 0xe0, 0x27,
  0x3d, 0x62, 0xe8, 0xf4, 0xe5, 0x13, 0xc4, 0x38, 0x29, 0xee, 0x0b, 0xfa,
  0xe1, 0xc7, 0x18, 0xbe, 0xb5, 0x1a, 0xb6, 0x40, 0xee, 0xeb, 0x7f, 0xfa,
  0x02, 0xd9, 0xf0, 0xd8, 0x13, 0x14, 0x4e, 0x00, 0x27, 0x4b, 0x02, 0xf4,
  0xd0, 0xfc, 0xd6, 0x17, 0x25, 0xfb, 0x1c, 0xee, 0xd7, 0x3e, 0x1e, 0xc4,
  0xc5, 0x15, 0xc8, 0x2b, 0x04, 0xdc, 0x7f, 0x04, 0x1d, 0x0b, 0xf7, 0xe0,
  0xfd, 0xf0, 0x01, 0x13, 0x15, 0xee, 0x81, 0x44, 0x5f, 0xee, 0x22, 0x72,
  0x27, 0xea, 0x73, 0xed, 0x0a, 0xfb, 0xdc, 0x13, 0xf2, 0xe2, 0x46, 0xc7,
  0x0f, 0xd0, 0xba, 0xef, 0xd1, 0xed, 0xef, 0xea, 0xda, 0x2e, 0x7a, 0x71,
  0x4b, 0xda, 0xf4, 0xac, 0x10, 0xe7, 0xf9, 0xff, 0xd6, 0x31, 0x56, 0x61,
  0x7f, 0x0d, 0x16, 0x74, 0xcd, 0x1c, 0xc5, 0x21, 0xe0, 0xb6, 0xdd, 0x0e,
  0x23, 0xee, 0xef, 0xf0, 0x0b, 0x06, 0xe2, 0x48, 0xca, 0x1c, 0xf3, 0x01,
  0xf9, 0xe9, 0x02, 0x5a, 0x31, 0xf3, 0x13, 0xcf, 0x81, 0x0a, 0x2b, 0xf2,
  0xe4, 0xf4, 0xe7, 0x28, 0x18, 0x08, 0xf5, 0x02, 0x30, 0x05, 0x07, 0x67,
  0xed, 0x08, 0x3a, 0x22, 0x07, 0x06, 0xd0, 0x17, 0x12, 0xf0, 0x19, 0x21,
  0x1f, 0xe1, 0x27, 0xfa, 0xea, 0x06, 0x0a, 0x10, 0xfa, 0xe2, 0x21, 0xfd,
  0x1e, 0xf3, 0xa9, 0x0f, 0x15, 0xfb, 0x02, 0x7f, 0xf1, 0x01, 0x1d, 0x31,
  0x30, 0x45, 0xd4, 0x1d, 0x1e, 0xb0, 0x21, 0xf5, 0xd4, 0x15, 0x58, 0x03,
  0xee, 0x4f, 0x66, 0x1e, 0x81, 0x04, 0xf1, 0x18, 0x75, 0xec, 0x0b, 0x2f,
  0x24, 0xf4, 0xee, 0xdf, 0xf8, 0xdf, 0xca, 0x0e, 0xce, 0x06, 0x0f, 0xeb,
  0xdc, 0xf1, 0x02, 0x02, 0x1e, 0x27, 0x3d, 0xcf, 0xc1, 0xd9, 0x1d, 0x9c,
  0xe4, 0x19, 0xd2, 0x4c, 0x08, 0xed, 0x39, 0xcf, 0xfd, 0x16, 0x7f, 0xe2,
  0xf6, 0x0d, 0xd3, 0x44, 0xe7, 0xcd, 0xc4, 0xfd, 0x5b, 0x42, 0xf4, 0xf9,
  0x0b, 0xf2, 0x24, 0x1e, 0x7d, 0xd5, 0x9f, 0xc9, 0xf7, 0xd5, 0x57, 0xb5,
  0xf5, 0xf8, 0xfc, 0xce, 0xf8, 0xf5, 0xff, 0x00, 0xeb, 0x7f, 0x0b, 0x3e,
  0xfa, 0x03, 0x2f, 0xe0, 0xba, 0xe7, 0xfa, 0xfd, 0x76, 0x26, 0x68, 0xc7,
  0x99, 0xd5, 0x3b, 0xab, 0xba, 0x22, 0xaa, 0x73, 0x1e, 0xca, 0x65, 0xe3,
  0x0b, 0x1c, 0x7f, 0xea, 0x03, 0xc3, 0xc0, 0x51, 0x29, 0x39, 0x7c, 0x94,
  0xbf, 0xf4, 0xc7, 0xf2, 0x0b, 0x5d, 0x6d, 0x2a, 0xf9, 0x35, 0x02, 0x15,
  0x81, 0x2a, 0xa6, 0x24, 0xd4, 0xb6, 0xf6, 0xd7, 0x5d, 0x54, 0x0a, 0x14,
  0x10, 0xab, 0xe7, 0x61, 0x2e, 0xf9, 0x05, 0x9c, 0x61, 0xf5, 0xf1, 0xf5,
  0xaa, 0x0f, 0x36, 0x6b, 0x38, 0x22, 0x12, 0x50, 0xbb, 0x13, 0xc0, 0x0f,
  0xe3, 0xfa, 0x05, 0x3c, 0x7f, 0x13, 0xe6, 0x0e, 0x24, 0xd5, 0xe9, 0x16,
  0x01, 0xd5, 0x13, 0xa6, 0x7f, 0x16, 0xe3, 0xf5, 0xe7, 0x23, 0x16, 0x48,
  0x1a, 0xc8, 0xe6, 0x3a, 0xcd, 0x0f, 0xce, 0xfe, 0xf1, 0xab, 0x11, 0x0a,
  0x7c, 0x08, 0xf6, 0x07, 0x45, 0xed, 0xee, 0x15, 0x11, 0x01, 0x0c, 0xfe,
  0xf8, 0x0a, 0xdb, 0x44, 0xfe, 0x0f, 0x0b, 0xfc, 0x05, 0xe8, 0x07, 0xee,
  0xd7, 0x09, 0xdc, 0x0f, 0xd7, 0xf9, 0x01, 0xdd, 0x14, 0xed, 0xfb, 0xdb,
  0x06, 0x03, 0x7f, 0x28, 0x11, 0x0e, 0xd9, 0x0d, 0x12, 0xef, 0x19, 0xf4,
  0xf9, 0xf0, 0x1c, 0xfe, 0xfa, 0x00, 0x16, 0xf8, 0xf6, 0xf1, 0x12, 0xfd,
  0xd2, 0xeb, 0xc9, 0x0c, 0x06, 0xf3, 0x00, 0x7f, 0x07, 0x15, 0xb4, 0xfc,
  0xf3, 0xfe, 0xdf, 0x0a, 0x0f, 0x18, 0x01, 0x67, 0x1c, 0xde, 0x15, 0xca,
  0xe0, 0xf7, 0xf5, 0xfd, 0x09, 0xf4, 0xec, 0x1f, 0x0e, 0xf5, 0xf4, 0xf7,
  0xf1, 0xf3, 0x02, 0xf7, 0xdf, 0x14, 0x7f, 0x2a, 0x3a, 0x07, 0x1f, 0xd7,
  0xe7, 0xe4, 0xff, 0xfa, 0x0a, 0x2a, 0x27, 0x0d, 0x0e, 0x7f, 0x06, 0xf1,
  0xce, 0x0b, 0xdf, 0x0c, 0xd8, 0xd9, 0xee, 0xef, 0x16, 0x17, 0x06, 0x17,
  0xf7, 0xf1, 0xdd, 0x3e, 0xee, 0xb3, 0x8b, 0xe2, 0x36, 0x2f, 0xfc, 0xd4,
  0x13, 0x28, 0x7f, 0x04, 0xfe, 0xca, 0xa3, 0xe5, 0x9e, 0xd8, 0x41, 0xab,
  0xdc, 0xdc, 0xe5, 0xad, 0x14, 0xe1, 0x3a, 0xf6, 0x31, 0x34, 0xf4, 0x57,
  0xf0, 0xef, 0xd7, 0x00, 0x4a, 0x40, 0xf9, 0xfe, 0xf1, 0xe7, 0x24, 0x22,
  0x7f, 0xde, 0xa2, 0xcf, 0xe7, 0xd4, 0x55, 0xba, 0xf2, 0x11, 0xfb, 0xd9,
  0xe6, 0xff, 0xfc, 0x04, 0xe3, 0x7d, 0x0c, 0x43, 0x02, 0xfd, 0xff, 0xff,
  0x04, 0x00, 0x00, 0x00, 0x80, 0x00, 0x00, 0x00, 0x51, 0xff, 0xff, 0xff,
  0x98, 0xfe, 0xff, 0xff, 0x67, 0x01, 0x00, 0x00, 0xcc, 0xff, 0xff, 0xff,
  0x7b, 0xfe, 0xff, 0xff, 0x1c, 0xff, 0xff, 0xff, 0x49, 0x00, 0x00, 0x00,
  0xcc, 0xfc, 0xff, 0xff, 0x8a, 0xfd, 0xff, 0xff, 0xa3, 0xfe, 0xff, 0xff,
  0x81, 0xfe, 0xff, 0xff, 0x1b, 0xfb, 0xff, 0xff, 0x6b, 0x00, 0x00, 0x00,
  0xd4, 0xfe, 0xff, 0xff, 0x4e, 0xff, 0xff, 0xff, 0x26, 0xfe, 0xff, 0xff,
  0x1b, 0xfc, 0xff, 0xff, 0xe2, 0xfe, 0xff, 0xff, 0x7e, 0xfe, 0xff, 0xff,
  0xe1, 0xfd, 0xff, 0xff, 0x6b, 0xff, 0xff, 0xff, 0x0a, 0x00, 0x00, 0x00,
  0xc2, 0xfd, 0xff, 0xff, 0xb6, 0xfc, 0xff, 0xff, 0x7c, 0xfb, 0xff, 0xff,
  0xcc, 0xfc, 0xff, 0xff, 0x4d, 0xff, 0xff, 0xff, 0x5b, 0xff, 0xff, 0xff,
  0xec, 0xfe, 0xff, 0xff, 0x6d, 0xfe, 0xff, 0xff, 0x0b, 0x02, 0x00, 0x00,
  0xd1, 0xff, 0xff, 0xff, 0x8e, 0xfd, 0xff, 0xff, 0x04, 0x00, 0x00, 0x00,
  0x80, 0x01, 0x00, 0x00, 0x28, 0xea, 0x15, 0x24, 0xf0, 0x13, 0x13, 0xce,
  0xf0, 0x20, 0xdd, 0xf6, 0xfa, 0x2d, 0x1f, 0x0d, 0xc5, 0xf2, 0xda, 0xc0,
  0x0f, 0x2d, 0x0a, 0xeb, 0xcc, 0xe9, 0x24, 0xcf, 0x17, 0xea, 0x13, 0x2e,
  0xe6, 0xd9, 0x29, 0x2d, 0xe6, 0xd5, 0x28, 0x05, 0x1b, 0x1b, 0xbb, 0xf6,
  0x2c, 0xb3, 0x9d, 0xe2, 0x0b, 0xcc, 0xce, 0xd1, 0x26, 0x2e, 0x1e, 0xc5,
  0xd7, 0xf8, 0xcc, 0xe1, 0xe4, 0xbd, 0x20, 0x2d, 0xea, 0xd2, 0xbe, 0xce,
  0xcf, 0x04, 0x14, 0x1d, 0x13, 0xda, 0x07, 0x21, 0xe2, 0x09, 0x26, 0xb7,
  0x1b, 0xbc, 0xc5, 0x17, 0x15, 0xba, 0x1e, 0x21, 0x1f, 0x18, 0xd4, 0xde,
  0xb7, 0x24, 0xf8, 0xbf, 0xd1, 0xe6, 0xfd, 0x15, 0xc2, 0x12, 0xcd, 0x1d,
  0x2f, 0x17, 0x1c, 0x11, 0xd2, 0xbf, 0x1b, 0xc5, 0x21, 0xc2, 0xd4, 0x14,
  0xd0, 0x0e, 0xcf, 0x1e, 0x21, 0x0a, 0xbb, 0xe4, 0xb8, 0x37, 0xf6, 0x1c,
  0x25, 0xfc, 0xb1, 0xce, 0x37, 0x23, 0x07, 0xc7, 0x9b, 0x37, 0xe6, 0xe4,
  0xdd, 0x30, 0x36, 0x22, 0xa1, 0x1e, 0x03, 0x03, 0x06, 0xac, 0x0f, 0xd4,
  0xbc, 0xbc, 0x29, 0xcd, 0x25, 0xc3, 0xaa, 0xc6, 0x2b, 0xb5, 0xe7, 0x1d,
  0xfb, 0x07, 0xd6, 0xff, 0x0a, 0x16, 0x81, 0xc6, 0xb6, 0x1b, 0x06, 0xf5,
  0x29, 0xb8, 0xd3, 0x00, 0xce, 0x12, 0xdc, 0x02, 0x1c, 0x38, 0x12, 0xe8,
  0xdd, 0xcf, 0x0d, 0x13, 0xea, 0x34, 0x33, 0x0f, 0xa7, 0xdd, 0xd9, 0xf7,
  0x01, 0xf6, 0x21, 0xd6, 0x1c, 0xcf, 0xd2, 0xd7, 0x0b, 0x1f, 0x29, 0xd8,
  0xd2, 0x08, 0xcf, 0x0a, 0x17, 0x19, 0xc6, 0x46, 0xd3, 0x10, 0x01, 0x10,
  0x2c, 0x04, 0xc1, 0xc4, 0x0c, 0x27, 0xc4, 0xee, 0x19, 0xd8, 0xfe, 0xfe,
  0xc5, 0x1a, 0x17, 0x27, 0x2e, 0x0f, 0x03, 0xfd, 0xd1, 0xdd, 0xcf, 0x13,
  0x0f, 0xf4, 0x2f, 0xd4, 0x23, 0x2d, 0xd7, 0xe9, 0xff, 0xd2, 0xf9, 0xe3,
  0xe9, 0x05, 0x33, 0xd9, 0xe4, 0xc3, 0xf2, 0x26, 0x20, 0xde, 0xff, 0xde,
  0xf4, 0xcc, 0xc1, 0xfd, 0x31, 0xe0, 0x31, 0x25, 0xf2, 0x08, 0xf4, 0xd7,
  0xc7, 0x17, 0x27, 0xd7, 0xc1, 0x21, 0xfe, 0xcc, 0x35, 0xb1, 0x33, 0xe3,
  0xaa, 0x04, 0x2a, 0x28, 0x2c, 0xe7, 0xfe, 0xb9, 0xb6, 0x1d, 0x0f, 0x25,
  0x27, 0xa9, 0x30, 0xf8, 0xdb, 0xe3, 0xbf, 0x16, 0xf4, 0xdd, 0xf1, 0xb2,
  0xc2, 0xee, 0x0c, 0x33, 0x01, 0x9c, 0xe8, 0x44, 0x2c, 0x36, 0xdb, 0xc2,
  0x12, 0xa1, 0xbe, 0x2a, 0xe8, 0xd6, 0x03, 0x22, 0xe4, 0x1a, 0xdb, 0xbd,
  0xdc, 0xee, 0xb6, 0x09, 0xe0, 0xe2, 0x0c, 0x1d, 0x15, 0x33, 0x2a, 0x03,
  0x10, 0xf3, 0xe6, 0x08, 0xe9, 0xee, 0x2d, 0xd2, 0x28, 0x06, 0xe2, 0x29,
  0xb9, 0x2f, 0x33, 0xda, 0xdf, 0xe0, 0xdc, 0xb8, 0xc9, 0xb4, 0x22, 0x38,
  0x27, 0xdf, 0xd3, 0xf7, 0x1a, 0xff, 0xff, 0xff, 0x04, 0x00, 0x00, 0x00,
  0x30, 0x00, 0x00, 0x00, 0x68, 0xea, 0xff, 0xff, 0x24, 0xfe, 0xff, 0xff,
  0x89, 0x09, 0x00, 0x00, 0x45, 0xfb, 0xff, 0xff, 0x5d, 0x06, 0x00, 0x00,
  0xfd, 0x0a, 0x00, 0x00, 0x78, 0xfe, 0xff, 0xff, 0xb5, 0xf8, 0xff, 0xff,
  0xbd, 0x03, 0x00, 0x00, 0x11, 0x07, 0x00, 0x00, 0xc7, 0x0b, 0x00, 0x00,
  0x67, 0xf4, 0xff, 0xff, 0x56, 0xff, 0xff, 0xff, 0x04, 0x00, 0x00, 0x00,
  0x08, 0x00, 0x00, 0x00, 0x01, 0x00, 0x00, 0x00, 0x02, 0x00, 0x00, 0x00,
  0xe8, 0xdf, 0xff, 0xff, 0xec, 0xdf, 0xff, 0xff, 0x0f, 0x00, 0x00, 0x00,
  0x4d, 0x4c, 0x49, 0x52, 0x20, 0x43, 0x6f, 0x6e, 0x76, 0x65, 0x72, 0x74,
  0x65, 0x64, 0x2e, 0x00, 0x01, 0x00, 0x00, 0x00, 0x14, 0x00, 0x00, 0x00,
  0x00, 0x00, 0x0e, 0x00, 0x18, 0x00, 0x14, 0x00, 0x10, 0x00, 0x0c, 0x00,
  0x08, 0x00, 0x04, 0x00, 0x0e, 0x00, 0x00, 0x00, 0x14, 0x00, 0x00, 0x00,
  0x1c, 0x00, 0x00, 0x00, 0x74, 0x02, 0x00, 0x00, 0x78, 0x02, 0x00, 0x00,
  0x7c, 0x02, 0x00, 0x00, 0x04, 0x00, 0x00, 0x00, 0x6d, 0x61, 0x69, 0x6e,
  0x00, 0x00, 0x00, 0x00, 0x08, 0x00, 0x00, 0x00, 0x10, 0x02, 0x00, 0x00,
  0xa8, 0x01, 0x00, 0x00, 0x48, 0x01, 0x00, 0x00, 0x00, 0x01, 0x00, 0x00,
  0xac, 0x00, 0x00, 0x00, 0x78, 0x00, 0x00, 0x00, 0x40, 0x00, 0x00, 0x00,
  0x04, 0x00, 0x00, 0x00, 0x82, 0xfe, 0xff, 0xff, 0x1c, 0x00, 0x00, 0x00,
  0x00, 0x00, 0x00, 0x09, 0x1c, 0x00, 0x00, 0x00, 0x20, 0x00, 0x00, 0x00,
  0x04, 0x00, 0x00, 0x00, 0x00, 0x00, 0x06, 0x00, 0x08, 0x00, 0x04, 0x00,
  0x06, 0x00, 0x00, 0x00, 0x00, 0x00, 0x80, 0x3f, 0x01, 0x00, 0x00, 0x00,
  0x15, 0x00, 0x00, 0x00, 0x01, 0x00, 0x00, 0x00, 0x14, 0x00, 0x00, 0x00,
  0x5a, 0xff, 0xff, 0xff, 0x14, 0x00, 0x00, 0x00, 0x00, 0x00, 0x00, 0x08,
  0x10, 0x00, 0x00, 0x00, 0x14, 0x00, 0x00, 0x00, 0x03, 0x00, 0x00, 0x00,
  0xb4, 0xe0, 0xff, 0xff, 0x01, 0x00, 0x00, 0x00, 0x14, 0x00, 0x00, 0x00,
  0x03, 0x00, 0x00, 0x00, 0x13, 0x00, 0x00, 0x00, 0x03, 0x00, 0x00, 0x00,
  0x02, 0x00, 0x00, 0x00, 0x8e, 0xff, 0xff, 0xff, 0x14, 0x00, 0x00, 0x00,
  0x00, 0x00, 0x00, 0x1b, 0x10, 0x00, 0x00, 0x00, 0x14, 0x00, 0x00, 0x00,
  0x02, 0x00, 0x00, 0x00, 0xe8, 0xe0, 0xff, 0xff, 0x01, 0x00, 0x00, 0x00,
  0x13, 0x00, 0x00, 0x00, 0x02, 0x00, 0x00, 0x00, 0x12, 0x00, 0x00, 0x00,
  0x01, 0x00, 0x00, 0x00, 0xba, 0xfe, 0xff, 0xff, 0x10, 0x00, 0x00, 0x00,
  0x00, 0x00, 0x00, 0x01, 0x1c, 0x00, 0x00, 0x00, 0x20, 0x00, 0x00, 0x00,
  0x6c, 0xff, 0xff, 0xff, 0x00, 0x00, 0x00, 0x01, 0x01, 0x00, 0x00, 0x00,
  0x01, 0x00, 0x00, 0x00, 0x00, 0x00, 0x00, 0x01, 0x01, 0x00, 0x00, 0x00,
  0x12, 0x00, 0x00, 0x00, 0x03, 0x00, 0x00, 0x00, 0x11, 0x00, 0x00, 0x00,
  0x05, 0x00, 0x00, 0x00, 0x04, 0x00, 0x00, 0x00, 0x00, 0x00, 0x0e, 0x00,
  0x18, 0x00, 0x14, 0x00, 0x10, 0x00, 0x0c, 0x00, 0x0b, 0x00, 0x04, 0x00,
  0x0e, 0x00, 0x00, 0x00, 0x14, 0x00, 0x00, 0x00, 0x00, 0x00, 0x00, 0x02,
  0x20, 0x00, 0x00, 0x00, 0x24, 0x00, 0x00, 0x00, 0x01, 0x00, 0x00, 0x00,
  0x5e, 0xff, 0xff, 0xff, 0x00, 0x00, 0x00, 0x01, 0x01, 0x00, 0x00, 0x00,
  0x01, 0x00, 0x00, 0x00, 0x01, 0x00, 0x00, 0x00, 0x01, 0x00, 0x00, 0x00,
  0x11, 0x00, 0x00, 0x00, 0x03, 0x00, 0x00, 0x00, 0x10, 0x00, 0x00, 0x00,
  0x07, 0x00, 0x00, 0x00, 0x06, 0x00, 0x00, 0x00, 0x4e, 0xff, 0xff, 0xff,
  0x1c, 0x00, 0x00, 0x00, 0x00, 0x00, 0x00, 0x01, 0x28, 0x00, 0x00, 0x00,
  0x2c, 0x00, 0x00, 0x00, 0x0c, 0x00, 0x14, 0x00, 0x13, 0x00, 0x0c, 0x00,
  0x08, 0x00, 0x07, 0x00, 0x0c, 0x00, 0x00, 0x00, 0x00, 0x00, 0x00, 0x01,
  0x01, 0x00, 0x00, 0x00, 0x01, 0x00, 0x00, 0x00, 0x00, 0x00, 0x00, 0x01,
  0x01, 0x00, 0x00, 0x00, 0x10, 0x00, 0x00, 0x00, 0x03, 0x00, 0x00, 0x00,
  0x0f, 0x00, 0x00, 0x00, 0x09, 0x00, 0x00, 0x00, 0x08, 0x00, 0x00, 0x00,
  0x00, 0x00, 0x0e, 0x00, 0x1a, 0x00, 0x14, 0x00, 0x10, 0x00, 0x0c, 0x00,
  0x0b, 0x00, 0x04, 0x00, 0x0e, 0x00, 0x00, 0x00, 0x24, 0x00, 0x00, 0x00,
  0x00, 0x00, 0x00, 0x02, 0x30, 0x00, 0x00, 0x00, 0x34, 0x00, 0x00, 0x00,
  0x01, 0x00, 0x00, 0x00, 0x00, 0x00, 0x0e, 0x00, 0x14, 0x00, 0x00, 0x00,
  0x10, 0x00, 0x0c, 0x00, 0x08, 0x00, 0x07, 0x00, 0x0e, 0x00, 0x00, 0x00,
  0x00, 0x00, 0x00, 0x01, 0x01, 0x00, 0x00, 0x00, 0x01, 0x00, 0x00, 0x00,
  0x01, 0x00, 0x00, 0x00, 0x01, 0x00, 0x00, 0x00, 0x0f, 0x00, 0x00, 0x00,
  0x03, 0x00, 0x00, 0x00, 0x0e, 0x00, 0x00, 0x00, 0x0b, 0x00, 0x00, 0x00,
  0x0a, 0x00, 0x00, 0x00, 0x00, 0x00, 0x0e, 0x00, 0x14, 0x00, 0x00, 0x00,
  0x10, 0x00, 0x0c, 0x00, 0x0b, 0x00, 0x04, 0x00, 0x0e, 0x00, 0x00, 0x00,
  0x1c, 0x00, 0x00, 0x00, 0x00, 0x00, 0x00, 0x01, 0x24, 0x00, 0x00, 0x00,
  0x28, 0x00, 0x00, 0x00, 0x0c, 0x00, 0x10, 0x00, 0x00, 0x00, 0x0c, 0x00,
  0x08, 0x00, 0x07, 0x00, 0x0c, 0x00, 0x00, 0x00, 0x00, 0x00, 0x00, 0x01,
  0x01, 0x00, 0x00, 0x00, 0x01, 0x00, 0x00, 0x00, 0x01, 0x00, 0x00, 0x00,
  0x0e, 0x00, 0x00, 0x00, 0x03, 0x00, 0x00, 0x00, 0x00, 0x00, 0x00, 0x00,
  0x0d, 0x00, 0x00, 0x00, 0x0c, 0x00, 0x00, 0x00, 0x01, 0x00, 0x00, 0x00,
  0x15, 0x00, 0x00, 0x00, 0x01, 0x00, 0x00, 0x00, 0x00, 0x00, 0x00, 0x00,
  0x16, 0x00, 0x00, 0x00, 0x8c, 0x1d, 0x00, 0x00, 0x30, 0x1d, 0x00, 0x00,
  0xb8, 0x1c, 0x00, 0x00, 0x54, 0x1c, 0x00, 0x00, 0x80, 0x1a, 0x00, 0x00,
  0x9c, 0x18, 0x00, 0x00, 0xc8, 0x16, 0x00, 0x00, 0xcc, 0x14, 0x00, 0x00,
  0xe0, 0x12, 0x00, 0x00, 0xfc, 0x10, 0x00, 0x00, 0x28, 0x0f, 0x00, 0x00,
  0x40, 0x0d, 0x00, 0x00, 0x68, 0x0b, 0x00, 0x00, 0x84, 0x09, 0x00, 0x00,
  0x38, 0x08, 0x00, 0x00, 0x5c, 0x06, 0x00, 0x00, 0x08, 0x05, 0x00, 0x00,
  0x2c, 0x03, 0x00, 0x00, 0xd8, 0x01, 0x00, 0x00, 0x3c, 0x01, 0x00, 0x00,
  0x80, 0x00, 0x00, 0x00, 0x04, 0x00, 0x00, 0x00, 0xe2, 0xe2, 0xff, 0xff,
  0x00, 0x00, 0x00, 0x01, 0x18, 0x00, 0x00, 0x00, 0x20, 0x00, 0x00, 0x00,
  0x3c, 0x00, 0x00, 0x00, 0x16, 0x00, 0x00, 0x00, 0x00, 0x00, 0x00, 0x09,
  0x50, 0x00, 0x00, 0x00, 0x02, 0x00, 0x00, 0x00, 0xff, 0xff, 0xff, 0xff,
  0x0c, 0x00, 0x00, 0x00, 0xc4, 0xe2, 0xff, 0xff, 0x08, 0x00, 0x00, 0x00,
  0x10, 0x00, 0x00, 0x00, 0x01, 0x00, 0x00, 0x00, 0x80, 0xff, 0xff, 0xff,
  0xff, 0xff, 0xff, 0xff, 0x01, 0x00, 0x00, 0x00, 0x00, 0x00, 0x80, 0x3b,
  0x1b, 0x00, 0x00, 0x00, 0x53, 0x74, 0x61, 0x74, 0x65, 0x66, 0x75, 0x6c,
  0x50, 0x61, 0x72, 0x74, 0x69, 0x74, 0x69, 0x6f, 0x6e, 0x65, 0x64, 0x43,
  0x61, 0x6c, 0x6c, 0x5f, 0x31, 0x3a, 0x30, 0x00, 0x02, 0x00, 0x00, 0x00,
  0x01, 0x00, 0x00, 0x00, 0x0c, 0x00, 0x00, 0x00, 0x5a, 0xe3, 0xff, 0xff,
  0x00, 0x00, 0x00, 0x01, 0x18, 0x00, 0x00, 0x00, 0x20, 0x00, 0x00, 0x00,
  0x40, 0x00, 0x00, 0x00, 0x15, 0x00, 0x00, 0x00, 0x00, 0x00, 0x00, 0x09,
  0x90, 0x00, 0x00, 0x00, 0x02, 0x00, 0x00, 0x00, 0xff, 0xff, 0xff, 0xff,
  0x0c, 0x00, 0x00, 0x00, 0x3c, 0xe3, 0xff, 0xff, 0x08, 0x00, 0x00, 0x00,
  0x14, 0x00, 0x00, 0x00, 0x01, 0x00, 0x00, 0x00, 0x1f, 0x00, 0x00, 0x00,
  0x00, 0x00, 0x00, 0x00, 0x00, 0x00, 0x00, 0x00, 0x01, 0x00, 0x00, 0x00,
  0x5a, 0xca, 0x8e, 0x3d, 0x54, 0x00, 0x00, 0x00, 0x44, 0x53, 0x5f, 0x43,
  0x4e, 0x4e, 0x5f, 0x4e, 0x65, 0x70, 0x53, 0x70, 0x6f, 0x74, 0x5f, 0x4f,
  0x70, 0x74, 0x69, 0x6d, 0x69, 0x7a, 0x65, 0x64, 0x5f, 0x31, 0x2f, 0x64,
  0x65, 0x6e, 0x73, 0x65, 0x5f, 0x31, 0x2f, 0x4d, 0x61, 0x74, 0x4d, 0x75,
  0x6c, 0x3b, 0x44, 0x53, 0x5f, 0x43, 0x4e, 0x4e, 0x5f, 0x4e, 0x65, 0x70,
  0x53, 0x70, 0x6f, 0x74, 0x5f, 0x4f, 0x70, 0x74, 0x69, 0x6d, 0x69, 0x7a,
  0x65, 0x64, 0x5f, 0x31, 0x2f, 0x64, 0x65, 0x6e, 0x73, 0x65, 0x5f, 0x31,
  0x2f, 0x42, 0x69, 0x61, 0x73, 0x41, 0x64, 0x64, 0x00, 0x00, 0x00, 0x00,
  0x02, 0x00, 0x00, 0x00, 0x01, 0x00, 0x00, 0x00, 0x0c, 0x00, 0x00, 0x00,
  0x12, 0xe4, 0xff, 0xff, 0x00, 0x00, 0x00, 0x01, 0x18, 0x00, 0x00, 0x00,
  0x20, 0x00, 0x00, 0x00, 0x3c, 0x00, 0x00, 0x00, 0x14, 0x00, 0x00, 0x00,
  0x00, 0x00, 0x00, 0x09, 0x70, 0x00, 0x00, 0x00, 0x02, 0x00, 0x00, 0x00,
  0xff, 0xff, 0xff, 0xff, 0x20, 0x00, 0x00, 0x00, 0xf4, 0xe3, 0xff, 0xff,
  0x08, 0x00, 0x00, 0x00, 0x10, 0x00, 0x00, 0x00, 0x01, 0x00, 0x00, 0x00,
  0x80, 0xff, 0xff, 0xff, 0xff, 0xff, 0xff, 0xff, 0x01, 0x00, 0x00, 0x00,
  0x4e, 0x74, 0xf7, 0x3b, 0x3a, 0x00, 0x00, 0x00, 0x44, 0x53, 0x5f, 0x43,
  0x4e, 0x4e, 0x5f, 0x4e, 0x65, 0x70, 0x53, 0x70, 0x6f, 0x74, 0x5f, 0x4f,
  0x70, 0x74, 0x69, 0x6d, 0x69, 0x7a, 0x65, 0x64, 0x5f, 0x31, 0x2f, 0x67,
  0x6c, 0x6f, 0x62, 0x61, 0x6c, 0x5f, 0x61, 0x76, 0x65, 0x72, 0x61, 0x67,
  0x65, 0x5f, 0x70, 0x6f, 0x6f, 0x6c, 0x69, 0x6e, 0x67, 0x32, 0x64, 0x5f,
  0x31, 0x2f, 0x4d, 0x65, 0x61, 0x6e, 0x00, 0x00, 0x02, 0x00, 0x00, 0x00,
  0x01, 0x00, 0x00, 0x00, 0x20, 0x00, 0x00, 0x00, 0xaa, 0xe4, 0xff, 0xff,
  0x00, 0x00, 0x00, 0x01, 0x18, 0x00, 0x00, 0x00, 0x28, 0x00, 0x00, 0x00,
  0x48, 0x00, 0x00, 0x00, 0x13, 0x00, 0x00, 0x00, 0x00, 0x00, 0x00, 0x09,
  0x20, 0x01, 0x00, 0x00, 0x04, 0x00, 0x00, 0x00, 0xff, 0xff, 0xff, 0xff,
  0x28, 0x00, 0x00, 0x00, 0x20, 0x00, 0x00, 0x00, 0x20, 0x00, 0x00, 0x00,
  0x94, 0xe4, 0xff, 0xff, 0x08, 0x00, 0x00, 0x00, 0x14, 0x00, 0x00, 0x00,
  0x01, 0x00, 0x00, 0x00, 0x80, 0xff, 0xff, 0xff, 0xff, 0xff, 0xff, 0xff,
  0x00, 0x00, 0x00, 0x00, 0x01, 0x00, 0x00, 0x00, 0x4c, 0x06, 0x09, 0x3f,
  0xdf, 0x00, 0x00, 0x00, 0x44, 0x53, 0x5f, 0x43, 0x4e, 0x4e, 0x5f, 0x4e,
  0x65, 0x70, 0x53, 0x70, 0x6f, 0x74, 0x5f, 0x4f, 0x70, 0x74, 0x69, 0x6d,
  0x69, 0x7a, 0x65, 0x64, 0x5f, 0x31, 0x2f, 0x72, 0x65, 0x5f, 0x6c, 0x75,
  0x5f, 0x34, 0x5f, 0x31, 0x2f, 0x52, 0x65, 0x6c, 0x75, 0x3b, 0x44, 0x53,
  0x5f, 0x43, 0x4e, 0x4e, 0x5f, 0x4e, 0x65, 0x70, 0x53, 0x70, 0x6f, 0x74,
  0x5f, 0x4f, 0x70, 0x74, 0x69, 0x6d, 0x69, 0x7a, 0x65, 0x64, 0x5f, 0x31,
  0x2f, 0x62, 0x61, 0x74, 0x63, 0x68, 0x5f, 0x6e, 0x6f, 0x72, 0x6d, 0x61,
  0x6c, 0x69, 0x7a, 0x61, 0x74, 0x69, 0x6f, 0x6e, 0x5f, 0x34, 0x5f, 0x31,
  0x2f, 0x62, 0x61, 0x74, 0x63, 0x68, 0x6e, 0x6f, 0x72, 0x6d, 0x2f, 0x61,
  0x64, 0x64, 0x5f, 0x31, 0x3b, 0x44, 0x53, 0x5f, 0x43, 0x4e, 0x4e, 0x5f,
  0x4e, 0x65, 0x70, 0x53, 0x70, 0x6f, 0x74, 0x5f, 0x4f, 0x70, 0x74, 0x69,
  0x6d, 0x69, 0x7a, 0x65, 0x64, 0x5f, 0x31, 0x2f, 0x63, 0x6f, 0x6e, 0x76,
  0x32, 0x64, 0x5f, 0x32, 0x5f, 0x31, 0x2f, 0x63, 0x6f, 0x6e, 0x76, 0x6f,
  0x6c, 0x75, 0x74, 0x69, 0x6f, 0x6e, 0x3b, 0x44, 0x53, 0x5f, 0x43, 0x4e,
  0x4e, 0x5f, 0x4e, 0x65, 0x70, 0x53, 0x70, 0x6f, 0x74, 0x5f, 0x4f, 0x70,
  0x74, 0x69, 0x6d, 0x69, 0x7a, 0x65, 0x64, 0x5f, 0x31, 0x2f, 0x62, 0x61,
  0x74, 0x63, 0x68, 0x5f, 0x6e, 0x6f, 0x72, 0x6d, 0x61, 0x6c, 0x69, 0x7a,
  0x61, 0x74, 0x69, 0x6f, 0x6e, 0x5f, 0x34, 0x5f, 0x31, 0x2f, 0x62, 0x61,
  0x74, 0x63, 0x68, 0x6e, 0x6f, 0x72, 0x6d, 0x2f, 0x73, 0x75, 0x62, 0x00,
  0x04, 0x00, 0x00, 0x00, 0x01, 0x00, 0x00, 0x00, 0x28, 0x00, 0x00, 0x00,
  0x20, 0x00, 0x00, 0x00, 0x20, 0x00, 0x00, 0x00, 0xfa, 0xe5, 0xff, 0xff,
  0x00, 0x00, 0x00, 0x01, 0x18, 0x00, 0x00, 0x00, 0x28, 0x00, 0x00, 0x00,
  0x44, 0x00, 0x00, 0x00, 0x12, 0x00, 0x00, 0x00, 0x00, 0x00, 0x00, 0x09,
  0xa8, 0x01, 0x00, 0x00, 0x04, 0x00, 0x00, 0x00, 0xff, 0xff, 0xff, 0xff,
  0x28, 0x00, 0x00, 0x00, 0x20, 0x00, 0x00, 0x00, 0x20, 0x00, 0x00, 0x00,
  0xe4, 0xe5, 0xff, 0xff, 0x08, 0x00, 0x00, 0x00, 0x10, 0x00, 0x00, 0x00,
  0x01, 0x00, 0x00, 0x00, 0x80, 0xff, 0xff, 0xff, 0xff, 0xff, 0xff, 0xff,
  0x01, 0x00, 0x00, 0x00, 0x08, 0x60, 0xe9, 0x3d, 0x6b, 0x01, 0x00, 0x00,
  0x44, 0x53, 0x5f, 0x43, 0x4e, 0x4e, 0x5f, 0x4e, 0x65, 0x70, 0x53, 0x70,
  0x6f, 0x74, 0x5f, 0x4f, 0x70, 0x74, 0x69, 0x6d, 0x69, 0x7a, 0x65, 0x64,
  0x5f, 0x31, 0x2f, 0x72, 0x65, 0x5f, 0x6c, 0x75, 0x5f, 0x33, 0x5f, 0x31,
  0x2f, 0x52, 0x65, 0x6c, 0x75, 0x3b, 0x44, 0x53, 0x5f, 0x43, 0x4e, 0x4e,
  0x5f, 0x4e, 0x65, 0x70, 0x53, 0x70, 0x6f, 0x74, 0x5f, 0x4f, 0x70, 0x74,
  0x69, 0x6d, 0x69, 0x7a, 0x65, 0x64, 0x5f, 0x31, 0x2f, 0x62, 0x61, 0x74,
  0x63, 0x68, 0x5f, 0x6e, 0x6f, 0x72, 0x6d, 0x61, 0x6c, 0x69, 0x7a, 0x61,
  0x74, 0x69, 0x6f, 0x6e, 0x5f, 0x33, 0x5f, 0x31, 0x2f, 0x62, 0x61, 0x74,
  0x63, 0x68, 0x6e, 0x6f, 0x72, 0x6d, 0x2f, 0x61, 0x64, 0x64, 0x5f, 0x31,
  0x3b, 0x44, 0x53, 0x5f, 0x43, 0x4e, 0x4e, 0x5f, 0x4e, 0x65, 0x70, 0x53,
  0x70, 0x6f, 0x74, 0x5f, 0x4f, 0x70, 0x74, 0x69, 0x6d, 0x69, 0x7a, 0x65,
  0x64, 0x5f, 0x31, 0x2f, 0x62, 0x61, 0x74, 0x63, 0x68, 0x5f, 0x6e, 0x6f,
  0x72, 0x6d, 0x61, 0x6c, 0x69, 0x7a, 0x61, 0x74, 0x69, 0x6f, 0x6e, 0x5f,
  0x33, 0x5f, 0x31, 0x2f, 0x62, 0x61, 0x74, 0x63, 0x68, 0x6e, 0x6f, 0x72,
  0x6d, 0x2f, 0x6d, 0x75, 0x6c, 0x5f, 0x31, 0x3b, 0x44, 0x53, 0x5f, 0x43,
  0x4e, 0x4e, 0x5f, 0x4e, 0x65, 0x70, 0x53, 0x70, 0x6f, 0x74, 0x5f, 0x4f,
  0x70, 0x74, 0x69, 0x6d, 0x69, 0x7a, 0x65, 0x64, 0x5f, 0x31, 0x2f, 0x64,
  0x65, 0x70, 0x74, 0x68, 0x77, 0x69, 0x73, 0x65, 0x5f, 0x63, 0x6f, 0x6e,
  0x76, 0x32, 0x64, 0x5f, 0x31, 0x5f, 0x32, 0x2f, 0x64, 0x65, 0x70, 0x74,
  0x68, 0x77, 0x69, 0x73, 0x65, 0x3b, 0x44, 0x53, 0x5f, 0x43, 0x4e, 0x4e,
  0x5f, 0x4e, 0x65, 0x70, 0x53, 0x70, 0x6f, 0x74, 0x5f, 0x4f, 0x70, 0x74,
  0x69, 0x6d, 0x69, 0x7a, 0x65, 0x64, 0x5f, 0x31, 0x2f, 0x62, 0x61, 0x74,
  0x63, 0x68, 0x5f, 0x6e, 0x6f, 0x72, 0x6d, 0x61, 0x6c, 0x69, 0x7a, 0x61,
  0x74, 0x69, 0x6f, 0x6e, 0x5f, 0x33, 0x5f, 0x31, 0x2f, 0x62, 0x61, 0x74,
  0x63, 0x68, 0x6e, 0x6f, 0x72, 0x6d, 0x2f, 0x6d, 0x75, 0x6c, 0x3b, 0x44,
  0x53, 0x5f, 0x43, 0x4e, 0x4e, 0x5f, 0x4e, 0x65, 0x70, 0x53, 0x70, 0x6f,
  0x74, 0x5f, 0x4f, 0x70, 0x74, 0x69, 0x6d, 0x69, 0x7a, 0x65, 0x64, 0x5f,
  0x31, 0x2f, 0x62, 0x61, 0x74, 0x63, 0x68, 0x5f, 0x6e, 0x6f, 0x72, 0x6d,
  0x61, 0x6c, 0x69, 0x7a, 0x61, 0x74, 0x69, 0x6f, 0x6e, 0x5f, 0x33, 0x5f,
  0x31, 0x2f, 0x62, 0x61, 0x74, 0x63, 0x68, 0x6e, 0x6f, 0x72, 0x6d, 0x2f,
  0x73, 0x75, 0x62, 0x00, 0x04, 0x00, 0x00, 0x00, 0x01, 0x00, 0x00, 0x00,
  0x28, 0x00, 0x00, 0x00, 0x20, 0x00, 0x00, 0x00, 0x20, 0x00, 0x00, 0x00,
  0xd2, 0xe7, 0xff, 0xff, 0x00, 0x00, 0x00, 0x01, 0x18, 0x00, 0x00, 0x00,
  0x28, 0x00, 0x00, 0x00, 0x48, 0x00, 0x00, 0x00, 0x11, 0x00, 0x00, 0x00,
  0x00, 0x00, 0x00, 0x09, 0x20, 0x01, 0x00, 0x00, 0x04, 0x00, 0x00, 0x00,
  0xff, 0xff, 0xff, 0xff, 0x28, 0x00, 0x00, 0x00, 0x20, 0x00, 0x00, 0x00,
  0x20, 0x00, 0x00, 0x00, 0xbc, 0xe7, 0xff, 0xff, 0x08, 0x00, 0x00, 0x00,
  0x14, 0x00, 0x00, 0x00, 0x01, 0x00, 0x00, 0x00, 0x80, 0xff, 0xff, 0xff,
  0xff, 0xff, 0xff, 0xff, 0x00, 0x00, 0x00, 0x00, 0x01, 0x00, 0x00, 0x00,
  0x96, 0x85, 0x37, 0x3d, 0xdf, 0x00, 0x00, 0x00, 0x44, 0x53, 0x5f, 0x43,
  0x4e, 0x4e, 0x5f, 0x4e, 0x65, 0x70, 0x53, 0x70, 0x6f, 0x74, 0x5f, 0x4f,
  0x70, 0x74, 0x69, 0x6d, 0x69, 0x7a, 0x65, 0x64, 0x5f, 0x31, 0x2f, 0x72,
  0x65, 0x5f, 0x6c, 0x75, 0x5f, 0x32, 0x5f, 0x31, 0x2f, 0x52, 0x65, 0x6c,
  0x75, 0x3b, 0x44, 0x53, 0x5f, 0x43, 0x4e, 0x4e, 0x5f, 0x4e, 0x65, 0x70,
  0x53, 0x70, 0x6f, 0x74, 0x5f, 0x4f, 0x70, 0x74, 0x69, 0x6d, 0x69, 0x7a,
  0x65, 0x64, 0x5f, 0x31, 0x2f, 0x62, 0x61, 0x74, 0x63, 0x68, 0x5f, 0x6e,
  0x6f, 0x72, 0x6d, 0x61, 0x6c, 0x69, 0x7a, 0x61, 0x74, 0x69, 0x6f, 0x6e,
  0x5f, 0x32, 0x5f, 0x31, 0x2f, 0x62, 0x61, 0x74, 0x63, 0x68, 0x6e, 0x6f,
  0x72, 0x6d, 0x2f, 0x61, 0x64, 0x64, 0x5f, 0x31, 0x3b, 0x44, 0x53, 0x5f,
  0x43, 0x4e, 0x4e, 0x5f, 0x4e, 0x65, 0x70, 0x53, 0x70, 0x6f, 0x74, 0x5f,
  0x4f, 0x70, 0x74, 0x69, 0x6d, 0x69, 0x7a, 0x65, 0x64, 0x5f, 0x31, 0x2f,
  0x63, 0x6f, 0x6e, 0x76, 0x32, 0x64, 0x5f, 0x31, 0x5f, 0x32, 0x2f, 0x63,
  0x6f, 0x6e, 0x76, 0x6f, 0x6c, 0x75, 0x74, 0x69, 0x6f, 0x6e, 0x3b, 0x44,
  0x53, 0x5f, 0x43, 0x4e, 0x4e, 0x5f, 0x4e, 0x65, 0x70, 0x53, 0x70, 0x6f,
  0x74, 0x5f, 0x4f, 0x70, 0x74, 0x69, 0x6d, 0x69, 0x7a, 0x65, 0x64, 0x5f,
  0x31, 0x2f, 0x62, 0x61, 0x74, 0x63, 0x68, 0x5f, 0x6e, 0x6f, 0x72, 0x6d,
  0x61, 0x6c, 0x69, 0x7a, 0x61, 0x74, 0x69, 0x6f, 0x6e, 0x5f, 0x32, 0x5f,
  0x31, 0x2f, 0x62, 0x61, 0x74, 0x63, 0x68, 0x6e, 0x6f, 0x72, 0x6d, 0x2f,
  0x73, 0x75, 0x62, 0x00, 0x04, 0x00, 0x00, 0x00, 0x01, 0x00, 0x00, 0x00,
  0x28, 0x00, 0x00, 0x00, 0x20, 0x00, 0x00, 0x00, 0x20, 0x00, 0x00, 0x00,
  0x22, 0xe9, 0xff, 0xff, 0x00, 0x00, 0x00, 0x01, 0x18, 0x00, 0x00, 0x00,
  0x28, 0x00, 0x00, 0x00, 0x44, 0x00, 0x00, 0x00, 0x10, 0x00, 0x00, 0x00,
  0x00, 0x00, 0x00, 0x09, 0xa8, 0x01, 0x00, 0x00, 0x04, 0x00, 0x00, 0x00,
  0xff, 0xff, 0xff, 0xff, 0x28, 0x00, 0x00, 0x00, 0x20, 0x00, 0x00, 0x00,
  0x20, 0x00, 0x00, 0x00, 0x0c, 0xe9, 0xff, 0xff, 0x08, 0x00, 0x00, 0x00,
  0x10, 0x00, 0x00, 0x00, 0x01, 0x00, 0x00, 0x00, 0x80, 0xff, 0xff, 0xff,
  0xff, 0xff, 0xff, 0xff, 0x01, 0x00, 0x00, 0x00, 0xc6, 0x27, 0xbf, 0x3d,
  0x69, 0x01, 0x00, 0x00, 0x44, 0x53, 0x5f, 0x43, 0x4e, 0x4e, 0x5f, 0x4e,
  0x65, 0x70, 0x53, 0x70, 0x6f, 0x74, 0x5f, 0x4f, 0x70, 0x74, 0x69, 0x6d,
  0x69, 0x7a, 0x65, 0x64, 0x5f, 0x31, 0x2f, 0x72, 0x65, 0x5f, 0x6c, 0x75,
  0x5f, 0x31, 0x5f, 0x32, 0x2f, 0x52, 0x65, 0x6c, 0x75, 0x3b, 0x44, 0x53,
  0x5f, 0x43, 0x4e, 0x4e, 0x5f, 0x4e, 0x65, 0x70, 0x53, 0x70, 0x6f, 0x74,
  0x5f, 0x4f, 0x70, 0x74, 0x69, 0x6d, 0x69, 0x7a, 0x65, 0x64, 0x5f, 0x31,
  0x2f, 0x62, 0x61, 0x74, 0x63, 0x68, 0x5f, 0x6e, 0x6f, 0x72, 0x6d, 0x61,
  0x6c, 0x69, 0x7a, 0x61, 0x74, 0x69, 0x6f, 0x6e, 0x5f, 0x31, 0x5f, 0x32,
  0x2f, 0x62, 0x61, 0x74, 0x63, 0x68, 0x6e, 0x6f, 0x72, 0x6d, 0x2f, 0x61,
  0x64, 0x64, 0x5f, 0x31, 0x3b, 0x44, 0x53, 0x5f, 0x43, 0x4e, 0x4e, 0x5f,
  0x4e, 0x65, 0x70, 0x53, 0x70, 0x6f, 0x74, 0x5f, 0x4f, 0x70, 0x74, 0x69,
  0x6d, 0x69, 0x7a, 0x65, 0x64, 0x5f, 0x31, 0x2f, 0x62, 0x61, 0x74, 0x63,
  0x68, 0x5f, 0x6e, 0x6f, 0x72, 0x6d, 0x61, 0x6c, 0x69, 0x7a, 0x61, 0x74,
  0x69, 0x6f, 0x6e, 0x5f, 0x31, 0x5f, 0x32, 0x2f, 0x62, 0x61, 0x74, 0x63,
  0x68, 0x6e, 0x6f, 0x72, 0x6d, 0x2f, 0x6d, 0x75, 0x6c, 0x5f, 0x31, 0x3b,
  0x44, 0x53, 0x5f, 0x43, 0x4e, 0x4e, 0x5f, 0x4e, 0x65, 0x70, 0x53, 0x70,
  0x6f, 0x74, 0x5f, 0x4f, 0x70, 0x74, 0x69, 0x6d, 0x69, 0x7a, 0x65, 0x64,
  0x5f, 0x31, 0x2f, 0x64, 0x65, 0x70, 0x74, 0x68, 0x77, 0x69, 0x73, 0x65,
  0x5f, 0x63, 0x6f, 0x6e, 0x76, 0x32, 0x64, 0x5f, 0x31, 0x2f, 0x64, 0x65,
  0x70, 0x74, 0x68, 0x77, 0x69, 0x73, 0x65, 0x3b, 0x44, 0x53, 0x5f, 0x43,
  0x4e, 0x4e, 0x5f, 0x4e, 0x65, 0x70, 0x53, 0x70, 0x6f, 0x74, 0x5f, 0x4f,
  0x70, 0x74, 0x69, 0x6d, 0x69, 0x7a, 0x65, 0x64, 0x5f, 0x31, 0x2f, 0x62,
  0x61, 0x74, 0x63, 0x68, 0x5f, 0x6e, 0x6f, 0x72, 0x6d, 0x61, 0x6c, 0x69,
  0x7a, 0x61, 0x74, 0x69, 0x6f, 0x6e, 0x5f, 0x31, 0x5f, 0x32, 0x2f, 0x62,
  0x61, 0x74, 0x63, 0x68, 0x6e, 0x6f, 0x72, 0x6d, 0x2f, 0x6d, 0x75, 0x6c,
  0x3b, 0x44, 0x53, 0x5f, 0x43, 0x4e, 0x4e, 0x5f, 0x4e, 0x65, 0x70, 0x53,
  0x70, 0x6f, 0x74, 0x5f, 0x4f, 0x70, 0x74, 0x69, 0x6d, 0x69, 0x7a, 0x65,
  0x64, 0x5f, 0x31, 0x2f, 0x62, 0x61, 0x74, 0x63, 0x68, 0x5f, 0x6e, 0x6f,
  0x72, 0x6d, 0x61, 0x6c, 0x69, 0x7a, 0x61, 0x74, 0x69, 0x6f, 0x6e, 0x5f,
  0x31, 0x5f, 0x32, 0x2f, 0x62, 0x61, 0x74, 0x63, 0x68, 0x6e, 0x6f, 0x72,
  0x6d, 0x2f, 0x73, 0x75, 0x62, 0x00, 0x00, 0x00, 0x04, 0x00, 0x00, 0x00,
  0x01, 0x00, 0x00, 0x00, 0x28, 0x00, 0x00, 0x00, 0x20, 0x00, 0x00, 0x00,
  0x20, 0x00, 0x00, 0x00, 0xfa, 0xea, 0xff, 0xff, 0x00, 0x00, 0x00, 0x01,
  0x18, 0x00, 0x00, 0x00, 0x28, 0x00, 0x00, 0x00, 0x44, 0x00, 0x00, 0x00,
  0x0f, 0x00, 0x00, 0x00, 0x00, 0x00, 0x00, 0x09, 0x18, 0x01, 0x00, 0x00,
  0x04, 0x00, 0x00, 0x00, 0xff, 0xff, 0xff, 0xff, 0x28, 0x00, 0x00, 0x00,
  0x20, 0x00, 0x00, 0x00, 0x20, 0x00, 0x00, 0x00, 0xe4, 0xea, 0xff, 0xff,
  0x08, 0x00, 0x00, 0x00, 0x10, 0x00, 0x00, 0x00, 0x01, 0x00, 0x00, 0x00,
  0x80, 0xff, 0xff, 0xff, 0xff, 0xff, 0xff, 0xff, 0x01, 0x00, 0x00, 0x00,
  0xcd, 0xe7, 0x4a, 0x3d, 0xd8, 0x00, 0x00, 0x00, 0x44, 0x53, 0x5f, 0x43,
  0x4e, 0x4e, 0x5f, 0x4e, 0x65, 0x70, 0x53, 0x70, 0x6f, 0x74, 0x5f, 0x4f,
  0x70, 0x74, 0x69, 0x6d, 0x69, 0x7a, 0x65, 0x64, 0x5f, 0x31, 0x2f, 0x72,
  0x65, 0x5f, 0x6c, 0x75, 0x5f, 0x31, 0x2f, 0x52, 0x65, 0x6c, 0x75, 0x3b,
  0x44, 0x53, 0x5f, 0x43, 0x4e, 0x4e, 0x5f, 0x4e, 0x65, 0x70, 0x53, 0x70,
  0x6f, 0x74, 0x5f, 0x4f, 0x70, 0x74, 0x69, 0x6d, 0x69, 0x7a, 0x65, 0x64,
  0x5f, 0x31, 0x2f, 0x62, 0x61, 0x74, 0x63, 0x68, 0x5f, 0x6e, 0x6f, 0x72,
  0x6d, 0x61, 0x6c, 0x69, 0x7a, 0x61, 0x74, 0x69, 0x6f, 0x6e, 0x5f, 0x31,
  0x2f, 0x62, 0x61, 0x74, 0x63, 0x68, 0x6e, 0x6f, 0x72, 0x6d, 0x2f, 0x61,
  0x64, 0x64, 0x5f, 0x31, 0x3b, 0x44, 0x53, 0x5f, 0x43, 0x4e, 0x4e, 0x5f,
  0x4e, 0x65, 0x70, 0x53, 0x70, 0x6f, 0x74, 0x5f, 0x4f, 0x70, 0x74, 0x69,
  0x6d, 0x69, 0x7a, 0x65, 0x64, 0x5f, 0x31, 0x2f, 0x63, 0x6f, 0x6e, 0x76,
  0x32, 0x64, 0x5f, 0x31, 0x2f, 0x63, 0x6f, 0x6e, 0x76, 0x6f, 0x6c, 0x75,
  0x74, 0x69, 0x6f, 0x6e, 0x3b, 0x44, 0x53, 0x5f, 0x43, 0x4e, 0x4e, 0x5f,
  0x4e, 0x65, 0x70, 0x53, 0x70, 0x6f, 0x74, 0x5f, 0x4f, 0x70, 0x74, 0x69,
  0x6d, 0x69, 0x7a, 0x65, 0x64, 0x5f, 0x31, 0x2f, 0x62, 0x61, 0x74, 0x63,
  0x68, 0x5f, 0x6e, 0x6f, 0x72, 0x6d, 0x61, 0x6c, 0x69, 0x7a, 0x61, 0x74,
  0x69, 0x6f, 0x6e, 0x5f, 0x31, 0x2f, 0x62, 0x61, 0x74, 0x63, 0x68, 0x6e,
  0x6f, 0x72, 0x6d, 0x2f, 0x73, 0x75, 0x62, 0x31, 0x00, 0x00, 0x00, 0x00,
  0x04, 0x00, 0x00, 0x00, 0x01, 0x00, 0x00, 0x00, 0x28, 0x00, 0x00, 0x00,
  0x20, 0x00, 0x00, 0x00, 0x20, 0x00, 0x00, 0x00, 0x9a, 0xec, 0xff, 0xff,
  0x00, 0x00, 0x00, 0x01, 0x14, 0x00, 0x00, 0x00, 0xa8, 0x01, 0x00, 0x00,
  0x0e, 0x00, 0x00, 0x00, 0x00, 0x00, 0x00, 0x09, 0xb4, 0x01, 0x00, 0x00,
  0x14, 0xec, 0xff, 0xff, 0x08, 0x00, 0x00, 0x00, 0x0c, 0x01, 0x00, 0x00,
  0x20, 0x00, 0x00, 0x00, 0x00, 0x00, 0x00, 0x00, 0x00, 0x00, 0x00, 0x00,
  0x00, 0x00, 0x00, 0x00, 0x00, 0x00, 0x00, 0x00, 0x00, 0x00, 0x00, 0x00,
  0x00, 0x00, 0x00, 0x00, 0x00, 0x00, 0x00, 0x00, 0x00, 0x00, 0x00, 0x00,
  0x00, 0x00, 0x00, 0x00, 0x00, 0x00, 0x00, 0x00, 0x00, 0x00, 0x00, 0x00,
  0x00, 0x00, 0x00, 0x00, 0x00, 0x00, 0x00, 0x00, 0x00, 0x00, 0x00, 0x00,
  0x00, 0x00, 0x00, 0x00, 0x00, 0x00, 0x00, 0x00, 0x00, 0x00, 0x00, 0x00,
  0x00, 0x00, 0x00, 0x00, 0x00, 0x00, 0x00, 0x00, 0x00, 0x00, 0x00, 0x00,
  0x00, 0x00, 0x00, 0x00, 0x00, 0x00, 0x00, 0x00, 0x00, 0x00, 0x00, 0x00,
  0x00, 0x00, 0x00, 0x00, 0x00, 0x00, 0x00, 0x00, 0x00, 0x00, 0x00, 0x00,
  0x00, 0x00, 0x00, 0x00, 0x00, 0x00, 0x00, 0x00, 0x00, 0x00, 0x00, 0x00,
  0x00, 0x00, 0x00, 0x00, 0x00, 0x00, 0x00, 0x00, 0x00, 0x00, 0x00, 0x00,
  0x00, 0x00, 0x00, 0x00, 0x00, 0x00, 0x00, 0x00, 0x00, 0x00, 0x00, 0x00,
  0x00, 0x00, 0x00, 0x00, 0x00, 0x00, 0x00, 0x00, 0x00, 0x00, 0x00, 0x00,
  0x00, 0x00, 0x00, 0x00, 0x00, 0x00, 0x00, 0x00, 0x00, 0x00, 0x00, 0x00,
  0x00, 0x00, 0x00, 0x00, 0x00, 0x00, 0x00, 0x00, 0x00, 0x00, 0x00, 0x00,
  0x00, 0x00, 0x00, 0x00, 0x00, 0x00, 0x00, 0x00, 0x00, 0x00, 0x00, 0x00,
  0x00, 0x00, 0x00, 0x00, 0x00, 0x00, 0x00, 0x00, 0x00, 0x00, 0x00, 0x00,
  0x00, 0x00, 0x00, 0x00, 0x00, 0x00, 0x00, 0x00, 0x00, 0x00, 0x00, 0x00,
  0x00, 0x00, 0x00, 0x00, 0x00, 0x00, 0x00, 0x00, 0x00, 0x00, 0x00, 0x00,
  0x00, 0x00, 0x00, 0x00, 0x00, 0x00, 0x00, 0x00, 0x00, 0x00, 0x00, 0x00,
  0x00, 0x00, 0x00, 0x00, 0x00, 0x00, 0x00, 0x00, 0x00, 0x00, 0x00, 0x00,
  0x00, 0x00, 0x00, 0x00, 0x00, 0x00, 0x00, 0x00, 0x00, 0x00, 0x00, 0x00,
  0x20, 0x00, 0x00, 0x00, 0xaa, 0x1e, 0x3d, 0x3b, 0xca, 0x22, 0xcf, 0x3b,
  0x72, 0x29, 0x96, 0x3b, 0x3a, 0x4d, 0x39, 0x3c, 0x6d, 0x68, 0x4c, 0x3c,
  0x1a, 0x90, 0xc9, 0x3b, 0x16, 0x1a, 0x62, 0x3b, 0xd9, 0xd7, 0xf6, 0x3b,
  0xa8, 0x12, 0x00, 0x3c, 0xd5, 0xe9, 0x3b, 0x3c, 0x35, 0xdf, 0x85, 0x3b,
  0x22, 0xd3, 0x18, 0x3c, 0xde, 0x78, 0x4c, 0x3b, 0x3c, 0x93, 0x20, 0x3c,
  0x35, 0x37, 0x9c, 0x3b, 0xdf, 0x35, 0x7d, 0x3b, 0xc1, 0xe1, 0xb0, 0x3b,
  0x37, 0xce, 0x17, 0x3c, 0xc9, 0x14, 0xa0, 0x3b, 0x0d, 0x04, 0x6f, 0x3c,
  0x15, 0x47, 0xfe, 0x3b, 0x5c, 0x5e, 0x5a, 0x3c, 0x6f, 0x24, 0x95, 0x3b,
  0x39, 0x0f, 0x4c, 0x3c, 0x73, 0xe2, 0xab, 0x3b, 0xdc, 0x17, 0xba, 0x3b,
  0x5f, 0x18, 0x5c, 0x3c, 0x50, 0x06, 0xa5, 0x3b, 0x7b, 0xfe, 0xb1, 0x3b,
  0xbd, 0x5d, 0xed, 0x3b, 0x56, 0x82, 0x52, 0x3b, 0xe2, 0xdc, 0xb7, 0x3b,
  0x13, 0x00, 0x00, 0x00, 0x74, 0x66, 0x6c, 0x2e, 0x70, 0x73, 0x65, 0x75,
  0x64, 0x6f, 0x5f, 0x71, 0x63, 0x6f, 0x6e, 0x73, 0x74, 0x31, 0x31, 0x00,
  0x04, 0x00, 0x00, 0x00, 0x20, 0x00, 0x00, 0x00, 0x03, 0x00, 0x00, 0x00,
  0x03, 0x00, 0x00, 0x00, 0x01, 0x00, 0x00, 0x00, 0x7a, 0xee, 0xff, 0xff,
  0x00, 0x00, 0x00, 0x01, 0x14, 0x00, 0x00, 0x00, 0xa8, 0x01, 0x00, 0x00,
  0x0d, 0x00, 0x00, 0x00, 0x00, 0x00, 0x00, 0x02, 0xb4, 0x01, 0x00, 0x00,
  0xf4, 0xed, 0xff, 0xff, 0x08, 0x00, 0x00, 0x00, 0x0c, 0x01, 0x00, 0x00,
  0x20, 0x00, 0x00, 0x00, 0x00, 0x00, 0x00, 0x00, 0x00, 0x00, 0x00, 0x00,
  0x00, 0x00, 0x00, 0x00, 0x00, 0x00, 0x00, 0x00, 0x00, 0x00, 0x00, 0x00,
  0x00, 0x00, 0x00, 0x00, 0x00, 0x00, 0x00, 0x00, 0x00, 0x00, 0x00, 0x00,
  0x00, 0x00, 0x00, 0x00, 0x00, 0x00, 0x00, 0x00, 0x00, 0x00, 0x00, 0x00,
  0x00, 0x00, 0x00, 0x00, 0x00, 0x00, 0x00, 0x00, 0x00, 0x00, 0x00, 0x00,
  0x00, 0x00, 0x00, 0x00, 0x00, 0x00, 0x00, 0x00, 0x00, 0x00, 0x00, 0x00,
  0x00, 0x00, 0x00, 0x00, 0x00, 0x00, 0x00, 0x00, 0x00, 0x00, 0x00, 0x00,
  0x00, 0x00, 0x00, 0x00, 0x00, 0x00, 0x00, 0x00, 0x00, 0x00, 0x00, 0x00,
  0x00, 0x00, 0x00, 0x00, 0x00, 0x00, 0x00, 0x00, 0x00, 0x00, 0x00, 0x00,
  0x00, 0x00, 0x00, 0x00, 0x00, 0x00, 0x00, 0x00, 0x00, 0x00, 0x00, 0x00,
  0x00, 0x00, 0x00, 0x00, 0x00, 0x00, 0x00, 0x00, 0x00, 0x00, 0x00, 0x00,
  0x00, 0x00, 0x00, 0x00, 0x00, 0x00, 0x00, 0x00, 0x00, 0x00, 0x00, 0x00,
  0x00, 0x00, 0x00, 0x00, 0x00, 0x00, 0x00, 0x00, 0x00, 0x00, 0x00, 0x00,
  0x00, 0x00, 0x00, 0x00, 0x00, 0x00, 0x00, 0x00, 0x00, 0x00, 0x00, 0x00,
  0x00, 0x00, 0x00, 0x00, 0x00, 0x00, 0x00, 0x00, 0x00, 0x00, 0x00, 0x00,
  0x00, 0x00, 0x00, 0x00, 0x00, 0x00, 0x00, 0x00, 0x00, 0x00, 0x00, 0x00,
  0x00, 0x00, 0x00, 0x00, 0x00, 0x00, 0x00, 0x00, 0x00, 0x00, 0x00, 0x00,
  0x00, 0x00, 0x00, 0x00, 0x00, 0x00, 0x00, 0x00, 0x00, 0x00, 0x00, 0x00,
  0x00, 0x00, 0x00, 0x00, 0x00, 0x00, 0x00, 0x00, 0x00, 0x00, 0x00, 0x00,
  0x00, 0x00, 0x00, 0x00, 0x00, 0x00, 0x00, 0x00, 0x00, 0x00, 0x00, 0x00,
  0x00, 0x00, 0x00, 0x00, 0x00, 0x00, 0x00, 0x00, 0x00, 0x00, 0x00, 0x00,
  0x00, 0x00, 0x00, 0x00, 0x00, 0x00, 0x00, 0x00, 0x00, 0x00, 0x00, 0x00,
  0x20, 0x00, 0x00, 0x00, 0xb8, 0x65, 0x0b, 0x39, 0x3f, 0xad, 0x98, 0x39,
  0x38, 0x5d, 0x5d, 0x39, 0x44, 0x95, 0x08, 0x3a, 0x7e, 0xaa, 0x16, 0x3a,
  0xa8, 0x91, 0x94, 0x39, 0x03, 0xa8, 0x26, 0x39, 0xc2, 0xf1, 0xb5, 0x39,
  0x1a, 0xcd, 0xbc, 0x39, 0x15, 0x82, 0x0a, 0x3a, 0x95, 0x59, 0x45, 0x39,
  0x25, 0x4a, 0xe1, 0x39, 0x9d, 0xb6, 0x16, 0x39, 0x0c, 0xb7, 0xec, 0x39,
  0xd5, 0x49, 0x66, 0x39, 0x39, 0xa3, 0x3a, 0x39, 0x80, 0x60, 0x82, 0x39,
  0x81, 0xc9, 0xdf, 0x39, 0xa3, 0xfc, 0x6b, 0x39, 0xca, 0x2c, 0x30, 0x3a,
  0x9b, 0x6c, 0xbb, 0x39, 0xc9, 0xf4, 0x20, 0x3a, 0x72, 0xdc, 0x5b, 0x39,
  0xbe, 0x68, 0x16, 0x3a, 0x15, 0x63, 0x7d, 0x39, 0x9f, 0x2a, 0x89, 0x39,
  0x96, 0x3a, 0x22, 0x3a, 0x3d, 0x46, 0x73, 0x39, 0x5e, 0x32, 0x83, 0x39,
  0x82, 0xf5, 0xae, 0x39, 0xc1, 0x29, 0x1b, 0x39, 0xc4, 0x85, 0x87, 0x39,
  0x13, 0x00, 0x00, 0x00, 0x74, 0x66, 0x6c, 0x2e, 0x70, 0x73, 0x65, 0x75,
  0x64, 0x6f, 0x5f, 0x71, 0x63, 0x6f, 0x6e, 0x73, 0x74, 0x31, 0x30, 0x00,
  0x01, 0x00, 0x00, 0x00, 0x20, 0x00, 0x00, 0x00, 0x4e, 0xf0, 0xff, 0xff,
  0x00, 0x00, 0x00, 0x01, 0x14, 0x00, 0x00, 0x00, 0xac, 0x01, 0x00, 0x00,
  0x0c, 0x00, 0x00, 0x00, 0x00, 0x00, 0x00, 0x09, 0xb8, 0x01, 0x00, 0x00,
  0x82, 0xf8, 0xff, 0xff, 0x03, 0x00, 0x00, 0x00, 0x08, 0x00, 0x00, 0x00,
  0x0c, 0x01, 0x00, 0x00, 0x20, 0x00, 0x00, 0x00, 0x00, 0x00, 0x00, 0x00,
  0x00, 0x00, 0x00, 0x00, 0x00, 0x00, 0x00, 0x00, 0x00, 0x00, 0x00, 0x00,
  0x00, 0x00, 0x00, 0x00, 0x00, 0x00, 0x00, 0x00, 0x00, 0x00, 0x00, 0x00,
  0x00, 0x00, 0x00, 0x00, 0x00, 0x00, 0x00, 0x00, 0x00, 0x00, 0x00, 0x00,
  0x00, 0x00, 0x00, 0x00, 0x00, 0x00, 0x00, 0x00, 0x00, 0x00, 0x00, 0x00,
  0x00, 0x00, 0x00, 0x00, 0x00, 0x00, 0x00, 0x00, 0x00, 0x00, 0x00, 0x00,
  0x00, 0x00, 0x00, 0x00, 0x00, 0x00, 0x00, 0x00, 0x00, 0x00, 0x00, 0x00,
  0x00, 0x00, 0x00, 0x00, 0x00, 0x00, 0x00, 0x00, 0x00, 0x00, 0x00, 0x00,
  0x00, 0x00, 0x00, 0x00, 0x00, 0x00, 0x00, 0x00, 0x00, 0x00, 0x00, 0x00,
  0x00, 0x00, 0x00, 0x00, 0x00, 0x00, 0x00, 0x00, 0x00, 0x00, 0x00, 0x00,
  0x00, 0x00, 0x00, 0x00, 0x00, 0x00, 0x00, 0x00, 0x00, 0x00, 0x00, 0x00,
  0x00, 0x00, 0x00, 0x00, 0x00, 0x00, 0x00, 0x00, 0x00, 0x00, 0x00, 0x00,
  0x00, 0x00, 0x00, 0x00, 0x00, 0x00, 0x00, 0x00, 0x00, 0x00, 0x00, 0x00,
  0x00, 0x00, 0x00, 0x00, 0x00, 0x00, 0x00, 0x00, 0x00, 0x00, 0x00, 0x00,
  0x00, 0x00, 0x00, 0x00, 0x00, 0x00, 0x00, 0x00, 0x00, 0x00, 0x00, 0x00,
  0x00, 0x00, 0x00, 0x00, 0x00, 0x00, 0x00, 0x00, 0x00, 0x00, 0x00, 0x00,
  0x00, 0x00, 0x00, 0x00, 0x00, 0x00, 0x00, 0x00, 0x00, 0x00, 0x00, 0x00,
  0x00, 0x00, 0x00, 0x00, 0x00, 0x00, 0x00, 0x00, 0x00, 0x00, 0x00, 0x00,
  0x00, 0x00, 0x00, 0x00, 0x00, 0x00, 0x00, 0x00, 0x00, 0x00, 0x00, 0x00,
  0x00, 0x00, 0x00, 0x00, 0x00, 0x00, 0x00, 0x00, 0x00, 0x00, 0x00, 0x00,
  0x00, 0x00, 0x00, 0x00, 0x00, 0x00, 0x00, 0x00, 0x00, 0x00, 0x00, 0x00,
  0x00, 0x00, 0x00, 0x00, 0x00, 0x00, 0x00, 0x00, 0x00, 0x00, 0x00, 0x00,
  0x00, 0x00, 0x00, 0x00, 0x20, 0x00, 0x00, 0x00, 0x42, 0x96, 0xba, 0x3c,
  0x74, 0x54, 0xcd, 0x3c, 0x2e, 0xd1, 0x83, 0x3c, 0xa4, 0x96, 0xa5, 0x3c,
  0xc9, 0x16, 0xa4, 0x3c, 0xb7, 0x43, 0x5e, 0x3c, 0xca, 0xfd, 0x9a, 0x3c,
  0x9a, 0x19, 0x1e, 0x3c, 0x2a, 0xd3, 0x95, 0x3b, 0x21, 0xe5, 0x22, 0x3c,
  0x8e, 0xb8, 0xa8, 0x3c, 0x97, 0x98, 0x56, 0x3c, 0x20, 0x46, 0x9d, 0x3c,
  0xab, 0x34, 0xf3, 0x3b, 0xb7, 0x75, 0x98, 0x3c, 0x91, 0x36, 0x12, 0x3c,
  0x0b, 0xf4, 0xd8, 0x3b, 0x97, 0x46, 0xb6, 0x3b, 0x02, 0xff, 0x91, 0x3c,
  0xdd, 0x1e, 0xbd, 0x3b, 0x0f, 0x67, 0x09, 0x3c, 0x6d, 0x8a, 0x32, 0x3c,
  0x97, 0xfc, 0x4f, 0x3c, 0x46, 0xe9, 0xc9, 0x3b, 0xf9, 0xe5, 0xa1, 0x3b,
  0xe4, 0x72, 0x38, 0x3c, 0xb4, 0xd7, 0x2c, 0x3c, 0x26, 0xe9, 0x21, 0x3c,
  0xcb, 0x48, 0x4a, 0x3d, 0x55, 0x94, 0xa4, 0x3c, 0x36, 0x26, 0xce, 0x3c,
  0x9f, 0x8c, 0x85, 0x3c, 0x12, 0x00, 0x00, 0x00, 0x74, 0x66, 0x6c, 0x2e,
  0x70, 0x73, 0x65, 0x75, 0x64, 0x6f, 0x5f, 0x71, 0x63, 0x6f, 0x6e, 0x73,
  0x74, 0x39, 0x00, 0x00, 0x04, 0x00, 0x00, 0x00, 0x01, 0x00, 0x00, 0x00,
  0x03, 0x00, 0x00, 0x00, 0x03, 0x00, 0x00, 0x00, 0x20, 0x00, 0x00, 0x00,
  0x32, 0xf2, 0xff, 0xff, 0x00, 0x00, 0x00, 0x01, 0x14, 0x00, 0x00, 0x00,
  0xa4, 0x01, 0x00, 0x00, 0x0b, 0x00, 0x00, 0x00, 0x00, 0x00, 0x00, 0x02,
  0xb0, 0x01, 0x00, 0x00, 0xac, 0xf1, 0xff, 0xff, 0x08, 0x00, 0x00, 0x00,
  0x08, 0x01, 0x00, 0x00, 0x20, 0x00, 0x00, 0x00, 0x00, 0x00, 0x00, 0x00,
  0x00, 0x00, 0x00, 0x00, 0x00, 0x00, 0x00, 0x00, 0x00, 0x00, 0x00, 0x00,
  0x00, 0x00, 0x00, 0x00, 0x00, 0x00, 0x00, 0x00, 0x00, 0x00, 0x00, 0x00,
  0x00, 0x00, 0x00, 0x00, 0x00, 0x00, 0x00, 0x00, 0x00, 0x00, 0x00, 0x00,
  0x00, 0x00, 0x00, 0x00, 0x00, 0x00, 0x00, 0x00, 0x00, 0x00, 0x00, 0x00,
  0x00, 0x00, 0x00, 0x00, 0x00, 0x00, 0x00, 0x00, 0x00, 0x00, 0x00, 0x00,
  0x00, 0x00, 0x00, 0x00, 0x00, 0x00, 0x00, 0x00, 0x00, 0x00, 0x00, 0x00,
  0x00, 0x00, 0x00, 0x00, 0x00, 0x00, 0x00, 0x00, 0x00, 0x00, 0x00, 0x00,
  0x00, 0x00, 0x00, 0x00, 0x00, 0x00, 0x00, 0x00, 0x00, 0x00, 0x00, 0x00,
  0x00, 0x00, 0x00, 0x00, 0x00, 0x00, 0x00, 0x00, 0x00, 0x00, 0x00, 0x00,
  0x00, 0x00, 0x00, 0x00, 0x00, 0x00, 0x00, 0x00, 0x00, 0x00, 0x00, 0x00,
  0x00, 0x00, 0x00, 0x00, 0x00, 0x00, 0x00, 0x00, 0x00, 0x00, 0x00, 0x00,
  0x00, 0x00, 0x00, 0x00, 0x00, 0x00, 0x00, 0x00, 0x00, 0x00, 0x00, 0x00,
  0x00, 0x00, 0x00, 0x00, 0x00, 0x00, 0x00, 0x00, 0x00, 0x00, 0x00, 0x00,
  0x00, 0x00, 0x00, 0x00, 0x00, 0x00, 0x00, 0x00, 0x00, 0x00, 0x00, 0x00,
  0x00, 0x00, 0x00, 0x00, 0x00, 0x00, 0x00, 0x00, 0x00, 0x00, 0x00, 0x00,
  0x00, 0x00, 0x00, 0x00, 0x00, 0x00, 0x00, 0x00, 0x00, 0x00, 0x00, 0x00,
  0x00, 0x00, 0x00, 0x00, 0x00, 0x00, 0x00, 0x00, 0x00, 0x00, 0x00, 0x00,
  0x00, 0x00, 0x00, 0x00, 0x00, 0x00, 0x00, 0x00, 0x00, 0x00, 0x00, 0x00,
  0x00, 0x00, 0x00, 0x00, 0x00, 0x00, 0x00, 0x00, 0x00, 0x00, 0x00, 0x00,
  0x00, 0x00, 0x00, 0x00, 0x00, 0x00, 0x00, 0x00, 0x00, 0x00, 0x00, 0x00,
  0x00, 0x00, 0x00, 0x00, 0x00, 0x00, 0x00, 0x00, 0x00, 0x00, 0x00, 0x00,
  0x20, 0x00, 0x00, 0x00, 0x83, 0xe3, 0x93, 0x3a, 0x8f, 0xbe, 0xa2, 0x3a,
  0xd3, 0xf4, 0x50, 0x3a, 0xcd, 0x3e, 0x83, 0x3a, 0x8f, 0x0e, 0x82, 0x3a,
  0xaf, 0x2a, 0x30, 0x3a, 0x31, 0xb1, 0x75, 0x3a, 0xb6, 0x9e, 0xfa, 0x39,
  0x91, 0x80, 0x6d, 0x39, 0x4b, 0x1c, 0x01, 0x3a, 0x66, 0xba, 0x85, 0x3a,
  0xb7, 0x16, 0x2a, 0x3a, 0x7b, 0x4f, 0x79, 0x3a, 0xc6, 0xc3, 0xc0, 0x39,
  0xdd, 0xad, 0x71, 0x3a, 0xe5, 0xc6, 0xe7, 0x39, 0x03, 0xf5, 0xab, 0x39,
  0xbf, 0x78, 0x90, 0x39, 0xd3, 0x6e, 0x67, 0x3a, 0x99, 0xe5, 0x95, 0x39,
  0x78, 0xcf, 0xd9, 0x39, 0xe4, 0x82, 0x0d, 0x3a, 0xa3, 0xd9, 0x24, 0x3a,
  0xe4, 0x08, 0xa0, 0x39, 0x0f, 0x52, 0x80, 0x39, 0xab, 0x31, 0x12, 0x3a,
  0xb5, 0xfe, 0x08, 0x3a, 0x93, 0x54, 0x00, 0x3a, 0x9a, 0x54, 0x20, 0x3b,
  0x11, 0x72, 0x82, 0x3a, 0xd0, 0x64, 0xa3, 0x3a, 0xc5, 0xb3, 0x53, 0x3a,
  0x12, 0x00, 0x00, 0x00, 0x74, 0x66, 0x6c, 0x2e, 0x70, 0x73, 0x65, 0x75,
  0x64, 0x6f, 0x5f, 0x71, 0x63, 0x6f, 0x6e, 0x73, 0x74, 0x38, 0x00, 0x00,
  0x01, 0x00, 0x00, 0x00, 0x20, 0x00, 0x00, 0x00, 0x02, 0xf4, 0xff, 0xff,
  0x00, 0x00, 0x00, 0x01, 0x14, 0x00, 0x00, 0x00, 0xa8, 0x01, 0x00, 0x00,
  0x0a, 0x00, 0x00, 0x00, 0x00, 0x00, 0x00, 0x09, 0xb4, 0x01, 0x00, 0x00,
  0x7c, 0xf3, 0xff, 0xff, 0x08, 0x00, 0x00, 0x00, 0x0c, 0x01, 0x00, 0x00,
  0x20, 0x00, 0x00, 0x00, 0x00, 0x00, 0x00, 0x00, 0x00, 0x00, 0x00, 0x00,
  0x00, 0x00, 0x00, 0x00, 0x00, 0x00, 0x00, 0x00, 0x00, 0x00, 0x00, 0x00,
  0x00, 0x00, 0x00, 0x00, 0x00, 0x00, 0x00, 0x00, 0x00, 0x00, 0x00, 0x00,
  0x00, 0x00, 0x00, 0x00, 0x00, 0x00, 0x00, 0x00, 0x00, 0x00, 0x00, 0x00,
  0x00, 0x00, 0x00, 0x00, 0x00, 0x00, 0x00, 0x00, 0x00, 0x00, 0x00, 0x00,
  0x00, 0x00, 0x00, 0x00, 0x00, 0x00, 0x00, 0x00, 0x00, 0x00, 0x00, 0x00,
  0x00, 0x00, 0x00, 0x00, 0x00, 0x00, 0x00, 0x00, 0x00, 0x00, 0x00, 0x00,
  0x00, 0x00, 0x00, 0x00, 0x00, 0x00, 0x00, 0x00, 0x00, 0x00, 0x00, 0x00,
  0x00, 0x00, 0x00, 0x00, 0x00, 0x00, 0x00, 0x00, 0x00, 0x00, 0x00, 0x00,
  0x00, 0x00, 0x00, 0x00, 0x00, 0x00, 0x00, 0x00, 0x00, 0x00, 0x00, 0x00,
  0x00, 0x00, 0x00, 0x00, 0x00, 0x00, 0x00, 0x00, 0x00, 0x00, 0x00, 0x00,
  0x00, 0x00, 0x00, 0x00, 0x00, 0x00, 0x00, 0x00, 0x00, 0x00, 0x00, 0x00,
  0x00, 0x00, 0x00, 0x00, 0x00, 0x00, 0x00, 0x00, 0x00, 0x00, 0x00, 0x00,
  0x00, 0x00, 0x00, 0x00, 0x00, 0x00, 0x00, 0x00, 0x00, 0x00, 0x00, 0x00,
  0x00, 0x00, 0x00, 0x00, 0x00, 0x00, 0x00, 0x00, 0x00, 0x00, 0x00, 0x00,
  0x00, 0x00, 0x00, 0x00, 0x00, 0x00, 0x00, 0x00, 0x00, 0x00, 0x00, 0x00,
  0x00, 0x00, 0x00, 0x00, 0x00, 0x00, 0x00, 0x00, 0x00, 0x00, 0x00, 0x00,
  0x00, 0x00, 0x00, 0x00, 0x00, 0x00, 0x00, 0x00, 0x00, 0x00, 0x00, 0x00,
  0x00, 0x00, 0x00, 0x00, 0x00, 0x00, 0x00, 0x00, 0x00, 0x00, 0x00, 0x00,
  0x00, 0x00, 0x00, 0x00, 0x00, 0x00, 0x00, 0x00, 0x00, 0x00, 0x00, 0x00,
  0x00, 0x00, 0x00, 0x00, 0x00, 0x00, 0x00, 0x00, 0x00, 0x00, 0x00, 0x00,
  0x00, 0x00, 0x00, 0x00, 0x00, 0x00, 0x00, 0x00, 0x00, 0x00, 0x00, 0x00,
  0x20, 0x00, 0x00, 0x00, 0x30, 0x89, 0x8e, 0x3b, 0x58, 0x9b, 0x82, 0x3b,
  0x59, 0x9f, 0xfe, 0x3a, 0x85, 0x5b, 0x67, 0x3b, 0xed, 0x82, 0x82, 0x3b,
  0x08, 0xd3, 0x63, 0x3b, 0xab, 0xf3, 0x70, 0x3b, 0x75, 0x00, 0xb3, 0x3b,
  0xcf, 0xd3, 0x5e, 0x3b, 0x41, 0xe6, 0xa2, 0x3b, 0xdf, 0xf2, 0x83, 0x3b,
  0xe1, 0x8a, 0x8e, 0x3b, 0x29, 0xa7, 0x56, 0x3b, 0xd2, 0x54, 0x10, 0x3b,
  0x8c, 0x47, 0x64, 0x3b, 0x69, 0x1b, 0x96, 0x3b, 0xe4, 0xe2, 0x57, 0x3b,
  0xaa, 0x09, 0x76, 0x3b, 0xef, 0xfa, 0x07, 0x3b, 0xd2, 0xfe, 0xa4, 0x3b,
  0x61, 0xac, 0x22, 0x3b, 0xc5, 0xef, 0x5e, 0x3b, 0x8a, 0xc6, 0x53, 0x3b,
  0x9d, 0x43, 0x8f, 0x3b, 0x96, 0x53, 0x94, 0x3b, 0xbe, 0xe5, 0x34, 0x3b,
  0xf1, 0xf3, 0x75, 0x3b, 0x84, 0xd8, 0x6b, 0x3b, 0xcc, 0x88, 0x96, 0x3b,
  0xda, 0xe4, 0x47, 0x3b, 0x5b, 0xbe, 0x56, 0x3b, 0x30, 0xd1, 0xa6, 0x3b,
  0x12, 0x00, 0x00, 0x00, 0x74, 0x66, 0x6c, 0x2e, 0x70, 0x73, 0x65, 0x75,
  0x64, 0x6f, 0x5f, 0x71, 0x63, 0x6f, 0x6e, 0x73, 0x74, 0x37, 0x00, 0x00,
  0x04, 0x00, 0x00, 0x00, 0x20, 0x00, 0x00, 0x00, 0x01, 0x00, 0x00, 0x00,
  0x01, 0x00, 0x00, 0x00, 0x20, 0x00, 0x00, 0x00, 0xe2, 0xf5, 0xff, 0xff,
  0x00, 0x00, 0x00, 0x01, 0x14, 0x00, 0x00, 0x00, 0xa4, 0x01, 0x00, 0x00,
  0x09, 0x00, 0x00, 0x00, 0x00, 0x00, 0x00, 0x02, 0xb0, 0x01, 0x00, 0x00,
  0x5c, 0xf5, 0xff, 0xff, 0x08, 0x00, 0x00, 0x00, 0x08, 0x01, 0x00, 0x00,
  0x20, 0x00, 0x00, 0x00, 0x00, 0x00, 0x00, 0x00, 0x00, 0x00, 0x00, 0x00,
  0x00, 0x00, 0x00, 0x00, 0x00, 0x00, 0x00, 0x00, 0x00, 0x00, 0x00, 0x00,
  0x00, 0x00, 0x00, 0x00, 0x00, 0x00, 0x00, 0x00, 0x00, 0x00, 0x00, 0x00,
  0x00, 0x00, 0x00, 0x00, 0x00, 0x00, 0x00, 0x00, 0x00, 0x00, 0x00, 0x00,
  0x00, 0x00, 0x00, 0x00, 0x00, 0x00, 0x00, 0x00, 0x00, 0x00, 0x00, 0x00,
  0x00, 0x00, 0x00, 0x00, 0x00, 0x00, 0x00, 0x00, 0x00, 0x00, 0x00, 0x00,
  0x00, 0x00, 0x00, 0x00, 0x00, 0x00, 0x00, 0x00, 0x00, 0x00, 0x00, 0x00,
  0x00, 0x00, 0x00, 0x00, 0x00, 0x00, 0x00, 0x00, 0x00, 0x00, 0x00, 0x00,
  0x00, 0x00, 0x00, 0x00, 0x00, 0x00, 0x00, 0x00, 0x00, 0x00, 0x00, 0x00,
  0x00, 0x00, 0x00, 0x00, 0x00, 0x00, 0x00, 0x00, 0x00, 0x00, 0x00, 0x00,
  0x00, 0x00, 0x00, 0x00, 0x00, 0x00, 0x00, 0x00, 0x00, 0x00, 0x00, 0x00,
  0x00, 0x00, 0x00, 0x00, 0x00, 0x00, 0x00, 0x00, 0x00, 0x00, 0x00, 0x00,
  0x00, 0x00, 0x00, 0x00, 0x00, 0x00, 0x00, 0x00, 0x00, 0x00, 0x00, 0x00,
  0x00, 0x00, 0x00, 0x00, 0x00, 0x00, 0x00, 0x00, 0x00, 0x00, 0x00, 0x00,
  0x00, 0x00, 0x00, 0x00, 0x00, 0x00, 0x00, 0x00, 0x00, 0x00, 0x00, 0x00,
  0x00, 0x00, 0x00, 0x00, 0x00, 0x00, 0x00, 0x00, 0x00, 0x00, 0x00, 0x00,
  0x00, 0x00, 0x00, 0x00, 0x00, 0x00, 0x00, 0x00, 0x00, 0x00, 0x00, 0x00,
  0x00, 0x00, 0x00, 0x00, 0x00, 0x00, 0x00, 0x00, 0x00, 0x00, 0x00, 0x00,
  0x00, 0x00, 0x00, 0x00, 0x00, 0x00, 0x00, 0x00, 0x00, 0x00, 0x00, 0x00,
  0x00, 0x00, 0x00, 0x00, 0x00, 0x00, 0x00, 0x00, 0x00, 0x00, 0x00, 0x00,
  0x00, 0x00, 0x00, 0x00, 0x00, 0x00, 0x00, 0x00, 0x00, 0x00, 0x00, 0x00,
  0x00, 0x00, 0x00, 0x00, 0x00, 0x00, 0x00, 0x00, 0x20, 0x00, 0x00, 0x00,
  0x00, 0xdd, 0xd4, 0x39, 0x63, 0x0c, 0xc3, 0x39, 0x73, 0x20, 0x3e, 0x39,
  0x3a, 0xc1, 0xac, 0x39, 0xeb, 0xe7, 0xc2, 0x39, 0xd8, 0x1d, 0xaa, 0x39,
  0x3c, 0xeb, 0xb3, 0x39, 0x27, 0xa9, 0x05, 0x3a, 0xa6, 0x62, 0xa6, 0x39,
  0x33, 0x46, 0xf3, 0x39, 0x69, 0x0d, 0xc5, 0x39, 0x87, 0xdf, 0xd4, 0x39,
  0x11, 0x48, 0xa0, 0x39, 0x6a, 0x8b, 0x57, 0x39, 0xd9, 0x74, 0xaa, 0x39,
  0x8b, 0x2b, 0xe0, 0x39, 0xd3, 0x33, 0xa1, 0x39, 0x70, 0xb7, 0xb7, 0x39,
  0xb1, 0x12, 0x4b, 0x39, 0x82, 0x67, 0xf6, 0x39, 0xc5, 0xef, 0x72, 0x39,
  0x87, 0x77, 0xa6, 0x39, 0x08, 0x22, 0x9e, 0x39, 0x68, 0xf3, 0xd5, 0x39,
  0xd1, 0x82, 0xdd, 0x39, 0x84, 0x13, 0x87, 0x39, 0x37, 0xa7, 0xb7, 0x39,
  0x2f, 0x1b, 0xb0, 0x39, 0xe7, 0xce, 0xe0, 0x39, 0xcd, 0x42, 0x95, 0x39,
  0x63, 0x59, 0xa0, 0x39, 0xfb, 0x1f, 0xf9, 0x39, 0x12, 0x00, 0x00, 0x00,
  0x74, 0x66, 0x6c, 0x2e, 0x70, 0x73, 0x65, 0x75, 0x64, 0x6f, 0x5f, 0x71,
  0x63, 0x6f, 0x6e, 0x73, 0x74, 0x36, 0x00, 0x00, 0x01, 0x00, 0x00, 0x00,
  0x20, 0x00, 0x00, 0x00, 0x00, 0x00, 0x16, 0x00, 0x1e, 0x00, 0x18, 0x00,
  0x17, 0x00, 0x10, 0x00, 0x0c, 0x00, 0x08, 0x00, 0x00, 0x00, 0x00, 0x00,
  0x00, 0x00, 0x07, 0x00, 0x16, 0x00, 0x00, 0x00, 0x00, 0x00, 0x00, 0x01,
  0x28, 0x00, 0x00, 0x00, 0xc0, 0x01, 0x00, 0x00, 0x08, 0x00, 0x00, 0x00,
  0x00, 0x00, 0x00, 0x09, 0xcc, 0x01, 0x00, 0x00, 0x00, 0x00, 0x12, 0x00,
  0x10, 0x00, 0x00, 0x00, 0x00, 0x00, 0x0c, 0x00, 0x08, 0x00, 0x00, 0x00,
  0x00, 0x00, 0x04, 0x00, 0x12, 0x00, 0x00, 0x00, 0x03, 0x00, 0x00, 0x00,
  0x08, 0x00, 0x00, 0x00, 0x0c, 0x01, 0x00, 0x00, 0x20, 0x00, 0x00, 0x00,
  0x00, 0x00, 0x00, 0x00, 0x00, 0x00, 0x00, 0x00, 0x00, 0x00, 0x00, 0x00,
  0x00, 0x00, 0x00, 0x00, 0x00, 0x00, 0x00, 0x00, 0x00, 0x00, 0x00, 0x00,
  0x00, 0x00, 0x00, 0x00, 0x00, 0x00, 0x00, 0x00, 0x00, 0x00, 0x00, 0x00,
  0x00, 0x00, 0x00, 0x00, 0x00, 0x00, 0x00, 0x00, 0x00, 0x00, 0x00, 0x00,
  0x00, 0x00, 0x00, 0x00, 0x00, 0x00, 0x00, 0x00, 0x00, 0x00, 0x00, 0x00,
  0x00, 0x00, 0x00, 0x00, 0x00, 0x00, 0x00, 0x00, 0x00, 0x00, 0x00, 0x00,
  0x00, 0x00, 0x00, 0x00, 0x00, 0x00, 0x00, 0x00, 0x00, 0x00, 0x00, 0x00,
  0x00, 0x00, 0x00, 0x00, 0x00, 0x00, 0x00, 0x00, 0x00, 0x00, 0x00, 0x00,
  0x00, 0x00, 0x00, 0x00, 0x00, 0x00, 0x00, 0x00, 0x00, 0x00, 0x00, 0x00,
  0x00, 0x00, 0x00, 0x00, 0x00, 0x00, 0x00, 0x00, 0x00, 0x00, 0x00, 0x00,
  0x00, 0x00, 0x00, 0x00, 0x00, 0x00, 0x00, 0x00, 0x00, 0x00, 0x00, 0x00,
  0x00, 0x00, 0x00, 0x00, 0x00, 0x00, 0x00, 0x00, 0x00, 0x00, 0x00, 0x00,
  0x00, 0x00, 0x00, 0x00, 0x00, 0x00, 0x00, 0x00, 0x00, 0x00, 0x00, 0x00,
  0x00, 0x00, 0x00, 0x00, 0x00, 0x00, 0x00, 0x00, 0x00, 0x00, 0x00, 0x00,
  0x00, 0x00, 0x00, 0x00, 0x00, 0x00, 0x00, 0x00, 0x00, 0x00, 0x00, 0x00,
  0x00, 0x00, 0x00, 0x00, 0x00, 0x00, 0x00, 0x00, 0x00, 0x00, 0x00, 0x00,
  0x00, 0x00, 0x00, 0x00, 0x00, 0x00, 0x00, 0x00, 0x00, 0x00, 0x00, 0x00,
  0x00, 0x00, 0x00, 0x00, 0x00, 0x00, 0x00, 0x00, 0x00, 0x00, 0x00, 0x00,
  0x00, 0x00, 0x00, 0x00, 0x00, 0x00, 0x00, 0x00, 0x00, 0x00, 0x00, 0x00,
  0x00, 0x00, 0x00, 0x00, 0x00, 0x00, 0x00, 0x00, 0x00, 0x00, 0x00, 0x00,
  0x00, 0x00, 0x00, 0x00, 0x00, 0x00, 0x00, 0x00, 0x00, 0x00, 0x00, 0x00,
  0x00, 0x00, 0x00, 0x00, 0x00, 0x00, 0x00, 0x00, 0x20, 0x00, 0x00, 0x00,
  0x07, 0x6d, 0xb1, 0x3b, 0x36, 0x19, 0xe3, 0x3b, 0x34, 0x48, 0x04, 0x3c,
  0x8d, 0xbc, 0xa4, 0x3c, 0x8b, 0x6e, 0x8f, 0x3b, 0xf3, 0x30, 0x25, 0x3c,
  0x56, 0x51, 0x28, 0x3d, 0xab, 0x1b, 0x87, 0x3d, 0xc9, 0xe7, 0x7c, 0x3b,
  0x6e, 0x63, 0x42, 0x3c, 0x0c, 0x6b, 0xc0, 0x3b, 0x35, 0x15, 0x21, 0x3d,
  0xe0, 0x44, 0xb4, 0x3c, 0xd1, 0x89, 0x81, 0x3d, 0x74, 0xe6, 0x50, 0x3c,
  0x78, 0x2e, 0xcf, 0x3c, 0xd6, 0xde, 0x22, 0x3c, 0x17, 0x09, 0x09, 0x3d,
  0xd7, 0x22, 0x4d, 0x3d, 0x8f, 0x93, 0x0b, 0x3c, 0x20, 0x35, 0x3f, 0x3d,
  0x0c, 0x4b, 0x29, 0x3b, 0x0b, 0x76, 0x06, 0x3d, 0xe6, 0x1e, 0xec, 0x3b,
  0x8f, 0xdf, 0x37, 0x3b, 0x06, 0xb6, 0xd5, 0x3b, 0xe6, 0xeb, 0xfe, 0x3c,
  0x24, 0x2d, 0x87, 0x3d, 0x93, 0x06, 0x81, 0x3c, 0x72, 0x50, 0x43, 0x3c,
  0xad, 0x26, 0x4e, 0x3d, 0x4a, 0x8b, 0xb1, 0x3b, 0x12, 0x00, 0x00, 0x00,
  0x74, 0x66, 0x6c, 0x2e, 0x70, 0x73, 0x65, 0x75, 0x64, 0x6f, 0x5f, 0x71,
  0x63, 0x6f, 0x6e, 0x73, 0x74, 0x35, 0x00, 0x00, 0x04, 0x00, 0x00, 0x00,
  0x01, 0x00, 0x00, 0x00, 0x03, 0x00, 0x00, 0x00, 0x03, 0x00, 0x00, 0x00,
  0x20, 0x00, 0x00, 0x00, 0xc2, 0xf9, 0xff, 0xff, 0x00, 0x00, 0x00, 0x01,
  0x14, 0x00, 0x00, 0x00, 0xa4, 0x01, 0x00, 0x00, 0x07, 0x00, 0x00, 0x00,
  0x00, 0x00, 0x00, 0x02, 0xb0, 0x01, 0x00, 0x00, 0x3c, 0xf9, 0xff, 0xff,
  0x08, 0x00, 0x00, 0x00, 0x08, 0x01, 0x00, 0x00, 0x20, 0x00, 0x00, 0x00,
  0x00, 0x00, 0x00, 0x00, 0x00, 0x00, 0x00, 0x00, 0x00, 0x00, 0x00, 0x00,
  0x00, 0x00, 0x00, 0x00, 0x00, 0x00, 0x00, 0x00, 0x00, 0x00, 0x00, 0x00,
  0x00, 0x00, 0x00, 0x00, 0x00, 0x00, 0x00, 0x00, 0x00, 0x00, 0x00, 0x00,
  0x00, 0x00, 0x00, 0x00, 0x00, 0x00, 0x00, 0x00, 0x00, 0x00, 0x00, 0x00,
  0x00, 0x00, 0x00, 0x00, 0x00, 0x00, 0x00, 0x00, 0x00, 0x00, 0x00, 0x00,
  0x00, 0x00, 0x00, 0x00, 0x00, 0x00, 0x00, 0x00, 0x00, 0x00, 0x00, 0x00,
  0x00, 0x00, 0x00, 0x00, 0x00, 0x00, 0x00, 0x00, 0x00, 0x00, 0x00, 0x00,
  0x00, 0x00, 0x00, 0x00, 0x00, 0x00, 0x00, 0x00, 0x00, 0x00, 0x00, 0x00,
  0x00, 0x00, 0x00, 0x00, 0x00, 0x00, 0x00, 0x00, 0x00, 0x00, 0x00, 0x00,
  0x00, 0x00, 0x00, 0x00, 0x00, 0x00, 0x00, 0x00, 0x00, 0x00, 0x00, 0x00,
  0x00, 0x00, 0x00, 0x00, 0x00, 0x00, 0x00, 0x00, 0x00, 0x00, 0x00, 0x00,
  0x00, 0x00, 0x00, 0x00, 0x00, 0x00, 0x00, 0x00, 0x00, 0x00, 0x00, 0x00,
  0x00, 0x00, 0x00, 0x00, 0x00, 0x00, 0x00, 0x00, 0x00, 0x00, 0x00, 0x00,
  0x00, 0x00, 0x00, 0x00, 0x00, 0x00, 0x00, 0x00, 0x00, 0x00, 0x00, 0x00,
  0x00, 0x00, 0x00, 0x00, 0x00, 0x00, 0x00, 0x00, 0x00, 0x00, 0x00, 0x00,
  0x00, 0x00, 0x00, 0x00, 0x00, 0x00, 0x00, 0x00, 0x00, 0x00, 0x00, 0x00,
  0x00, 0x00, 0x00, 0x00, 0x00, 0x00, 0x00, 0x00, 0x00, 0x00, 0x00, 0x00,
  0x00, 0x00, 0x00, 0x00, 0x00, 0x00, 0x00, 0x00, 0x00, 0x00, 0x00, 0x00,
  0x00, 0x00, 0x00, 0x00, 0x00, 0x00, 0x00, 0x00, 0x00, 0x00, 0x00, 0x00,
  0x00, 0x00, 0x00, 0x00, 0x00, 0x00, 0x00, 0x00, 0x00, 0x00, 0x00, 0x00,
  0x00, 0x00, 0x00, 0x00, 0x00, 0x00, 0x00, 0x00, 0x00, 0x00, 0x00, 0x00,
  0x00, 0x00, 0x00, 0x00, 0x20, 0x00, 0x00, 0x00, 0x0b, 0x63, 0x7e, 0x39,
  0x87, 0xcd, 0xa2, 0x39, 0x48, 0xa9, 0xbd, 0x39, 0x7f, 0x31, 0x6c, 0x3a,
  0xbc, 0xa5, 0x4d, 0x39, 0x62, 0xd8, 0xec, 0x39, 0xf3, 0x53, 0xf1, 0x3a,
  0x90, 0xb6, 0x41, 0x3b, 0xa9, 0x4d, 0x35, 0x39, 0x83, 0x5a, 0x0b, 0x3a,
  0xee, 0xf0, 0x89, 0x39, 0x6f, 0xf4, 0xe6, 0x3a, 0x4e, 0x3b, 0x81, 0x3a,
  0x3a, 0xba, 0x39, 0x3b, 0xbf, 0xc1, 0x15, 0x3a, 0x54, 0x86, 0x94, 0x3a,
  0x90, 0x84, 0xe9, 0x39, 0x03, 0x7a, 0xc4, 0x3a, 0xf3, 0x0e, 0x13, 0x3b,
  0xa1, 0x1e, 0xc8, 0x39, 0xc1, 0x12, 0x09, 0x3b, 0xfa, 0xb9, 0xf2, 0x38,
  0x18, 0xc9, 0xc0, 0x3a, 0x4d, 0x45, 0xa9, 0x39, 0xc2, 0xd0, 0x03, 0x39,
  0xa3, 0x34, 0x99, 0x39, 0xa7, 0xbf, 0xb6, 0x3a, 0x9d, 0xcf, 0x41, 0x3b,
  0x0e, 0xfe, 0x38, 0x3a, 0x6d, 0x04, 0x0c, 0x3a, 0x39, 0xc9, 0x13, 0x3b,
  0x6f, 0x8e, 0x7e, 0x39, 0x12, 0x00, 0x00, 0x00, 0x74, 0x66, 0x6c, 0x2e,
  0x70, 0x73, 0x65, 0x75, 0x64, 0x6f, 0x5f, 0x71, 0x63, 0x6f, 0x6e, 0x73,
  0x74, 0x34, 0x00, 0x00, 0x01, 0x00, 0x00, 0x00, 0x20, 0x00, 0x00, 0x00,
  0x92, 0xfb, 0xff, 0xff, 0x00, 0x00, 0x00, 0x01, 0x14, 0x00, 0x00, 0x00,
  0xa8, 0x01, 0x00, 0x00, 0x06, 0x00, 0x00, 0x00, 0x00, 0x00, 0x00, 0x09,
  0xb4, 0x01, 0x00, 0x00, 0x0c, 0xfb, 0xff, 0xff, 0x08, 0x00, 0x00, 0x00,
  0x0c, 0x01, 0x00, 0x00, 0x20, 0x00, 0x00, 0x00, 0x00, 0x00, 0x00, 0x00,
  0x00, 0x00, 0x00, 0x00, 0x00, 0x00, 0x00, 0x00, 0x00, 0x00, 0x00, 0x00,
  0x00, 0x00, 0x00, 0x00, 0x00, 0x00, 0x00, 0x00, 0x00, 0x00, 0x00, 0x00,
  0x00, 0x00, 0x00, 0x00, 0x00, 0x00, 0x00, 0x00, 0x00, 0x00, 0x00, 0x00,
  0x00, 0x00, 0x00, 0x00, 0x00, 0x00, 0x00, 0x00, 0x00, 0x00, 0x00, 0x00,
  0x00, 0x00, 0x00, 0x00, 0x00, 0x00, 0x00, 0x00, 0x00, 0x00, 0x00, 0x00,
  0x00, 0x00, 0x00, 0x00, 0x00, 0x00, 0x00, 0x00, 0x00, 0x00, 0x00, 0x00,
  0x00, 0x00, 0x00, 0x00, 0x00, 0x00, 0x00, 0x00, 0x00, 0x00, 0x00, 0x00,
  0x00, 0x00, 0x00, 0x00, 0x00, 0x00, 0x00, 0x00, 0x00, 0x00, 0x00, 0x00,
  0x00, 0x00, 0x00, 0x00, 0x00, 0x00, 0x00, 0x00, 0x00, 0x00, 0x00, 0x00,
  0x00, 0x00, 0x00, 0x00, 0x00, 0x00, 0x00, 0x00, 0x00, 0x00, 0x00, 0x00,
  0x00, 0x00, 0x00, 0x00, 0x00, 0x00, 0x00, 0x00, 0x00, 0x00, 0x00, 0x00,
  0x00, 0x00, 0x00, 0x00, 0x00, 0x00, 0x00, 0x00, 0x00, 0x00, 0x00, 0x00,
  0x00, 0x00, 0x00, 0x00, 0x00, 0x00, 0x00, 0x00, 0x00, 0x00, 0x00, 0x00,
  0x00, 0x00, 0x00, 0x00, 0x00, 0x00, 0x00, 0x00, 0x00, 0x00, 0x00, 0x00,
  0x00, 0x00, 0x00, 0x00, 0x00, 0x00, 0x00, 0x00, 0x00, 0x00, 0x00, 0x00,
  0x00, 0x00, 0x00, 0x00, 0x00, 0x00, 0x00, 0x00, 0x00, 0x00, 0x00, 0x00,
  0x00, 0x00, 0x00, 0x00, 0x00, 0x00, 0x00, 0x00, 0x00, 0x00, 0x00, 0x00,
  0x00, 0x00, 0x00, 0x00, 0x00, 0x00, 0x00, 0x00, 0x00, 0x00, 0x00, 0x00,
  0x00, 0x00, 0x00, 0x00, 0x00, 0x00, 0x00, 0x00, 0x00, 0x00, 0x00, 0x00,
  0x00, 0x00, 0x00, 0x00, 0x00, 0x00, 0x00, 0x00, 0x00, 0x00, 0x00, 0x00,
  0x00, 0x00, 0x00, 0x00, 0x00, 0x00, 0x00, 0x00, 0x00, 0x00, 0x00, 0x00,
  0x00, 0x00, 0x00, 0x00, 0x20, 0x00, 0x00, 0x00, 0xcf, 0xfb, 0x10, 0x3d,
  0x5f, 0x92, 0x0f, 0x3d, 0x0b, 0x7f, 0x01, 0x3d, 0x8d, 0x0f, 0x31, 0x3d,
  0xf0, 0x1b, 0x34, 0x3d, 0x9e, 0xa8, 0xc6, 0x3c, 0x8d, 0x75, 0xb7, 0x3c,
  0xbb, 0x45, 0x44, 0x3d, 0xc3, 0x26, 0x0d, 0x3d, 0x85, 0x6b, 0xfb, 0x3c,
  0x97, 0x82, 0x0a, 0x3d, 0x99, 0xba, 0xf2, 0x3c, 0x2f, 0xdf, 0xb8, 0x3c,
  0x3f, 0x06, 0x0b, 0x3d, 0xd6, 0xab, 0x2a, 0x3d, 0xa4, 0x63, 0xec, 0x3c,
  0x8e, 0x0d, 0xfd, 0x3c, 0xdf, 0xdc, 0xe7, 0x3c, 0xf3, 0x24, 0xf5, 0x3c,
  0x8b, 0x6c, 0xf8, 0x3c, 0x79, 0x85, 0xc2, 0x3c, 0x8d, 0xd8, 0x4c, 0x3d,
  0x8a, 0xf2, 0xb2, 0x3c, 0x48, 0x79, 0xed, 0x3c, 0xbd, 0x3e, 0xe6, 0x3c,
  0x8b, 0x5c, 0x0b, 0x3d, 0x23, 0x9a, 0x24, 0x3d, 0x8d, 0x6c, 0x03, 0x3d,
  0x31, 0x1e, 0x03, 0x3d, 0xd5, 0x79, 0x16, 0x3d, 0x68, 0xd8, 0x08, 0x3d,
  0xda, 0x24, 0x5d, 0x3d, 0x12, 0x00, 0x00, 0x00, 0x74, 0x66, 0x6c, 0x2e,
  0x70, 0x73, 0x65, 0x75, 0x64, 0x6f, 0x5f, 0x71, 0x63, 0x6f, 0x6e, 0x73,
  0x74, 0x33, 0x00, 0x00, 0x04, 0x00, 0x00, 0x00, 0x20, 0x00, 0x00, 0x00,
  0x01, 0x00, 0x00, 0x00, 0x01, 0x00, 0x00, 0x00, 0x20, 0x00, 0x00, 0x00,
  0x72, 0xfd, 0xff, 0xff, 0x00, 0x00, 0x00, 0x01, 0x14, 0x00, 0x00, 0x00,
  0xa4, 0x01, 0x00, 0x00, 0x05, 0x00, 0x00, 0x00, 0x00, 0x00, 0x00, 0x02,
  0xb0, 0x01, 0x00, 0x00, 0xec, 0xfc, 0xff, 0xff, 0x08, 0x00, 0x00, 0x00,
  0x08, 0x01, 0x00, 0x00, 0x20, 0x00, 0x00, 0x00, 0x00, 0x00, 0x00, 0x00,
  0x00, 0x00, 0x00, 0x00, 0x00, 0x00, 0x00, 0x00, 0x00, 0x00, 0x00, 0x00,
  0x00, 0x00, 0x00, 0x00, 0x00, 0x00, 0x00, 0x00, 0x00, 0x00, 0x00, 0x00,
  0x00, 0x00, 0x00, 0x00, 0x00, 0x00, 0x00, 0x00, 0x00, 0x00, 0x00, 0x00,
  0x00, 0x00, 0x00, 0x00, 0x00, 0x00, 0x00, 0x00, 0x00, 0x00, 0x00, 0x00,
  0x00, 0x00, 0x00, 0x00, 0x00, 0x00, 0x00, 0x00, 0x00, 0x00, 0x00, 0x00,
  0x00, 0x00, 0x00, 0x00, 0x00, 0x00, 0x00, 0x00, 0x00, 0x00, 0x00, 0x00,
  0x00, 0x00, 0x00, 0x00, 0x00, 0x00, 0x00, 0x00, 0x00, 0x00, 0x00, 0x00,
  0x00, 0x00, 0x00, 0x00, 0x00, 0x00, 0x00, 0x00, 0x00, 0x00, 0x00, 0x00,
  0x00, 0x00, 0x00, 0x00, 0x00, 0x00, 0x00, 0x00, 0x00, 0x00, 0x00, 0x00,
  0x00, 0x00, 0x00, 0x00, 0x00, 0x00, 0x00, 0x00, 0x00, 0x00, 0x00, 0x00,
  0x00, 0x00, 0x00, 0x00, 0x00, 0x00, 0x00, 0x00, 0x00, 0x00, 0x00, 0x00,
  0x00, 0x00, 0x00, 0x00, 0x00, 0x00, 0x00, 0x00, 0x00, 0x00, 0x00, 0x00,
  0x00, 0x00, 0x00, 0x00, 0x00, 0x00, 0x00, 0x00, 0x00, 0x00, 0x00, 0x00,
  0x00, 0x00, 0x00, 0x00, 0x00, 0x00, 0x00, 0x00, 0x00, 0x00, 0x00, 0x00,
  0x00, 0x00, 0x00, 0x00, 0x00, 0x00, 0x00, 0x00, 0x00, 0x00, 0x00, 0x00,
  0x00, 0x00, 0x00, 0x00, 0x00, 0x00, 0x00, 0x00, 0x00, 0x00, 0x00, 0x00,
  0x00, 0x00, 0x00, 0x00, 0x00, 0x00, 0x00, 0x00, 0x00, 0x00, 0x00, 0x00,
  0x00, 0x00, 0x00, 0x00, 0x00, 0x00, 0x00, 0x00, 0x00, 0x00, 0x00, 0x00,
  0x00, 0x00, 0x00, 0x00, 0x00, 0x00, 0x00, 0x00, 0x00, 0x00, 0x00, 0x00,
  0x00, 0x00, 0x00, 0x00, 0x00, 0x00, 0x00, 0x00, 0x00, 0x00, 0x00, 0x00,
  0x00, 0x00, 0x00, 0x00, 0x00, 0x00, 0x00, 0x00, 0x00, 0x00, 0x00, 0x00,
  0x20, 0x00, 0x00, 0x00, 0x92, 0x2b, 0x84, 0x3b, 0x14, 0xe2, 0x82, 0x3b,
  0x69, 0x1a, 0x6c, 0x3b, 0x93, 0x69, 0xa1, 0x3b, 0xfe, 0x30, 0xa4, 0x3b,
  0xfd, 0x19, 0x35, 0x3b, 0xcf, 0x3e, 0x27, 0x3b, 0x17, 0xed, 0xb2, 0x3b,
  0x3a, 0xad, 0x80, 0x3b, 0x2c, 0x33, 0x65, 0x3b, 0xa1, 0x89, 0x7c, 0x3b,
  0xe3, 0x46, 0x5d, 0x3b, 0x7b, 0x88, 0x28, 0x3b, 0xac, 0x79, 0x7d, 0x3b,
  0x6c, 0x96, 0x9b, 0x3b, 0x5d, 0x7f, 0x57, 0x3b, 0x43, 0xb0, 0x66, 0x3b,
  0x01, 0x5f, 0x53, 0x3b, 0x97, 0x7a, 0x5f, 0x3b, 0xfb, 0x77, 0x62, 0x3b,
  0x73, 0x54, 0x31, 0x3b, 0xf0, 0xbd, 0xba, 0x3b, 0xe0, 0x21, 0x23, 0x3b,
  0x77, 0x7c, 0x58, 0x3b, 0x79, 0xe5, 0x51, 0x3b, 0x03, 0x17, 0x7e, 0x3b,
  0x09, 0x0e, 0x96, 0x3b, 0x32, 0x9e, 0x6f, 0x3b, 0x54, 0x0f, 0x6f, 0x3b,
  0x55, 0x2d, 0x89, 0x3b, 0x98, 0x80, 0x79, 0x3b, 0x7f, 0x99, 0xc9, 0x3b,
  0x12, 0x00, 0x00, 0x00, 0x74, 0x66, 0x6c, 0x2e, 0x70, 0x73, 0x65, 0x75,
  0x64, 0x6f, 0x5f, 0x71, 0x63, 0x6f, 0x6e, 0x73, 0x74, 0x32, 0x00, 0x00,
  0x01, 0x00, 0x00, 0x00, 0x20, 0x00, 0x00, 0x00, 0x42, 0xff, 0xff, 0xff,
  0x00, 0x00, 0x00, 0x01, 0x14, 0x00, 0x00, 0x00, 0x30, 0x00, 0x00, 0x00,
  0x04, 0x00, 0x00, 0x00, 0x00, 0x00, 0x00, 0x09, 0x3c, 0x00, 0x00, 0x00,
  0xbc, 0xfe, 0xff, 0xff, 0x08, 0x00, 0x00, 0x00, 0x10, 0x00, 0x00, 0x00,
  0x01, 0x00, 0x00, 0x00, 0x00, 0x00, 0x00, 0x00, 0x00, 0x00, 0x00, 0x00,
  0x01, 0x00, 0x00, 0x00, 0x29, 0x0c, 0x98, 0x3c, 0x12, 0x00, 0x00, 0x00,
  0x74, 0x66, 0x6c, 0x2e, 0x70, 0x73, 0x65, 0x75, 0x64, 0x6f, 0x5f, 0x71,
  0x63, 0x6f, 0x6e, 0x73, 0x74, 0x31, 0x00, 0x00, 0x02, 0x00, 0x00, 0x00,
  0x0c, 0x00, 0x00, 0x00, 0x20, 0x00, 0x00, 0x00, 0xa2, 0xff, 0xff, 0xff,
  0x00, 0x00, 0x00, 0x01, 0x14, 0x00, 0x00, 0x00, 0x30, 0x00, 0x00, 0x00,
  0x03, 0x00, 0x00, 0x00, 0x00, 0x00, 0x00, 0x02, 0x3c, 0x00, 0x00, 0x00,
  0x1c, 0xff, 0xff, 0xff, 0x08, 0x00, 0x00, 0x00, 0x10, 0x00, 0x00, 0x00,
  0x01, 0x00, 0x00, 0x00, 0x00, 0x00, 0x00, 0x00, 0x00, 0x00, 0x00, 0x00,
  0x01, 0x00, 0x00, 0x00, 0xcf, 0xf8, 0x12, 0x39, 0x11, 0x00, 0x00, 0x00,
  0x74, 0x66, 0x6c, 0x2e, 0x70, 0x73, 0x65, 0x75, 0x64, 0x6f, 0x5f, 0x71,
  0x63, 0x6f, 0x6e, 0x73, 0x74, 0x00, 0x00, 0x00, 0x01, 0x00, 0x00, 0x00,
  0x0c, 0x00, 0x00, 0x00, 0x00, 0x00, 0x16, 0x00, 0x1c, 0x00, 0x18, 0x00,
  0x17, 0x00, 0x10, 0x00, 0x0c, 0x00, 0x08, 0x00, 0x00, 0x00, 0x00, 0x00,
  0x00, 0x00, 0x07, 0x00, 0x16, 0x00, 0x00, 0x00, 0x00, 0x00, 0x00, 0x01,
  0x18, 0x00, 0x00, 0x00, 0x18, 0x00, 0x00, 0x00, 0x02, 0x00, 0x00, 0x00,
  0x00, 0x00, 0x00, 0x02, 0x20, 0x00, 0x00, 0x00, 0x04, 0x00, 0x04, 0x00,
  0x04, 0x00, 0x00, 0x00, 0x0e, 0x00, 0x00, 0x00, 0x61, 0x72, 0x69, 0x74,
  0x68, 0x2e, 0x63, 0x6f, 0x6e, 0x73, 0x74, 0x61, 0x6e, 0x74, 0x00, 0x00,
  0x01, 0x00, 0x00, 0x00, 0x02, 0x00, 0x00, 0x00, 0x00, 0x00, 0x16, 0x00,
  0x20, 0x00, 0x1c, 0x00, 0x1b, 0x00, 0x14, 0x00, 0x10, 0x00, 0x0c, 0x00,
  0x00, 0x00, 0x00, 0x00, 0x08, 0x00, 0x07, 0x00, 0x16, 0x00, 0x00, 0x00,
  0x00, 0x00, 0x00, 0x01, 0x18, 0x00, 0x00, 0x00, 0x34, 0x00, 0x00, 0x00,
  0x54, 0x00, 0x00, 0x00, 0x01, 0x00, 0x00, 0x00, 0x00, 0x00, 0x00, 0x09,
  0x6c, 0x00, 0x00, 0x00, 0x04, 0x00, 0x00, 0x00, 0xff, 0xff, 0xff, 0xff,
  0x28, 0x00, 0x00, 0x00, 0x20, 0x00, 0x00, 0x00, 0x01, 0x00, 0x00, 0x00,
  0x0c, 0x00, 0x0c, 0x00, 0x00, 0x00, 0x00, 0x00, 0x08, 0x00, 0x04, 0x00,
  0x0c, 0x00, 0x00, 0x00, 0x08, 0x00, 0x00, 0x00, 0x14, 0x00, 0x00, 0x00,
  0x01, 0x00, 0x00, 0x00, 0x3c, 0x00, 0x00, 0x00, 0x00, 0x00, 0x00, 0x00,
  0x00, 0x00, 0x00, 0x00, 0x01, 0x00, 0x00, 0x00, 0x99, 0xb1, 0x3c, 0x3d,
  0x1e, 0x00, 0x00, 0x00, 0x73, 0x65, 0x72, 0x76, 0x69, 0x6e, 0x67, 0x5f,
  0x64, 0x65, 0x66, 0x61, 0x75, 0x6c, 0x74, 0x5f, 0x6b, 0x65, 0x72, 0x61,
  0x73, 0x5f, 0x74, 0x65, 0x6e, 0x73, 0x6f, 0x72, 0x3a, 0x30, 0x00, 0x00,
  0x04, 0x00, 0x00, 0x00, 0x01, 0x00, 0x00, 0x00, 0x28, 0x00, 0x00, 0x00,
  0x20, 0x00, 0x00, 0x00, 0x01, 0x00, 0x00, 0x00, 0x05, 0x00, 0x00, 0x00,
  0x60, 0x00, 0x00, 0x00, 0x40, 0x00, 0x00, 0x00, 0x2c, 0x00, 0x00, 0x00,
  0x18, 0x00, 0x00, 0x00, 0x04, 0x00, 0x00, 0x00, 0xc0, 0xff, 0xff, 0xff,
  0x19, 0x00, 0x00, 0x00, 0x02, 0x00, 0x00, 0x00, 0x00, 0x00, 0x00, 0x19,
  0xd0, 0xff, 0xff, 0xff, 0x09, 0x00, 0x00, 0x00, 0x04, 0x00, 0x00, 0x00,
  0x00, 0x00, 0x00, 0x09, 0xe0, 0xff, 0xff, 0xff, 0x28, 0x00, 0x00, 0x00,
  0x02, 0x00, 0x00, 0x00, 0x00, 0x00, 0x00, 0x28, 0xf0, 0xff, 0xff, 0xff,
  0x04, 0x00, 0x00, 0x00, 0x03, 0x00, 0x00, 0x00, 0x00, 0x00, 0x00, 0x04,
  0x0c, 0x00, 0x10, 0x00, 0x0f, 0x00, 0x00, 0x00, 0x08, 0x00, 0x04, 0x00,
  0x0c, 0x00, 0x00, 0x00, 0x03, 0x00, 0x00, 0x00, 0x03, 0x00, 0x00, 0x00,
  0x00, 0x00, 0x00, 0x03
};

const unsigned int nepspot_model_data_len = 13312;

#endif  // NEPSPOT_MODEL_DATA_H_
