// Auto-generated TensorFlow Lite model for Arduino
// Model: bc_resnet_int8_phase1_14class
// Generated: 2026-05-12
// Size: 89312 bytes
//
// DO NOT EDIT MANUALLY

#ifndef NEPSPOT_MODEL_DATA_H
#define NEPSPOT_MODEL_DATA_H

// Input shape: (1, 40, 32, 1) - MFCC features with channel dimension
// Output shape: (1, 14) - 14-class predictions
// Classes: aghillo, arko, baalnu, banda, feri, hoina, huncha, maathi, roknu, silence, suru, tala, thik_chha, unknown
//
// Quantization:
//   Input: scale=0.071738, zero_point=72
//   Output: scale=0.003906, zero_point=-128

const int nepspot_model_data_len = 89312;
const unsigned char nepspot_model_data[] = {{

  0x1c, 0x00, 0x00, 0x00, 0x54, 0x46, 0x4c, 0x33, 0x14, 0x00, 0x20, 0x00,
  0x1c, 0x00, 0x18, 0x00, 0x14, 0x00, 0x10, 0x00, 0x0c, 0x00, 0x00, 0x00,
  0x08, 0x00, 0x04, 0x00, 0x14, 0x00, 0x00, 0x00, 0x1c, 0x00, 0x00, 0x00,
  0x90, 0x00, 0x00, 0x00, 0x10, 0x01, 0x00, 0x00, 0xc4, 0x48, 0x00, 0x00,
  0xd4, 0x48, 0x00, 0x00, 0xac, 0x5b, 0x01, 0x00, 0x03, 0x00, 0x00, 0x00,
  0x01, 0x00, 0x00, 0x00, 0x04, 0x00, 0x00, 0x00, 0x3e, 0x99, 0xff, 0xff,
  0x0c, 0x00, 0x00, 0x00, 0x1c, 0x00, 0x00, 0x00, 0x44, 0x00, 0x00, 0x00,
  0x0f, 0x00, 0x00, 0x00, 0x73, 0x65, 0x72, 0x76, 0x69, 0x6e, 0x67, 0x5f,
  0x64, 0x65, 0x66, 0x61, 0x75, 0x6c, 0x74, 0x00, 0x01, 0x00, 0x00, 0x00,
  0x04, 0x00, 0x00, 0x00, 0x64, 0xff, 0xff, 0xff, 0x03, 0x01, 0x00, 0x00,
  0x04, 0x00, 0x00, 0x00, 0x10, 0x00, 0x00, 0x00, 0x71, 0x75, 0x61, 0x6e,
  0x74, 0x5f, 0x63, 0x6c, 0x61, 0x73, 0x73, 0x69, 0x66, 0x69, 0x65, 0x72,
  0x00, 0x00, 0x00, 0x00, 0x01, 0x00, 0x00, 0x00, 0x04, 0x00, 0x00, 0x00,
  0x06, 0xb5, 0xff, 0xff, 0x04, 0x00, 0x00, 0x00, 0x0a, 0x00, 0x00, 0x00,
  0x6d, 0x66, 0x63, 0x63, 0x5f, 0x69, 0x6e, 0x70, 0x75, 0x74, 0x00, 0x00,
  0x03, 0x00, 0x00, 0x00, 0x5c, 0x00, 0x00, 0x00, 0x2c, 0x00, 0x00, 0x00,
  0x04, 0x00, 0x00, 0x00, 0xb8, 0xff, 0xff, 0xff, 0x07, 0x01, 0x00, 0x00,
  0x04, 0x00, 0x00, 0x00, 0x13, 0x00, 0x00, 0x00, 0x43, 0x4f, 0x4e, 0x56,
  0x45, 0x52, 0x53, 0x49, 0x4f, 0x4e, 0x5f, 0x4d, 0x45, 0x54, 0x41, 0x44,
  0x41, 0x54, 0x41, 0x00, 0xdc, 0xff, 0xff, 0xff, 0x06, 0x01, 0x00, 0x00,
  0x04, 0x00, 0x00, 0x00, 0x13, 0x00, 0x00, 0x00, 0x6d, 0x69, 0x6e, 0x5f,
  0x72, 0x75, 0x6e, 0x74, 0x69, 0x6d, 0x65, 0x5f, 0x76, 0x65, 0x72, 0x73,
  0x69, 0x6f, 0x6e, 0x00, 0x08, 0x00, 0x0c, 0x00, 0x08, 0x00, 0x04, 0x00,
  0x08, 0x00, 0x00, 0x00, 0x05, 0x01, 0x00, 0x00, 0x04, 0x00, 0x00, 0x00,
  0x13, 0x00, 0x00, 0x00, 0x6d, 0x69, 0x6e, 0x5f, 0x72, 0x75, 0x6e, 0x74,
  0x69, 0x6d, 0x65, 0x5f, 0x76, 0x65, 0x72, 0x73, 0x69, 0x6f, 0x6e, 0x00,
  0x08, 0x01, 0x00, 0x00, 0xb0, 0x47, 0x00, 0x00, 0xa8, 0x47, 0x00, 0x00,
  0x90, 0x47, 0x00, 0x00, 0x70, 0x47, 0x00, 0x00, 0x50, 0x47, 0x00, 0x00,
  0x38, 0x47, 0x00, 0x00, 0x18, 0x47, 0x00, 0x00, 0x00, 0x47, 0x00, 0x00,
  0xe0, 0x46, 0x00, 0x00, 0xc0, 0x46, 0x00, 0x00, 0xa8, 0x46, 0x00, 0x00,
  0x84, 0x46, 0x00, 0x00, 0x60, 0x46, 0x00, 0x00, 0x14, 0x46, 0x00, 0x00,
  0xf0, 0x45, 0x00, 0x00, 0xcc, 0x45, 0x00, 0x00, 0x80, 0x45, 0x00, 0x00,
  0x5c, 0x45, 0x00, 0x00, 0x38, 0x45, 0x00, 0x00, 0xec, 0x44, 0x00, 0x00,
  0xc8, 0x44, 0x00, 0x00, 0xa4, 0x44, 0x00, 0x00, 0x44, 0x44, 0x00, 0x00,
  0x3c, 0x44, 0x00, 0x00, 0x34, 0x44, 0x00, 0x00, 0x2c, 0x44, 0x00, 0x00,
  0xe0, 0x43, 0x00, 0x00, 0xc0, 0x43, 0x00, 0x00, 0xa0, 0x43, 0x00, 0x00,
  0x60, 0x43, 0x00, 0x00, 0x40, 0x43, 0x00, 0x00, 0x20, 0x43, 0x00, 0x00,
  0xe0, 0x42, 0x00, 0x00, 0xc0, 0x42, 0x00, 0x00, 0xa0, 0x42, 0x00, 0x00,
  0x60, 0x42, 0x00, 0x00, 0x40, 0x42, 0x00, 0x00, 0x20, 0x42, 0x00, 0x00,
  0xd0, 0x41, 0x00, 0x00, 0xc8, 0x41, 0x00, 0x00, 0xc0, 0x41, 0x00, 0x00,
  0xb8, 0x41, 0x00, 0x00, 0x78, 0x41, 0x00, 0x00, 0x5c, 0x41, 0x00, 0x00,
  0x40, 0x41, 0x00, 0x00, 0x0c, 0x41, 0x00, 0x00, 0xf0, 0x40, 0x00, 0x00,
  0xd4, 0x40, 0x00, 0x00, 0x94, 0x40, 0x00, 0x00, 0x8c, 0x40, 0x00, 0x00,
  0x58, 0x40, 0x00, 0x00, 0xb8, 0x3e, 0x00, 0x00, 0x68, 0x3e, 0x00, 0x00,
  0x60, 0x3e, 0x00, 0x00, 0xd0, 0x3d, 0x00, 0x00, 0xa0, 0x3d, 0x00, 0x00,
  0x98, 0x3d, 0x00, 0x00, 0x90, 0x3d, 0x00, 0x00, 0x88, 0x3d, 0x00, 0x00,
  0x80, 0x3d, 0x00, 0x00, 0x78, 0x3d, 0x00, 0x00, 0x28, 0x3d, 0x00, 0x00,
  0xf8, 0x3c, 0x00, 0x00, 0xf0, 0x3c, 0x00, 0x00, 0xc8, 0x3c, 0x00, 0x00,
  0x98, 0x3c, 0x00, 0x00, 0x90, 0x3c, 0x00, 0x00, 0x88, 0x3c, 0x00, 0x00,
  0x38, 0x3c, 0x00, 0x00, 0x08, 0x3c, 0x00, 0x00, 0x00, 0x3c, 0x00, 0x00,
  0xf8, 0x3b, 0x00, 0x00, 0xf0, 0x3b, 0x00, 0x00, 0xe8, 0x3b, 0x00, 0x00,
  0x98, 0x3b, 0x00, 0x00, 0x68, 0x3b, 0x00, 0x00, 0x60, 0x3b, 0x00, 0x00,
  0x38, 0x3b, 0x00, 0x00, 0x08, 0x3b, 0x00, 0x00, 0x00, 0x3b, 0x00, 0x00,
  0xf8, 0x3a, 0x00, 0x00, 0xa8, 0x3a, 0x00, 0x00, 0x78, 0x3a, 0x00, 0x00,
  0x70, 0x3a, 0x00, 0x00, 0x68, 0x3a, 0x00, 0x00, 0xf8, 0x39, 0x00, 0x00,
  0xb8, 0x39, 0x00, 0x00, 0xb0, 0x39, 0x00, 0x00, 0xa8, 0x39, 0x00, 0x00,
  0xa0, 0x39, 0x00, 0x00, 0x98, 0x39, 0x00, 0x00, 0x90, 0x39, 0x00, 0x00,
  0xf0, 0x38, 0x00, 0x00, 0xb0, 0x38, 0x00, 0x00, 0xa8, 0x38, 0x00, 0x00,
  0xa0, 0x38, 0x00, 0x00, 0x98, 0x38, 0x00, 0x00, 0x90, 0x38, 0x00, 0x00,
  0x88, 0x38, 0x00, 0x00, 0x80, 0x38, 0x00, 0x00, 0x78, 0x38, 0x00, 0x00,
  0xd8, 0x37, 0x00, 0x00, 0x98, 0x37, 0x00, 0x00, 0x90, 0x37, 0x00, 0x00,
  0x88, 0x37, 0x00, 0x00, 0x80, 0x37, 0x00, 0x00, 0x78, 0x37, 0x00, 0x00,
  0xd8, 0x36, 0x00, 0x00, 0x98, 0x36, 0x00, 0x00, 0x90, 0x36, 0x00, 0x00,
  0x88, 0x36, 0x00, 0x00, 0x80, 0x36, 0x00, 0x00, 0x78, 0x36, 0x00, 0x00,
  0x70, 0x36, 0x00, 0x00, 0x68, 0x36, 0x00, 0x00, 0x60, 0x36, 0x00, 0x00,
  0xc0, 0x35, 0x00, 0x00, 0x80, 0x35, 0x00, 0x00, 0x78, 0x35, 0x00, 0x00,
  0x70, 0x35, 0x00, 0x00, 0xa0, 0x34, 0x00, 0x00, 0x50, 0x34, 0x00, 0x00,
  0x48, 0x34, 0x00, 0x00, 0x40, 0x34, 0x00, 0x00, 0x38, 0x34, 0x00, 0x00,
  0x30, 0x34, 0x00, 0x00, 0x28, 0x34, 0x00, 0x00, 0x18, 0x33, 0x00, 0x00,
  0xc8, 0x32, 0x00, 0x00, 0xc0, 0x32, 0x00, 0x00, 0xb8, 0x32, 0x00, 0x00,
  0xb0, 0x32, 0x00, 0x00, 0xa8, 0x32, 0x00, 0x00, 0xa0, 0x32, 0x00, 0x00,
  0x98, 0x32, 0x00, 0x00, 0x90, 0x32, 0x00, 0x00, 0x80, 0x31, 0x00, 0x00,
  0x30, 0x31, 0x00, 0x00, 0x28, 0x31, 0x00, 0x00, 0x20, 0x31, 0x00, 0x00,
  0x18, 0x31, 0x00, 0x00, 0x10, 0x31, 0x00, 0x00, 0x00, 0x30, 0x00, 0x00,
  0xb0, 0x2f, 0x00, 0x00, 0xa8, 0x2f, 0x00, 0x00, 0xa0, 0x2f, 0x00, 0x00,
  0x98, 0x2f, 0x00, 0x00, 0x90, 0x2f, 0x00, 0x00, 0x88, 0x2f, 0x00, 0x00,
  0x80, 0x2f, 0x00, 0x00, 0x78, 0x2f, 0x00, 0x00, 0x68, 0x2e, 0x00, 0x00,
  0x18, 0x2e, 0x00, 0x00, 0x10, 0x2e, 0x00, 0x00, 0x08, 0x2e, 0x00, 0x00,
  0x00, 0x2e, 0x00, 0x00, 0xf8, 0x2d, 0x00, 0x00, 0xe8, 0x2c, 0x00, 0x00,
  0x98, 0x2c, 0x00, 0x00, 0x90, 0x2c, 0x00, 0x00, 0x88, 0x2c, 0x00, 0x00,
  0x80, 0x2c, 0x00, 0x00, 0x78, 0x2c, 0x00, 0x00, 0x70, 0x2c, 0x00, 0x00,
  0x68, 0x2c, 0x00, 0x00, 0x60, 0x2c, 0x00, 0x00, 0x50, 0x2b, 0x00, 0x00,
  0x00, 0x2b, 0x00, 0x00, 0xf8, 0x2a, 0x00, 0x00, 0xf0, 0x2a, 0x00, 0x00,
  0xe8, 0x2a, 0x00, 0x00, 0xe0, 0x2a, 0x00, 0x00, 0xd0, 0x29, 0x00, 0x00,
  0x80, 0x29, 0x00, 0x00, 0x78, 0x29, 0x00, 0x00, 0x70, 0x29, 0x00, 0x00,
  0x68, 0x29, 0x00, 0x00, 0x60, 0x29, 0x00, 0x00, 0x58, 0x29, 0x00, 0x00,
  0x50, 0x29, 0x00, 0x00, 0x48, 0x29, 0x00, 0x00, 0x38, 0x28, 0x00, 0x00,
  0xe8, 0x27, 0x00, 0x00, 0xe0, 0x27, 0x00, 0x00, 0xd8, 0x27, 0x00, 0x00,
  0x88, 0x26, 0x00, 0x00, 0x28, 0x26, 0x00, 0x00, 0x20, 0x26, 0x00, 0x00,
  0x18, 0x26, 0x00, 0x00, 0x10, 0x26, 0x00, 0x00, 0x08, 0x26, 0x00, 0x00,
  0x00, 0x26, 0x00, 0x00, 0x60, 0x24, 0x00, 0x00, 0x00, 0x24, 0x00, 0x00,
  0xf8, 0x23, 0x00, 0x00, 0xf0, 0x23, 0x00, 0x00, 0xe8, 0x23, 0x00, 0x00,
  0xe0, 0x23, 0x00, 0x00, 0xd8, 0x23, 0x00, 0x00, 0xd0, 0x23, 0x00, 0x00,
  0xc8, 0x23, 0x00, 0x00, 0x28, 0x22, 0x00, 0x00, 0xc8, 0x21, 0x00, 0x00,
  0xc0, 0x21, 0x00, 0x00, 0xb8, 0x21, 0x00, 0x00, 0xb0, 0x21, 0x00, 0x00,
  0xa8, 0x21, 0x00, 0x00, 0x08, 0x20, 0x00, 0x00, 0xa8, 0x1f, 0x00, 0x00,
  0xa0, 0x1f, 0x00, 0x00, 0x98, 0x1f, 0x00, 0x00, 0x90, 0x1f, 0x00, 0x00,
  0x88, 0x1f, 0x00, 0x00, 0x80, 0x1f, 0x00, 0x00, 0x78, 0x1f, 0x00, 0x00,
  0x70, 0x1f, 0x00, 0x00, 0xd0, 0x1d, 0x00, 0x00, 0x70, 0x1d, 0x00, 0x00,
  0x68, 0x1d, 0x00, 0x00, 0x60, 0x1d, 0x00, 0x00, 0x58, 0x1d, 0x00, 0x00,
  0x50, 0x1d, 0x00, 0x00, 0xb0, 0x1b, 0x00, 0x00, 0x50, 0x1b, 0x00, 0x00,
  0x48, 0x1b, 0x00, 0x00, 0x40, 0x1b, 0x00, 0x00, 0x38, 0x1b, 0x00, 0x00,
  0x30, 0x1b, 0x00, 0x00, 0x28, 0x1b, 0x00, 0x00, 0x20, 0x1b, 0x00, 0x00,
  0x18, 0x1b, 0x00, 0x00, 0x78, 0x19, 0x00, 0x00, 0x18, 0x19, 0x00, 0x00,
  0x10, 0x19, 0x00, 0x00, 0x08, 0x19, 0x00, 0x00, 0x00, 0x19, 0x00, 0x00,
  0xf8, 0x18, 0x00, 0x00, 0x58, 0x17, 0x00, 0x00, 0xf8, 0x16, 0x00, 0x00,
  0xf0, 0x16, 0x00, 0x00, 0xe8, 0x16, 0x00, 0x00, 0xe0, 0x16, 0x00, 0x00,
  0xd8, 0x16, 0x00, 0x00, 0xd0, 0x16, 0x00, 0x00, 0xc8, 0x16, 0x00, 0x00,
  0xc0, 0x16, 0x00, 0x00, 0x20, 0x15, 0x00, 0x00, 0xc0, 0x14, 0x00, 0x00,
  0xb8, 0x14, 0x00, 0x00, 0xb0, 0x14, 0x00, 0x00, 0x20, 0x08, 0x00, 0x00,
  0x90, 0x07, 0x00, 0x00, 0x88, 0x07, 0x00, 0x00, 0x78, 0x03, 0x00, 0x00,
  0xe8, 0x02, 0x00, 0x00, 0xe0, 0x02, 0x00, 0x00, 0xd8, 0x02, 0x00, 0x00,
  0x08, 0x01, 0x00, 0x00, 0xc0, 0x00, 0x00, 0x00, 0xb8, 0x00, 0x00, 0x00,
  0xb0, 0x00, 0x00, 0x00, 0x90, 0x00, 0x00, 0x00, 0x70, 0x00, 0x00, 0x00,
  0x04, 0x00, 0x00, 0x00, 0xc6, 0xb9, 0xff, 0xff, 0x04, 0x00, 0x00, 0x00,
  0x5c, 0x00, 0x00, 0x00, 0x0c, 0x00, 0x00, 0x00, 0x08, 0x00, 0x0e, 0x00,
  0x08, 0x00, 0x04, 0x00, 0x08, 0x00, 0x00, 0x00, 0x10, 0x00, 0x00, 0x00,
  0x2c, 0x00, 0x00, 0x00, 0x00, 0x00, 0x06, 0x00, 0x08, 0x00, 0x04, 0x00,
  0x06, 0x00, 0x00, 0x00, 0x04, 0x00, 0x00, 0x00, 0x02, 0x00, 0x00, 0x00,
  0xeb, 0x03, 0x00, 0x00, 0xd0, 0x07, 0x00, 0x00, 0x00, 0x00, 0x0a, 0x00,
  0x10, 0x00, 0x0c, 0x00, 0x08, 0x00, 0x04, 0x00, 0x0a, 0x00, 0x00, 0x00,
  0x02, 0x00, 0x00, 0x00, 0x02, 0x00, 0x00, 0x00, 0x04, 0x00, 0x00, 0x00,
  0x06, 0x00, 0x00, 0x00, 0x32, 0x2e, 0x31, 0x36, 0x2e, 0x32, 0x00, 0x00,
  0x2e, 0xba, 0xff, 0xff, 0x04, 0x00, 0x00, 0x00, 0x10, 0x00, 0x00, 0x00,
  0x00, 0x00, 0x00, 0x00, 0x00, 0x00, 0x00, 0x00, 0x00, 0x00, 0x00, 0x00,
  0x00, 0x00, 0x00, 0x00, 0x4a, 0xba, 0xff, 0xff, 0x04, 0x00, 0x00, 0x00,
  0x10, 0x00, 0x00, 0x00, 0x31, 0x2e, 0x31, 0x34, 0x2e, 0x30, 0x00, 0x00,
  0x00, 0x00, 0x00, 0x00, 0x00, 0x00, 0x00, 0x00, 0xf0, 0xaa, 0xfe, 0xff,
  0xf4, 0xaa, 0xfe, 0xff, 0x6e, 0xba, 0xff, 0xff, 0x04, 0x00, 0x00, 0x00,
  0x38, 0x00, 0x00, 0x00, 0x98, 0xf9, 0xff, 0xff, 0x9f, 0x02, 0x00, 0x00,
  0x17, 0xfe, 0xff, 0xff, 0x30, 0xff, 0xff, 0xff, 0x0d, 0x00, 0x00, 0x00,
  0x87, 0x02, 0x00, 0x00, 0x8b, 0xfe, 0xff, 0xff, 0x8d, 0xfe, 0xff, 0xff,
  0x6d, 0x02, 0x00, 0x00, 0xc0, 0x06, 0x00, 0x00, 0xdb, 0xfd, 0xff, 0xff,
  0x1b, 0x02, 0x00, 0x00, 0xfe, 0xf9, 0xff, 0xff, 0x0b, 0xfe, 0xff, 0xff,
  0xb2, 0xba, 0xff, 0xff, 0x04, 0x00, 0x00, 0x00, 0xc0, 0x01, 0x00, 0x00,
  0x55, 0x3a, 0xbe, 0xe1, 0x3e, 0xb3, 0xe5, 0x1c, 0x0a, 0x33, 0xca, 0xe7,
  0xf0, 0xd9, 0x09, 0x0d, 0x1f, 0x07, 0xd4, 0x05, 0xe0, 0xc0, 0x52, 0x04,
  0xd7, 0x0b, 0x07, 0x34, 0xa8, 0x08, 0x9f, 0x0d, 0x42, 0xd8, 0x17, 0xf6,
  0x38, 0x05, 0x2e, 0x32, 0xbd, 0x45, 0xbf, 0xd1, 0x03, 0xe4, 0xcc, 0xed,
  0x3f, 0x44, 0xef, 0x0a, 0xbf, 0xec, 0xe6, 0xa8, 0x1e, 0xb9, 0x1f, 0xcb,
  0xde, 0x42, 0xb2, 0xdc, 0xfd, 0xb8, 0x0e, 0xd3, 0xbe, 0x2f, 0x15, 0x00,
  0xc3, 0x66, 0xce, 0x46, 0x47, 0xb9, 0x07, 0xfe, 0xdc, 0xdc, 0xd1, 0xf9,
  0x4a, 0xe7, 0xc4, 0xf5, 0xf3, 0xa4, 0x28, 0x1a, 0x4f, 0x09, 0xd5, 0xf7,
  0xba, 0x3b, 0xe4, 0xb4, 0x18, 0x35, 0x21, 0xc1, 0x0c, 0x37, 0xf6, 0x0c,
  0x2a, 0x42, 0xfa, 0xca, 0x1f, 0xe1, 0x07, 0x07, 0x3d, 0xd0, 0xce, 0x27,
  0x10, 0xb6, 0x0b, 0xff, 0xd6, 0xc8, 0xed, 0x15, 0x4c, 0xd1, 0x23, 0xd8,
  0xb4, 0xfa, 0xef, 0x14, 0xd5, 0xc3, 0xd6, 0xe7, 0xbc, 0x19, 0x44, 0x09,
  0xcf, 0x36, 0xe1, 0xd3, 0x2a, 0x17, 0x05, 0x22, 0x4c, 0x36, 0xda, 0xcf,
  0xc1, 0x1b, 0xd3, 0x12, 0x37, 0x4d, 0xc6, 0xff, 0xf6, 0xd1, 0xb7, 0x29,
  0xd1, 0xfc, 0x4c, 0xfc, 0xc7, 0x1e, 0x0e, 0xc4, 0x0f, 0xac, 0xeb, 0x18,
  0x21, 0xb7, 0xe7, 0x11, 0xfb, 0x0f, 0x37, 0x46, 0xd6, 0xd2, 0x0e, 0xf0,
  0xad, 0x07, 0xc6, 0x26, 0x51, 0x32, 0xcb, 0x13, 0x19, 0xb4, 0x1e, 0xf4,
  0x19, 0xe6, 0xf4, 0xc4, 0xc8, 0x29, 0xd0, 0x04, 0x9e, 0x3e, 0xe8, 0x46,
  0xff, 0xba, 0xd9, 0x2f, 0xdf, 0x2f, 0x0d, 0xd2, 0xcf, 0xe2, 0x26, 0xdf,
  0xb4, 0x1c, 0x10, 0xf1, 0xce, 0x12, 0xda, 0xf2, 0x1b, 0x16, 0x38, 0xd6,
  0xdd, 0xe6, 0xf8, 0xc4, 0xe9, 0xde, 0x56, 0xc8, 0x26, 0x29, 0x5a, 0xff,
  0x00, 0x0e, 0xe9, 0x57, 0x12, 0xef, 0x08, 0xdf, 0xe5, 0x2a, 0x53, 0xdb,
  0xc3, 0xaa, 0xf4, 0xfd, 0x27, 0xc4, 0xc4, 0xf1, 0x20, 0xca, 0xd2, 0xc9,
  0x0b, 0x1c, 0xf9, 0x2f, 0xee, 0x10, 0xea, 0x14, 0x32, 0x12, 0xd3, 0xf6,
  0x04, 0x28, 0xf0, 0x1f, 0xd6, 0x46, 0xfd, 0xde, 0xe1, 0xdb, 0xb6, 0x31,
  0x19, 0xbb, 0x16, 0x37, 0xb9, 0xd4, 0x3a, 0x3a, 0xcc, 0xb4, 0xd1, 0xb5,
  0x37, 0xf2, 0x24, 0xcf, 0xc4, 0x37, 0x0b, 0xe2, 0x3f, 0xc6, 0x41, 0x22,
  0xb8, 0xae, 0xee, 0x24, 0xe6, 0x0a, 0x22, 0x28, 0x0d, 0xd0, 0xd8, 0x42,
  0x47, 0xa6, 0x4c, 0x06, 0x1b, 0x28, 0xf5, 0x00, 0xfb, 0xf5, 0xbd, 0x07,
  0xe4, 0xb8, 0xd8, 0xc5, 0xd7, 0x04, 0x01, 0xbc, 0x48, 0xd8, 0x43, 0x0d,
  0xc7, 0x00, 0xdf, 0xfc, 0x0b, 0x2c, 0xed, 0x1d, 0x2b, 0x08, 0x09, 0x05,
  0xe3, 0xea, 0xc8, 0xcf, 0x1a, 0x25, 0x0b, 0xe7, 0xe3, 0xc9, 0x39, 0xf5,
  0xb4, 0x19, 0x5a, 0x03, 0x18, 0xd6, 0xce, 0x54, 0x2b, 0xad, 0xe2, 0xdc,
  0xa9, 0x13, 0xf3, 0xf7, 0xe3, 0x08, 0x06, 0x21, 0xd1, 0x46, 0x34, 0x11,
  0xa6, 0x1b, 0xc8, 0x81, 0x0f, 0xc3, 0xfc, 0x44, 0x17, 0xb7, 0xc2, 0x3d,
  0xde, 0xf0, 0xc4, 0x95, 0x37, 0x0b, 0xfd, 0xb8, 0x19, 0x2e, 0xe3, 0xf7,
  0x06, 0x2e, 0xc5, 0x27, 0x20, 0x02, 0x08, 0xb3, 0xca, 0x41, 0xf3, 0x21,
  0x37, 0xf9, 0x45, 0xe7, 0x08, 0xad, 0xfe, 0xff, 0x0c, 0xad, 0xfe, 0xff,
  0x86, 0xbc, 0xff, 0xff, 0x04, 0x00, 0x00, 0x00, 0x80, 0x00, 0x00, 0x00,
  0x5a, 0xf4, 0xff, 0xff, 0xe8, 0x01, 0x00, 0x00, 0x18, 0xe8, 0xff, 0xff,
  0x53, 0xf4, 0xff, 0xff, 0x17, 0xff, 0xff, 0xff, 0x58, 0x0b, 0x00, 0x00,
  0x74, 0x00, 0x00, 0x00, 0x48, 0xf5, 0xff, 0xff, 0x1b, 0xf5, 0xff, 0xff,
  0xb2, 0xe6, 0xff, 0xff, 0xd3, 0xfa, 0xff, 0xff, 0xe1, 0x12, 0x00, 0x00,
  0xf0, 0xf5, 0xff, 0xff, 0x4a, 0xf4, 0xff, 0xff, 0xe7, 0x01, 0x00, 0x00,
  0xfd, 0x0c, 0x00, 0x00, 0x4c, 0xff, 0xff, 0xff, 0xf4, 0xef, 0xff, 0xff,
  0x0a, 0x19, 0x00, 0x00, 0x41, 0x15, 0x00, 0x00, 0x3f, 0xf8, 0xff, 0xff,
  0x74, 0xf7, 0xff, 0xff, 0x2d, 0xf9, 0xff, 0xff, 0x22, 0xec, 0xff, 0xff,
  0x43, 0x11, 0x00, 0x00, 0xeb, 0x13, 0x00, 0x00, 0x90, 0xf8, 0xff, 0xff,
  0x39, 0x03, 0x00, 0x00, 0xdc, 0xf0, 0xff, 0xff, 0xbb, 0x0a, 0x00, 0x00,
  0x35, 0x03, 0x00, 0x00, 0xa9, 0xdf, 0xff, 0xff, 0x12, 0xbd, 0xff, 0xff,
  0x04, 0x00, 0x00, 0x00, 0x00, 0x04, 0x00, 0x00, 0xe1, 0xd4, 0x0e, 0x7f,
  0x4f, 0x38, 0x15, 0x08, 0xb6, 0x66, 0xbf, 0x22, 0x49, 0x94, 0xc2, 0xb6,
  0x9e, 0x39, 0x22, 0xde, 0x05, 0x25, 0xd4, 0x0f, 0xb1, 0x75, 0x9a, 0xe9,
  0x7b, 0x7e, 0x23, 0x34, 0x32, 0xd8, 0x9c, 0x17, 0x3a, 0xb4, 0x31, 0xe5,
  0xb8, 0xd1, 0x2c, 0x08, 0xbf, 0x1c, 0x96, 0xcd, 0x6c, 0x26, 0xbf, 0x34,
  0x37, 0xc4, 0x5f, 0xc1, 0x3c, 0x52, 0x9d, 0x07, 0xc7, 0xc9, 0x52, 0x7f,
  0xef, 0x45, 0xd1, 0x49, 0x12, 0x2e, 0x0c, 0xdc, 0x02, 0xfe, 0xdb, 0x2a,
  0x5f, 0x01, 0x7f, 0x01, 0xd1, 0x2f, 0x2f, 0x0f, 0xa3, 0x76, 0x57, 0xe8,
  0x0d, 0xd3, 0xf3, 0x58, 0x0a, 0xdc, 0x1c, 0xec, 0x0b, 0xe2, 0xeb, 0xf9,
  0x5d, 0xee, 0x7a, 0x39, 0x37, 0x1f, 0x81, 0xb5, 0xe1, 0x26, 0x17, 0xf1,
  0x37, 0xd3, 0x3e, 0xcb, 0x26, 0x2c, 0x08, 0x03, 0xe7, 0x09, 0x59, 0x0b,
  0xf7, 0x4b, 0x18, 0x17, 0xca, 0xbb, 0xee, 0xa7, 0x25, 0x22, 0xb3, 0xd3,
  0xe1, 0x1e, 0x05, 0xe5, 0xed, 0xda, 0x0f, 0xf2, 0x6e, 0x43, 0x2c, 0x1f,
  0x04, 0x21, 0x3d, 0xe1, 0x7f, 0x0f, 0xc2, 0xe1, 0xbb, 0xc2, 0xcc, 0x4c,
  0xd8, 0xcb, 0xb6, 0xec, 0x11, 0xcc, 0x0f, 0x20, 0x7f, 0x00, 0x69, 0x77,
  0x9d, 0xf6, 0x5f, 0x02, 0x2f, 0x9c, 0xb3, 0xba, 0x19, 0x18, 0xa6, 0x22,
  0x07, 0x07, 0x2b, 0xf9, 0x12, 0xd6, 0xdf, 0xfe, 0xc4, 0xe0, 0xcf, 0x18,
  0xd5, 0x5a, 0xe6, 0x20, 0xfe, 0xed, 0x36, 0x26, 0x20, 0x25, 0xed, 0x26,
  0xf1, 0x10, 0x17, 0x06, 0xf0, 0x36, 0xe8, 0xfb, 0xe4, 0xca, 0xde, 0x27,
  0xdd, 0xc4, 0x81, 0x5b, 0x2d, 0xf7, 0xec, 0x03, 0x5d, 0xcc, 0x96, 0xdf,
  0xcf, 0x30, 0xf4, 0xba, 0x5d, 0xd2, 0xbe, 0xac, 0xeb, 0x1f, 0x50, 0x08,
  0xc0, 0x32, 0x7f, 0x03, 0x2e, 0x29, 0xe2, 0x5a, 0xfe, 0x14, 0x30, 0x14,
  0xdf, 0x08, 0xe9, 0x98, 0x2d, 0x2d, 0x7f, 0x13, 0x95, 0x48, 0xf3, 0x08,
  0xc8, 0x51, 0xd7, 0x02, 0x6d, 0xf7, 0xd3, 0xe5, 0x7a, 0x02, 0x25, 0xd0,
  0x44, 0xe5, 0x2c, 0xb9, 0xa3, 0xfa, 0x1d, 0x0b, 0xdc, 0x19, 0xe3, 0x27,
  0x02, 0x08, 0x09, 0xe1, 0xe5, 0xea, 0x40, 0x44, 0x09, 0xc0, 0xd2, 0x39,
  0x7f, 0x32, 0x68, 0x3e, 0xfa, 0x0b, 0xac, 0xff, 0xf8, 0x17, 0x24, 0xe8,
  0x45, 0xf5, 0x21, 0xe5, 0xf2, 0xd9, 0xe5, 0x12, 0x7f, 0x10, 0x40, 0xe3,
  0x28, 0x9e, 0x07, 0xef, 0x3b, 0x5f, 0xe6, 0xb7, 0x39, 0xf3, 0xc9, 0xec,
  0xf8, 0xb0, 0x5d, 0xe0, 0x22, 0xd2, 0xca, 0x23, 0x38, 0xf7, 0xf5, 0x20,
  0x52, 0x1d, 0xba, 0x22, 0xec, 0xd2, 0x30, 0xc2, 0xcf, 0x2f, 0x7f, 0xd2,
  0x23, 0x25, 0x4f, 0x15, 0xf1, 0xc5, 0x09, 0x18, 0xbb, 0xd9, 0x2d, 0xc5,
  0x37, 0xbf, 0xf7, 0xde, 0xf0, 0xb4, 0xda, 0xbb, 0xf7, 0xfa, 0xe0, 0xfa,
  0x12, 0xf0, 0x2c, 0x13, 0x3e, 0x25, 0x3c, 0xfa, 0xde, 0xf9, 0x3e, 0x36,
  0x7f, 0xe8, 0x0c, 0x23, 0xf1, 0x06, 0xd4, 0x12, 0x0e, 0xdf, 0x04, 0xf8,
  0x21, 0xba, 0x06, 0xb9, 0xa1, 0xf7, 0x26, 0x48, 0xbc, 0x33, 0x06, 0x6c,
  0x02, 0x81, 0x34, 0x22, 0xf7, 0x24, 0xe4, 0x43, 0x3f, 0x1b, 0xd5, 0x08,
  0x50, 0xc1, 0x26, 0x87, 0x24, 0xd8, 0x18, 0xe6, 0x17, 0xb0, 0xe8, 0x5d,
  0xfb, 0x12, 0x3d, 0x7f, 0xb9, 0xaf, 0x9f, 0x44, 0xcf, 0xff, 0xc6, 0xea,
  0xdb, 0xff, 0xd1, 0xf8, 0x4a, 0x53, 0xfa, 0xd9, 0xfd, 0x08, 0x14, 0x2b,
  0xf8, 0x13, 0xdd, 0xf6, 0x20, 0xe2, 0x2d, 0xe6, 0x14, 0x1a, 0x91, 0x04,
  0x03, 0xd9, 0x47, 0x30, 0xdc, 0xd9, 0xf6, 0xed, 0xfc, 0xd8, 0x07, 0x14,
  0xd9, 0x54, 0x33, 0x51, 0xbd, 0x76, 0xbf, 0x5c, 0xb2, 0x3e, 0xd9, 0x29,
  0xfc, 0x29, 0xae, 0x81, 0xfc, 0x28, 0xe0, 0x15, 0x56, 0x73, 0x20, 0xd5,
  0xdb, 0xd7, 0xc8, 0xfb, 0x00, 0xd0, 0xfd, 0x15, 0xf7, 0x38, 0x29, 0x43,
  0x2e, 0xfe, 0x9c, 0xb6, 0x81, 0x1c, 0xfb, 0x36, 0xe9, 0xfe, 0xbd, 0x40,
  0x99, 0xf4, 0x69, 0xd3, 0xc6, 0x10, 0xd1, 0xf8, 0x46, 0x16, 0xf6, 0xc9,
  0xe9, 0x83, 0xef, 0x54, 0xfd, 0x6e, 0x47, 0x81, 0x4f, 0x60, 0x1a, 0x63,
  0x09, 0x14, 0x5d, 0xad, 0x10, 0x40, 0xa6, 0x54, 0x2f, 0x47, 0xad, 0x25,
  0x41, 0xbf, 0x34, 0xf1, 0xb8, 0xdc, 0x81, 0x27, 0xd9, 0x1a, 0x52, 0x2b,
  0x1a, 0x36, 0x40, 0xfc, 0xdc, 0x07, 0xfa, 0xaa, 0xce, 0xc6, 0xc4, 0x39,
  0xa5, 0xa1, 0xd0, 0xdc, 0x67, 0xe2, 0x99, 0xdb, 0x11, 0xd7, 0x78, 0xe0,
  0xe4, 0x1e, 0xb4, 0x26, 0xb7, 0x02, 0xdb, 0xff, 0x3b, 0xa1, 0xbc, 0x81,
  0x36, 0x7e, 0x17, 0x5c, 0xf3, 0x5a, 0xcd, 0xf7, 0xb0, 0x4a, 0xba, 0xa8,
  0x26, 0x4d, 0xc9, 0x7f, 0xd0, 0xd6, 0x05, 0xfe, 0xef, 0xc8, 0x27, 0xf0,
  0x0d, 0xa5, 0xbf, 0x0c, 0x2e, 0x0c, 0x2a, 0x53, 0x42, 0xd0, 0xe1, 0x1d,
  0xef, 0xd9, 0xe3, 0x2b, 0x46, 0x03, 0xdd, 0x09, 0xaa, 0x3b, 0x25, 0xd2,
  0x41, 0x7f, 0x17, 0xc1, 0xf8, 0x55, 0xc1, 0x0e, 0x15, 0x34, 0x08, 0xe4,
  0xd6, 0xea, 0xf5, 0xb7, 0x25, 0x4f, 0x38, 0x5b, 0x1c, 0xbb, 0x1e, 0x47,
  0x99, 0x9f, 0x02, 0xe7, 0xe5, 0x16, 0x31, 0x0c, 0xf6, 0x27, 0xec, 0xf8,
  0xe8, 0x28, 0xf1, 0xf5, 0xeb, 0x44, 0x26, 0xee, 0x23, 0x2a, 0xf1, 0xfe,
  0x05, 0x14, 0xea, 0xbf, 0xf7, 0xd8, 0x3c, 0xc9, 0xf1, 0x1b, 0x7f, 0xde,
  0xf3, 0xbd, 0xbd, 0x1f, 0x44, 0xd3, 0x40, 0xdd, 0x3b, 0x75, 0x3e, 0x48,
  0x6d, 0x57, 0xf0, 0x9d, 0x2f, 0xae, 0xc3, 0xca, 0x5f, 0xd0, 0xee, 0x43,
  0x7f, 0x10, 0x29, 0xc3, 0x02, 0x8c, 0x17, 0x72, 0x2a, 0xe5, 0x7f, 0x33,
  0x92, 0xbf, 0xe7, 0x14, 0xf8, 0xe1, 0xa2, 0xcf, 0x67, 0xc9, 0xb0, 0x41,
  0xd1, 0x6c, 0xc9, 0xe0, 0xdc, 0xb3, 0xfb, 0x61, 0x2e, 0xf9, 0x26, 0x05,
  0xdc, 0xe4, 0xaf, 0x1b, 0xc2, 0xb9, 0xd6, 0x7e, 0xc1, 0x53, 0x26, 0x7f,
  0x06, 0xd7, 0x92, 0xa3, 0x2c, 0x7b, 0x58, 0xf7, 0xa2, 0x12, 0xbc, 0x45,
  0xbb, 0x0b, 0xed, 0xfd, 0x09, 0x0b, 0x0e, 0xb9, 0xf8, 0xef, 0x4d, 0x25,
  0xc4, 0xdd, 0xf1, 0x5d, 0x29, 0xb9, 0xc1, 0x30, 0xe9, 0xe1, 0x4a, 0x13,
  0xe7, 0xe7, 0x42, 0x10, 0x51, 0xec, 0x1e, 0x18, 0xc3, 0xf0, 0xf0, 0xbc,
  0x04, 0xd6, 0x26, 0xf2, 0x56, 0x3d, 0x7f, 0x11, 0xe8, 0x0e, 0xd3, 0xfd,
  0x7f, 0xdd, 0xfd, 0xdd, 0x22, 0x14, 0x19, 0xd0, 0x0e, 0xf3, 0x93, 0xbe,
  0x36, 0x0b, 0x22, 0x34, 0x13, 0x97, 0xec, 0xeb, 0xf8, 0x1a, 0x05, 0xcb,
  0x0c, 0xdc, 0x75, 0x19, 0x95, 0xf4, 0xd1, 0x26, 0xe6, 0x22, 0x3e, 0x5b,
  0xe5, 0x31, 0x43, 0x42, 0x09, 0x08, 0x26, 0x4c, 0x0f, 0xab, 0x09, 0x4c,
  0x8d, 0x5a, 0x09, 0x39, 0xea, 0x93, 0x79, 0x11, 0x60, 0x3d, 0x3e, 0x81,
  0xa5, 0x81, 0x27, 0xfe, 0x1e, 0xed, 0x19, 0x01, 0x49, 0x1b, 0xde, 0xf3,
  0xc6, 0x12, 0xee, 0x2d, 0xd3, 0x0a, 0x28, 0xa8, 0xe6, 0x23, 0xfc, 0x22,
  0xda, 0x5c, 0x46, 0xa4, 0xe8, 0x3c, 0x51, 0x06, 0x81, 0x39, 0xdd, 0x26,
  0x42, 0x45, 0x3c, 0x7b, 0x64, 0xd0, 0xc1, 0x18, 0xd5, 0x59, 0xd4, 0x6c,
  0xfd, 0xb6, 0xcf, 0xca, 0xd8, 0xdc, 0x76, 0x3b, 0x76, 0xe1, 0xe4, 0xa8,
  0xd9, 0xeb, 0x13, 0xd5, 0xc8, 0xee, 0x03, 0x38, 0xcc, 0x00, 0x10, 0x0e,
  0x24, 0xe7, 0x4e, 0x66, 0x26, 0x3c, 0x71, 0x18, 0x02, 0x5e, 0xec, 0xea,
  0x00, 0xf7, 0x25, 0xf6, 0xfb, 0xe2, 0x23, 0x10, 0x0a, 0xfc, 0x7f, 0xef,
  0xa8, 0xb1, 0xfe, 0xff, 0x22, 0xc1, 0xff, 0xff, 0x04, 0x00, 0x00, 0x00,
  0x80, 0x00, 0x00, 0x00, 0x3f, 0x1a, 0x00, 0x00, 0xc9, 0xe6, 0xff, 0xff,
  0x5c, 0x85, 0x00, 0x00, 0xb9, 0x02, 0x00, 0x00, 0x8a, 0xf1, 0xff, 0xff,
  0x1c, 0xc6, 0xff, 0xff, 0x9a, 0xc4, 0xff, 0xff, 0x21, 0xa2, 0xff, 0xff,
  0xd9, 0xe0, 0xff, 0xff, 0xe1, 0x03, 0x00, 0x00, 0x3b, 0x2d, 0x00, 0x00,
  0xa6, 0x3b, 0x00, 0x00, 0xce, 0xfd, 0xff, 0xff, 0x41, 0xe6, 0xff, 0xff,
  0xb8, 0x39, 0x00, 0x00, 0xea, 0xcc, 0xff, 0xff, 0xb5, 0x15, 0x00, 0x00,
  0x1e, 0x38, 0x00, 0x00, 0x25, 0x0d, 0x00, 0x00, 0x2f, 0x9a, 0xff, 0xff,
  0x16, 0x95, 0xff, 0xff, 0xe0, 0xa7, 0xff, 0xff, 0xa7, 0x3c, 0x00, 0x00,
  0xf7, 0x24, 0x00, 0x00, 0xb3, 0xbb, 0xff, 0xff, 0x43, 0x3e, 0x00, 0x00,
  0x62, 0xd4, 0xff, 0xff, 0xd6, 0x23, 0x00, 0x00, 0x20, 0x88, 0xff, 0xff,
  0xb0, 0xdd, 0xff, 0xff, 0x3d, 0xed, 0xff, 0xff, 0xc8, 0xc2, 0xff, 0xff,
  0xae, 0xc1, 0xff, 0xff, 0x04, 0x00, 0x00, 0x00, 0x80, 0x0c, 0x00, 0x00,
  0x06, 0x20, 0xb4, 0x00, 0x59, 0xb6, 0x3b, 0x12, 0x13, 0x18, 0x51, 0x0b,
  0x32, 0x28, 0xbf, 0xbb, 0x07, 0xa8, 0x9a, 0xd9, 0xff, 0x11, 0x09, 0x15,
  0xde, 0xf4, 0x05, 0x19, 0x28, 0xf0, 0x14, 0xe3, 0xe2, 0x11, 0x1b, 0xdb,
  0xe2, 0x20, 0xa1, 0x3c, 0xfb, 0xea, 0xda, 0xf6, 0xfb, 0xdc, 0x04, 0x11,
  0x0f, 0xd8, 0xe3, 0x00, 0x1c, 0x06, 0x33, 0xba, 0x37, 0x57, 0xe1, 0x13,
  0xdb, 0xf7, 0xbb, 0xc3, 0xfe, 0x03, 0x29, 0xe0, 0x49, 0x0c, 0xe3, 0xff,
  0x3a, 0xe5, 0x49, 0xd7, 0x07, 0x27, 0xe6, 0x2f, 0xbf, 0xfb, 0xaa, 0x28,
  0x6c, 0x2f, 0xcc, 0x94, 0xd7, 0x18, 0x0e, 0x81, 0x38, 0xd8, 0x42, 0x02,
  0x3a, 0xb2, 0x15, 0xeb, 0xe4, 0x24, 0xca, 0xff, 0x0b, 0xed, 0xd5, 0xd2,
  0xde, 0x9d, 0x81, 0x38, 0x1c, 0x0a, 0xed, 0xd6, 0xea, 0x14, 0x06, 0x11,
  0x06, 0xee, 0xfd, 0xff, 0x14, 0x2c, 0xda, 0xfb, 0x01, 0xd0, 0xc7, 0xe9,
  0xf4, 0xf8, 0x02, 0x05, 0xf7, 0xf9, 0x0b, 0x0c, 0xeb, 0x32, 0xee, 0xef,
  0xfc, 0x19, 0xfc, 0x0d, 0x0e, 0xfe, 0xe3, 0xe6, 0x21, 0xea, 0x11, 0x16,
  0xf9, 0x11, 0xff, 0xfc, 0x08, 0x1f, 0x2f, 0xfe, 0x21, 0x1b, 0x15, 0x05,
  0x30, 0x1d, 0xff, 0x12, 0x14, 0xe6, 0xf5, 0x0f, 0xe8, 0x0d, 0x14, 0x03,
  0x38, 0x4a, 0x54, 0xe5, 0xfa, 0x34, 0x0d, 0xee, 0x29, 0x0a, 0x00, 0x09,
  0x1f, 0x23, 0x1e, 0x38, 0x08, 0x16, 0xf1, 0x0d, 0x1d, 0xfe, 0x17, 0xb8,
  0xdf, 0xd9, 0x8f, 0xb0, 0xd4, 0xce, 0x81, 0xe9, 0xf6, 0xc3, 0xc2, 0xdb,
  0x1a, 0x1f, 0x55, 0xc9, 0x23, 0xf4, 0x05, 0x1d, 0x41, 0xc0, 0x05, 0xa7,
  0x97, 0xa0, 0xf9, 0x12, 0x2e, 0x03, 0xbb, 0xa2, 0xd6, 0xb0, 0x14, 0xf3,
  0xf1, 0xc7, 0xd8, 0x03, 0x36, 0xed, 0x28, 0xfc, 0xca, 0x09, 0x0e, 0x53,
  0x50, 0x15, 0xb8, 0xa0, 0xa1, 0xdf, 0x1a, 0x23, 0xe0, 0xa5, 0x3c, 0x13,
  0x03, 0x00, 0x43, 0x13, 0xda, 0xf8, 0xea, 0xe4, 0xee, 0x1f, 0xa5, 0x12,
  0xb6, 0x18, 0xdb, 0x33, 0x0a, 0xff, 0xf8, 0x53, 0xec, 0xd6, 0x6a, 0x08,
  0xda, 0x1a, 0xeb, 0xad, 0xf7, 0x1c, 0xd3, 0xe5, 0x92, 0x03, 0x9e, 0x51,
  0xde, 0xeb, 0x0c, 0xee, 0xc5, 0x30, 0x06, 0xb0, 0x10, 0x16, 0x30, 0x90,
  0xdb, 0xf3, 0x25, 0x34, 0x17, 0xde, 0x52, 0xd7, 0xc6, 0xd7, 0x06, 0x29,
  0xdf, 0xed, 0xf1, 0xed, 0x1b, 0xe9, 0x2a, 0x0e, 0xfe, 0xfd, 0x13, 0x38,
  0xf5, 0xf7, 0x02, 0xee, 0xe6, 0xbf, 0x15, 0x1d, 0xe6, 0xda, 0xf4, 0x00,
  0x18, 0xe9, 0xe6, 0x35, 0xd2, 0x0a, 0x0e, 0x0b, 0xc4, 0xf7, 0x27, 0x05,
  0xdf, 0xd5, 0xe3, 0x0b, 0x4b, 0xdd, 0x0c, 0x34, 0xed, 0xf6, 0xea, 0x5d,
  0xea, 0xff, 0x06, 0xf3, 0xd6, 0x16, 0xeb, 0x1e, 0xcd, 0x81, 0xca, 0x2e,
  0x34, 0xbd, 0x0a, 0x4c, 0xd5, 0xd9, 0xf4, 0x72, 0xd1, 0xdd, 0xc8, 0x9e,
  0xe6, 0x21, 0xc4, 0x2c, 0xf2, 0x3d, 0xce, 0x9f, 0x15, 0xe7, 0xba, 0xa8,
  0xc7, 0xbb, 0xa6, 0xf4, 0x0c, 0xf2, 0x24, 0x12, 0x13, 0xd6, 0x48, 0xcb,
  0xe5, 0x34, 0xd5, 0xe4, 0x1a, 0x20, 0xf7, 0xaf, 0xee, 0xdc, 0xec, 0x04,
  0xfc, 0x47, 0x16, 0x37, 0xdf, 0xdf, 0x05, 0xdd, 0x07, 0x09, 0xe1, 0x0f,
  0x1c, 0x1b, 0x0f, 0x2c, 0x07, 0x25, 0x0f, 0x0f, 0xec, 0x61, 0xef, 0x18,
  0x0a, 0x21, 0xbe, 0x21, 0xc9, 0xf8, 0x05, 0x00, 0xcf, 0xe3, 0x07, 0x54,
  0x27, 0x2f, 0x09, 0x55, 0xbd, 0xdd, 0x05, 0xf9, 0xe9, 0x14, 0xad, 0xde,
  0x29, 0x0d, 0x1d, 0xef, 0x86, 0xe2, 0x41, 0x74, 0x27, 0x44, 0x36, 0x33,
  0x81, 0x9b, 0xf4, 0x24, 0x09, 0x17, 0xb1, 0x3f, 0x5c, 0xff, 0x29, 0x46,
  0xef, 0x1c, 0x7f, 0x6c, 0x2e, 0xfe, 0x01, 0x35, 0xde, 0x19, 0x51, 0x1a,
  0xf9, 0x17, 0xff, 0x5a, 0x21, 0x16, 0x49, 0xfa, 0xa8, 0x06, 0x04, 0x29,
  0xf8, 0x4a, 0x18, 0x0f, 0xcb, 0xdb, 0x35, 0xf7, 0xf2, 0x00, 0x18, 0x19,
  0x0e, 0xfc, 0x3e, 0x26, 0x00, 0xf7, 0x07, 0xe6, 0x02, 0x16, 0xf1, 0xba,
  0xe9, 0xfd, 0xcf, 0xf2, 0x09, 0x14, 0x11, 0x0e, 0xc8, 0x28, 0x0c, 0x30,
  0x2f, 0xfd, 0xdc, 0x02, 0x10, 0xd4, 0x20, 0xf3, 0x07, 0xfe, 0xb2, 0xed,
  0xcd, 0x02, 0xde, 0xec, 0xee, 0xe2, 0xaf, 0x46, 0x64, 0x07, 0x30, 0xed,
  0xd1, 0xa1, 0x32, 0xea, 0x70, 0xc5, 0x9b, 0xd7, 0xe1, 0xb0, 0xcf, 0xe2,
  0xed, 0x03, 0xd8, 0xcf, 0x91, 0xd9, 0x10, 0x11, 0xc0, 0x0e, 0x19, 0x50,
  0xbf, 0xf2, 0x05, 0x00, 0xd0, 0x0c, 0x00, 0x0a, 0xf6, 0x37, 0xd2, 0x13,
  0x05, 0x07, 0xe1, 0xfd, 0xfd, 0xe3, 0x18, 0x12, 0x04, 0x12, 0x11, 0x0e,
  0xec, 0xdc, 0x23, 0x11, 0xf6, 0x1f, 0xf6, 0x09, 0xeb, 0xe7, 0xe0, 0x11,
  0x14, 0xd4, 0xca, 0x36, 0xf7, 0x1a, 0xec, 0x11, 0x1e, 0x01, 0x02, 0x0d,
  0xe5, 0x24, 0xfd, 0x35, 0x34, 0xbe, 0x18, 0x31, 0xc8, 0x02, 0xd7, 0x32,
  0xef, 0x20, 0x12, 0xfc, 0x25, 0x05, 0x29, 0x2e, 0xed, 0x09, 0x10, 0x41,
  0x7f, 0x0a, 0x05, 0xde, 0xab, 0xd4, 0xe9, 0x30, 0x3c, 0x1c, 0xc5, 0xd4,
  0x33, 0xbf, 0x0a, 0x16, 0x3c, 0x5f, 0xff, 0xd9, 0xcb, 0x2d, 0xd0, 0x25,
  0x41, 0x31, 0xc5, 0x29, 0xe6, 0xd3, 0x31, 0x29, 0x2c, 0x3d, 0xf8, 0x57,
  0x2a, 0x17, 0xc4, 0xdc, 0xe2, 0xfd, 0x0b, 0xe2, 0xeb, 0xcd, 0xc4, 0x2d,
  0x21, 0x0f, 0xe1, 0x1f, 0x1d, 0x48, 0x08, 0x04, 0xec, 0xed, 0xf7, 0x1d,
  0xe3, 0xd5, 0xf0, 0x04, 0x00, 0xe2, 0x07, 0x2a, 0x10, 0x1a, 0xe8, 0xe9,
  0x28, 0x1b, 0x1b, 0x17, 0xc2, 0xf4, 0x00, 0xfd, 0x13, 0x08, 0xf1, 0xf3,
  0xed, 0x21, 0x43, 0xe8, 0xff, 0xfd, 0xd6, 0x0d, 0x10, 0x1f, 0x1f, 0xee,
  0xe5, 0x27, 0x1a, 0x21, 0x7f, 0x11, 0xb0, 0x1a, 0xfe, 0xf2, 0x45, 0xfc,
  0x6e, 0x1d, 0xf4, 0xfd, 0x0f, 0xee, 0x31, 0xb8, 0xb5, 0xa7, 0x16, 0xdd,
  0xb5, 0xf4, 0x20, 0x20, 0xbf, 0x0b, 0x1b, 0x9e, 0xf2, 0x2d, 0x9d, 0xe3,
  0x96, 0xe6, 0xdc, 0xc1, 0xf4, 0xfc, 0xe4, 0xe8, 0xbf, 0x24, 0x4c, 0xbf,
  0x3b, 0xe1, 0x63, 0x0a, 0xeb, 0x13, 0x18, 0x44, 0xc5, 0xea, 0xd6, 0xfb,
  0xed, 0xe8, 0xf8, 0xaa, 0xcc, 0x10, 0x3c, 0xf7, 0x31, 0x15, 0x57, 0xb9,
  0xb5, 0xe6, 0x32, 0x52, 0xf4, 0xf6, 0xaa, 0x09, 0x06, 0x13, 0xec, 0xd8,
  0x26, 0x21, 0xd6, 0x0b, 0x29, 0xfc, 0x2b, 0x0f, 0x3a, 0xff, 0x1e, 0xec,
  0xae, 0x2c, 0xef, 0xcd, 0x7f, 0x63, 0xf3, 0xdd, 0x78, 0xdf, 0x15, 0x3d,
  0x22, 0x08, 0xfb, 0x12, 0x25, 0x34, 0xfb, 0xd7, 0xa8, 0x55, 0xae, 0x71,
  0x16, 0xa7, 0xff, 0x03, 0xeb, 0x38, 0x61, 0xdf, 0x13, 0xe7, 0x4b, 0x81,
  0xc7, 0x36, 0x05, 0x3a, 0x0c, 0xc3, 0xee, 0x0e, 0x40, 0xd6, 0xde, 0x23,
  0x02, 0x43, 0x48, 0xfa, 0x41, 0xfe, 0x23, 0xeb, 0xd2, 0xf3, 0x2f, 0x1f,
  0xd7, 0x0a, 0xf1, 0xfe, 0x01, 0xf1, 0xf5, 0x0a, 0x09, 0x24, 0x11, 0x0d,
  0x3d, 0x22, 0x30, 0xf0, 0xfa, 0xed, 0x34, 0x15, 0x12, 0x04, 0xd1, 0x2b,
  0x21, 0x05, 0x1c, 0x00, 0x30, 0xf5, 0xda, 0xea, 0x14, 0xf1, 0x15, 0x92,
  0x00, 0xdd, 0x0d, 0xdb, 0xf2, 0x1b, 0xda, 0xd9, 0xe8, 0x16, 0x0a, 0xed,
  0x34, 0x02, 0xda, 0xfd, 0xd1, 0xfc, 0x3b, 0xc0, 0x13, 0xfa, 0x23, 0xde,
  0xf6, 0xca, 0xe7, 0xaf, 0x9c, 0x81, 0x06, 0x10, 0x30, 0xf5, 0xdf, 0xbe,
  0x14, 0xfc, 0x30, 0xb9, 0x14, 0xc0, 0xe9, 0x35, 0x33, 0xd6, 0xec, 0xbc,
  0xe6, 0xb6, 0xf0, 0x0b, 0x16, 0x15, 0x28, 0xda, 0x06, 0x9e, 0x1b, 0xf0,
  0x07, 0xbb, 0x2f, 0x1a, 0x22, 0xcf, 0x14, 0xee, 0x18, 0xbb, 0x02, 0x21,
  0x12, 0x01, 0x1d, 0xfe, 0x17, 0xcf, 0xd5, 0xe7, 0x20, 0xf7, 0x3d, 0xf9,
  0x0d, 0xdc, 0xc5, 0xf3, 0xf8, 0x12, 0xd4, 0xd3, 0x0a, 0x1d, 0x37, 0x10,
  0x0c, 0xd1, 0xf1, 0x26, 0xe7, 0xdd, 0x32, 0x08, 0x09, 0xe9, 0xf4, 0x11,
  0xf3, 0xbe, 0xd8, 0xe3, 0x0c, 0x0a, 0x1e, 0x47, 0x0d, 0xe1, 0x3d, 0x1c,
  0xc2, 0x04, 0x14, 0xd8, 0xf6, 0xfa, 0xa8, 0x54, 0x06, 0x25, 0xb5, 0x44,
  0x62, 0x8b, 0x41, 0xc6, 0x81, 0xd0, 0xff, 0x4e, 0x05, 0x3b, 0xe4, 0xac,
  0xb8, 0xef, 0xf3, 0x00, 0xde, 0x54, 0xce, 0xd1, 0x0d, 0xf3, 0xab, 0x27,
  0xaf, 0xdc, 0x13, 0x36, 0x41, 0x29, 0xee, 0xe8, 0xe0, 0x05, 0xe8, 0x24,
  0xa5, 0xdd, 0xf6, 0xa1, 0xd3, 0x01, 0xb3, 0xf1, 0xe5, 0x04, 0xd6, 0x41,
  0xe0, 0xeb, 0x99, 0xf4, 0xe4, 0x4a, 0xc4, 0xdc, 0xbc, 0x0a, 0x0e, 0x0c,
  0xd4, 0xf0, 0xb2, 0x2d, 0x08, 0xdf, 0x30, 0x0a, 0x24, 0xeb, 0xd0, 0x17,
  0xe7, 0xfa, 0xf2, 0x0b, 0xbd, 0xb0, 0xed, 0x05, 0xb6, 0x23, 0xdb, 0x47,
  0x1a, 0x38, 0x4d, 0x13, 0xe4, 0xdc, 0x4c, 0x4a, 0x14, 0x36, 0x29, 0xf4,
  0xf7, 0xf4, 0xee, 0x21, 0x46, 0x2e, 0x3b, 0xbb, 0xe4, 0x8e, 0xe6, 0xe1,
  0x3e, 0x11, 0x02, 0xd4, 0xac, 0x9a, 0x16, 0xbc, 0x00, 0xdb, 0x11, 0x02,
  0x35, 0x2b, 0x1c, 0xee, 0x0b, 0xc7, 0xee, 0x01, 0xe9, 0xe1, 0xf8, 0x0a,
  0x97, 0xc5, 0xf0, 0xf1, 0x03, 0xdd, 0x19, 0xea, 0x20, 0x59, 0x02, 0xd6,
  0xf9, 0xb5, 0xce, 0xfe, 0x02, 0xcc, 0x28, 0x05, 0xa5, 0xfa, 0x1a, 0xdc,
  0x17, 0xeb, 0x23, 0xfc, 0xfe, 0x26, 0xe2, 0x0f, 0x08, 0x1e, 0xe1, 0x3f,
  0x19, 0xfe, 0x15, 0x06, 0xc2, 0xe5, 0xed, 0xf4, 0x36, 0xf6, 0x7f, 0x0c,
  0x31, 0x3d, 0x12, 0x2d, 0x1e, 0x04, 0xc6, 0x50, 0xe9, 0x08, 0x06, 0x40,
  0xc2, 0x4a, 0x0a, 0x32, 0xe0, 0x04, 0xee, 0xe0, 0x3b, 0x94, 0x0a, 0x10,
  0xcb, 0xa4, 0xfb, 0x08, 0x11, 0x06, 0x8e, 0x90, 0xef, 0x9f, 0x8b, 0xbc,
  0x0c, 0x47, 0x3e, 0xaf, 0x0b, 0x01, 0xac, 0xb1, 0x2c, 0x9d, 0x29, 0xf1,
  0xef, 0xd2, 0x25, 0xe4, 0x19, 0xd5, 0x32, 0xcc, 0x10, 0xe7, 0x6e, 0xe7,
  0x08, 0x77, 0xe3, 0xe4, 0x08, 0xdf, 0x03, 0x89, 0xd6, 0xf1, 0x34, 0x34,
  0x64, 0xe1, 0x45, 0xf8, 0x48, 0xe6, 0x11, 0x13, 0x39, 0x35, 0x28, 0xe5,
  0x44, 0x08, 0x0c, 0xc2, 0xcb, 0xd1, 0x28, 0xf9, 0x56, 0x1f, 0x36, 0x16,
  0xda, 0x81, 0x35, 0xf8, 0x19, 0x0b, 0x71, 0x6a, 0xfe, 0x54, 0x04, 0xbe,
  0xaf, 0xe5, 0x2f, 0x43, 0x23, 0x65, 0xf1, 0xf9, 0x81, 0xc1, 0xab, 0xe6,
  0x47, 0x1a, 0xbe, 0x7d, 0xb5, 0x03, 0xa9, 0x18, 0xec, 0xd0, 0xad, 0xee,
  0x01, 0x79, 0xcd, 0x0d, 0xd9, 0x01, 0x04, 0xf5, 0xfd, 0x27, 0xd4, 0x4c,
  0xe5, 0xe1, 0x0a, 0xdc, 0xea, 0x27, 0xb3, 0xef, 0x22, 0x1e, 0xbb, 0x24,
  0xf8, 0xfc, 0xed, 0x10, 0xf1, 0x04, 0xa9, 0xe0, 0xf5, 0xb1, 0xd8, 0xc2,
  0xfc, 0xf0, 0xc9, 0xb1, 0x34, 0xc5, 0xdc, 0xca, 0x0d, 0x02, 0x0c, 0x0d,
  0x00, 0xd9, 0xde, 0x0f, 0xee, 0xb0, 0x09, 0x09, 0xff, 0xea, 0x1c, 0xfe,
  0x38, 0xe2, 0xda, 0xf6, 0x35, 0x48, 0x36, 0x90, 0x9a, 0x3f, 0xd0, 0x0d,
  0x32, 0x17, 0x27, 0xee, 0xb9, 0xef, 0x73, 0x0a, 0x35, 0xf3, 0x27, 0xe0,
  0xd1, 0xdd, 0xab, 0x43, 0xd4, 0xfe, 0x15, 0xd1, 0xf9, 0xde, 0x62, 0x14,
  0xdb, 0x24, 0xb6, 0x0d, 0xf2, 0xa2, 0xc7, 0xac, 0xd9, 0x0f, 0xdd, 0x07,
  0x35, 0xbd, 0x28, 0xf3, 0xdc, 0xc7, 0x13, 0x15, 0x31, 0x1f, 0x16, 0x16,
  0x18, 0xe5, 0xf5, 0xef, 0x28, 0x31, 0x30, 0x17, 0xfd, 0xe7, 0xfe, 0x16,
  0xde, 0xd5, 0x30, 0x00, 0xf6, 0x34, 0x05, 0x27, 0xe4, 0xd6, 0xc1, 0x40,
  0x00, 0xe0, 0x2b, 0x02, 0xbb, 0x33, 0xeb, 0x61, 0xf0, 0x1a, 0xf8, 0x0b,
  0xeb, 0xf1, 0xfb, 0x14, 0xda, 0x09, 0x14, 0x56, 0xc4, 0xdc, 0x4b, 0x01,
  0xe5, 0x2d, 0xe8, 0x7f, 0x0f, 0x42, 0x17, 0x3a, 0x0e, 0x49, 0x9e, 0x12,
  0x94, 0x0b, 0xe6, 0x73, 0x1b, 0x07, 0xec, 0x17, 0xd5, 0xd3, 0x53, 0x57,
  0xaf, 0x0f, 0xee, 0x4e, 0xf7, 0x52, 0x00, 0xa9, 0xb0, 0xe4, 0xb1, 0x38,
  0x27, 0xf1, 0xfc, 0x0c, 0xfa, 0xea, 0xf2, 0x2f, 0xec, 0x17, 0x12, 0xea,
  0x1b, 0x0e, 0xe8, 0xf1, 0xdb, 0x2c, 0x00, 0x09, 0xe8, 0xf1, 0x2d, 0x0c,
  0x02, 0xdd, 0xed, 0xec, 0x07, 0x2b, 0xe7, 0xf3, 0xf5, 0xec, 0xfb, 0x15,
  0xdf, 0x2c, 0xf1, 0x09, 0xf3, 0xe9, 0x1b, 0xe9, 0x0c, 0x0e, 0xcb, 0xf0,
  0xfd, 0xf4, 0xf8, 0xd3, 0x32, 0xfa, 0xe8, 0x07, 0xcc, 0x05, 0xf7, 0xd7,
  0xf9, 0x1f, 0x06, 0xc6, 0x5b, 0x41, 0x91, 0xd4, 0x04, 0xcb, 0x1d, 0xb3,
  0x18, 0xf2, 0x21, 0x05, 0x1c, 0xcb, 0x3e, 0x81, 0x4b, 0x30, 0xfe, 0x03,
  0xb4, 0xe8, 0x07, 0x06, 0x13, 0xe6, 0xe2, 0x67, 0xf8, 0x1b, 0x32, 0x07,
  0x51, 0xc5, 0x20, 0x2c, 0x0a, 0x2f, 0x26, 0x1c, 0xc2, 0x25, 0x08, 0x3c,
  0x19, 0xe5, 0x13, 0x24, 0x03, 0x01, 0x2d, 0x43, 0x0b, 0xf7, 0xdf, 0xef,
  0x06, 0xf5, 0xfc, 0x22, 0xc2, 0xfa, 0xfb, 0x0d, 0x1f, 0x0f, 0xe2, 0x05,
  0xff, 0xe5, 0xf8, 0x26, 0x17, 0xec, 0xe7, 0x15, 0xf0, 0x11, 0xf8, 0x09,
  0xf6, 0x0b, 0xc2, 0xf9, 0x16, 0x0c, 0x02, 0xd5, 0xee, 0xfa, 0x12, 0xed,
  0x1e, 0x02, 0xd0, 0xec, 0xb5, 0x00, 0x1a, 0x99, 0xce, 0x1e, 0xbf, 0xa4,
  0x07, 0xc0, 0xe0, 0x81, 0xe6, 0xb0, 0x08, 0xe9, 0x03, 0xa4, 0x18, 0x98,
  0x81, 0xc0, 0xdd, 0xe8, 0x29, 0x00, 0x15, 0x3f, 0x2b, 0x43, 0x4a, 0xc1,
  0x48, 0xba, 0xef, 0xa4, 0xf9, 0xa5, 0xa5, 0xa2, 0xa6, 0xde, 0xf8, 0x07,
  0xd9, 0xc0, 0x0e, 0xe5, 0xfb, 0xcf, 0x15, 0x44, 0xec, 0x22, 0xf1, 0xef,
  0x05, 0x07, 0xbf, 0xc3, 0xe4, 0x21, 0xd8, 0x03, 0xf1, 0xd8, 0xf4, 0xc1,
  0xe4, 0x8b, 0x00, 0x1e, 0xd7, 0x34, 0xf3, 0xf1, 0x2c, 0x05, 0x33, 0xf1,
  0xf4, 0x49, 0xe6, 0xfa, 0xda, 0xd4, 0xff, 0xd4, 0x14, 0xef, 0xcc, 0x2c,
  0x16, 0x77, 0x09, 0xf0, 0x53, 0x2a, 0x0a, 0x3f, 0x3c, 0x0c, 0xfd, 0x20,
  0x10, 0xe1, 0xfc, 0xfa, 0x1a, 0xdd, 0xc4, 0x22, 0x3f, 0x71, 0xc1, 0xc9,
  0x54, 0x69, 0x30, 0x61, 0xe6, 0xea, 0x10, 0x0c, 0x16, 0x5b, 0x09, 0xad,
  0xe6, 0x16, 0x0d, 0x9b, 0xb3, 0xe3, 0xe9, 0x7f, 0xfd, 0x06, 0xf8, 0xed,
  0x15, 0xfe, 0xec, 0x2c, 0x34, 0x4a, 0x55, 0xcb, 0x15, 0x00, 0x2a, 0xd0,
  0xbd, 0xc0, 0x1d, 0x46, 0x2f, 0x2f, 0xcf, 0x4f, 0xb2, 0x91, 0x19, 0x2f,
  0xdb, 0x4e, 0x47, 0x13, 0xf1, 0xf7, 0xff, 0x32, 0xab, 0xcc, 0x15, 0x46,
  0x1e, 0xea, 0xde, 0x3b, 0xe5, 0xd4, 0x1e, 0x06, 0xf1, 0xbf, 0x33, 0x54,
  0xef, 0xe3, 0x0a, 0x19, 0xf2, 0xfb, 0xe1, 0x1e, 0xf8, 0x18, 0xb7, 0x30,
  0xdc, 0x8e, 0x60, 0x02, 0x3b, 0x05, 0x4d, 0x68, 0xc1, 0x5e, 0x22, 0x37,
  0xdb, 0x2b, 0xa6, 0x25, 0xc3, 0xfb, 0x92, 0x13, 0xf4, 0x18, 0x34, 0xdc,
  0xee, 0xf4, 0x81, 0x16, 0x2c, 0x29, 0x1e, 0xf0, 0x1c, 0xa7, 0xef, 0x55,
  0xd7, 0xeb, 0x1d, 0xb6, 0x20, 0xf3, 0x0a, 0xf4, 0x18, 0x1a, 0xf3, 0xff,
  0x38, 0x2c, 0x1c, 0x25, 0xfa, 0xd4, 0x06, 0x1a, 0x00, 0xfa, 0x11, 0xf2,
  0x04, 0x18, 0x40, 0x26, 0x0b, 0x0f, 0xe0, 0xfa, 0xed, 0xf4, 0x0b, 0x1c,
  0x07, 0xeb, 0x1e, 0x0d, 0x0f, 0xf6, 0x04, 0x22, 0x5a, 0x07, 0xfd, 0x3b,
  0xf1, 0xf5, 0xf6, 0x34, 0xde, 0x1f, 0xdd, 0x0d, 0xf7, 0xc3, 0xf7, 0xde,
  0x0f, 0x1a, 0x01, 0x29, 0x3e, 0x20, 0x31, 0x4a, 0xd4, 0x33, 0x1d, 0x50,
  0xf1, 0x1e, 0xf1, 0x50, 0xcc, 0xc9, 0x06, 0x1c, 0xe7, 0x2d, 0xe9, 0x48,
  0xb6, 0x1b, 0x1f, 0xb6, 0x72, 0x4a, 0xc7, 0x4d, 0x2d, 0x07, 0x03, 0x78,
  0x19, 0x15, 0xc2, 0xc3, 0x05, 0xcc, 0x18, 0x8b, 0xb7, 0x14, 0xec, 0xae,
  0x2b, 0x12, 0x33, 0xe0, 0x1d, 0xcc, 0xd3, 0x1f, 0x42, 0x20, 0x04, 0xea,
  0xfc, 0x8e, 0xf6, 0xc2, 0xe3, 0x39, 0xce, 0xcc, 0x1d, 0x0b, 0x08, 0xd6,
  0xfb, 0xa8, 0xa4, 0x45, 0xec, 0xdb, 0x56, 0xfd, 0x39, 0xfd, 0x00, 0xc5,
  0x49, 0xeb, 0xff, 0xfe, 0xed, 0x2f, 0x20, 0xdf, 0x29, 0x3d, 0xa4, 0x0f,
  0xc2, 0x65, 0x28, 0x40, 0x1e, 0xec, 0xc0, 0x55, 0x37, 0x8d, 0xf2, 0x3e,
  0xbb, 0x64, 0x32, 0x25, 0x1e, 0x70, 0xc4, 0x63, 0xdb, 0xf7, 0x20, 0x4e,
  0xe5, 0x42, 0xcb, 0x7f, 0x14, 0xc0, 0x0b, 0xcd, 0xf0, 0x12, 0x28, 0x2f,
  0xf8, 0x2a, 0x17, 0x7f, 0xdc, 0xc4, 0x3d, 0x1c, 0xc8, 0x52, 0xe9, 0x51,
  0xfc, 0xaf, 0xfe, 0xd2, 0xc0, 0x02, 0x01, 0xa0, 0xd4, 0x19, 0xfe, 0x42,
  0xf9, 0x05, 0x21, 0x3c, 0x40, 0x20, 0x4d, 0x0a, 0xfc, 0xfa, 0xb2, 0xd6,
  0xfa, 0xe0, 0x2f, 0xb4, 0xe2, 0xfd, 0xe6, 0x2d, 0xde, 0xaf, 0xed, 0x1e,
  0x53, 0xe2, 0x4b, 0x00, 0x03, 0x35, 0xc0, 0xe5, 0x0b, 0xe7, 0x12, 0xde,
  0x2b, 0xf0, 0xd5, 0x00, 0x3e, 0xfd, 0xc7, 0xfc, 0x1c, 0x02, 0xf7, 0xfa,
  0xf1, 0xd8, 0x83, 0x01, 0x39, 0xc9, 0x07, 0xd1, 0x00, 0xc6, 0x0d, 0xba,
  0x29, 0xc6, 0x8d, 0x93, 0x2c, 0xd5, 0x85, 0xc5, 0xa9, 0xa2, 0xee, 0x83,
  0x45, 0xf3, 0xc5, 0x87, 0x11, 0x81, 0xdc, 0x12, 0x2b, 0x8e, 0x35, 0x40,
  0xcb, 0xc3, 0xe0, 0x0e, 0xba, 0xa5, 0xbe, 0x91, 0x0a, 0xfe, 0xff, 0xe8,
  0xf6, 0xbf, 0x03, 0x29, 0x30, 0x91, 0xfb, 0x21, 0xcb, 0x31, 0xf7, 0xf9,
  0xcc, 0xdf, 0xe2, 0xcf, 0xda, 0x00, 0x11, 0x1d, 0xf3, 0x2e, 0xf1, 0x0e,
  0xec, 0xf4, 0x1e, 0x1e, 0xb1, 0x17, 0x0e, 0x0d, 0x1f, 0xdd, 0x0d, 0x19,
  0xdf, 0x35, 0xf8, 0x00, 0xef, 0x1e, 0xe7, 0xe9, 0x23, 0xe1, 0x04, 0x0c,
  0xd7, 0x1c, 0x37, 0x1c, 0x25, 0x25, 0x7a, 0x03, 0x00, 0x5c, 0xda, 0x02,
  0x1b, 0x36, 0x11, 0x9d, 0xc2, 0x0b, 0x4c, 0x48, 0x34, 0x13, 0x33, 0xe3,
  0x29, 0x43, 0x15, 0x04, 0x28, 0x61, 0x0b, 0x0b, 0x3e, 0xc4, 0xeb, 0x1c,
  0x18, 0xd5, 0xfd, 0x7f, 0x16, 0x2b, 0xff, 0x28, 0x2f, 0x18, 0xf4, 0x19,
  0x17, 0xdb, 0x04, 0x0c, 0x3a, 0xe9, 0x05, 0x1a, 0x15, 0xee, 0x07, 0xe4,
  0xe8, 0x09, 0xde, 0x31, 0x34, 0x2b, 0xf2, 0x12, 0x31, 0xa6, 0x1d, 0x28,
  0x15, 0xe6, 0xfe, 0x24, 0xf4, 0x05, 0x00, 0xeb, 0xd5, 0x21, 0xbb, 0x0a,
  0x2f, 0xfe, 0xde, 0xfb, 0x10, 0xc2, 0x11, 0x0c, 0xe1, 0x05, 0xe9, 0x2a,
  0xd8, 0x0a, 0xe0, 0x06, 0xd7, 0xff, 0xe6, 0x0a, 0xf0, 0xd0, 0x9f, 0x12,
  0x26, 0xe2, 0x2b, 0xf6, 0x97, 0xf8, 0x21, 0x5d, 0xe5, 0xfb, 0xc0, 0xec,
  0xc0, 0xe0, 0xfa, 0xd9, 0xf5, 0x26, 0xe8, 0xaf, 0x23, 0x24, 0xd6, 0xc2,
  0xc8, 0x0f, 0xac, 0xd2, 0xfc, 0xbf, 0xd8, 0xde, 0xe9, 0x28, 0xcf, 0xb7,
  0x0e, 0x20, 0x15, 0xf9, 0xfe, 0xec, 0xf4, 0xdd, 0xea, 0x3d, 0xc3, 0x03,
  0xe5, 0xed, 0xd8, 0x14, 0x21, 0x56, 0xdc, 0xd8, 0xf1, 0x10, 0xd9, 0x2c,
  0x0f, 0xa4, 0xe5, 0xd3, 0xf2, 0xc7, 0xf4, 0x39, 0xd1, 0x0d, 0x99, 0xd9,
  0x6b, 0x71, 0x14, 0xfa, 0xe7, 0x0d, 0x02, 0x29, 0xff, 0x95, 0x06, 0xd2,
  0xfc, 0xda, 0xf3, 0x47, 0x01, 0x27, 0xb1, 0xdf, 0x7f, 0x3c, 0x04, 0xeb,
  0xf5, 0x02, 0xd2, 0x53, 0x13, 0x03, 0x36, 0xf5, 0xe6, 0x0c, 0x03, 0x07,
  0xd6, 0x4f, 0xcc, 0xe0, 0x6d, 0x13, 0x9b, 0x21, 0x4d, 0x7d, 0x54, 0xe8,
  0xfb, 0x36, 0x16, 0x4c, 0x7f, 0x1d, 0x40, 0xea, 0x42, 0x44, 0x43, 0x55,
  0x23, 0x48, 0x0f, 0xe8, 0xfe, 0xe3, 0x40, 0xf5, 0x02, 0x40, 0x1c, 0x16,
  0x1f, 0xfd, 0xf4, 0x1c, 0xf0, 0xfa, 0x14, 0x17, 0x04, 0x1a, 0xe0, 0x0f,
  0xef, 0x12, 0xe0, 0xf7, 0x3e, 0xf0, 0x12, 0xc3, 0xe5, 0x0e, 0xa8, 0xee,
  0xc7, 0xd6, 0x02, 0x3f, 0xe6, 0x17, 0xf7, 0x09, 0x10, 0x0a, 0xd6, 0x31,
  0x28, 0xd6, 0x18, 0xc1, 0xfd, 0xf1, 0xb3, 0x1c, 0x21, 0xcc, 0xb6, 0xfc,
  0x1d, 0xce, 0x10, 0x02, 0xdf, 0xf7, 0xcd, 0x5c, 0x6f, 0x1f, 0xf3, 0xee,
  0x88, 0x95, 0xfa, 0xc6, 0x1b, 0x07, 0xc8, 0xc6, 0xf9, 0xe8, 0x94, 0xcd,
  0x38, 0x2b, 0x39, 0xff, 0x81, 0xe9, 0x3f, 0x48, 0x40, 0x21, 0x30, 0x26,
  0x1c, 0x3a, 0x18, 0x08, 0xf8, 0xf7, 0xeb, 0xe9, 0x07, 0xf8, 0xff, 0xea,
  0xca, 0xe1, 0x1e, 0x21, 0x21, 0x26, 0x4d, 0xf7, 0x16, 0xf9, 0x4c, 0x1d,
  0xde, 0x21, 0x1e, 0xf0, 0xda, 0xdb, 0x06, 0xdc, 0xcd, 0xdc, 0x20, 0x19,
  0x27, 0x0e, 0x2a, 0xe7, 0x00, 0x10, 0x2c, 0xdb, 0xe2, 0xd4, 0xee, 0xe8,
  0xdf, 0xd6, 0x06, 0x23, 0x0a, 0xd6, 0xd8, 0xf8, 0x11, 0xf1, 0x02, 0xd2,
  0xf0, 0xfd, 0x08, 0xd4, 0x2b, 0xef, 0xcf, 0x01, 0xea, 0xb0, 0xf9, 0x1b,
  0xb2, 0xcd, 0x31, 0xec, 0xd0, 0xe1, 0x1b, 0xa5, 0xe7, 0xd2, 0xc3, 0xc4,
  0xcc, 0xe1, 0xe4, 0xc4, 0x6a, 0xe1, 0xf1, 0xc6, 0xf4, 0x1c, 0x2b, 0x66,
  0x0f, 0xde, 0xba, 0x7b, 0xf6, 0x06, 0x31, 0x13, 0xc8, 0x7b, 0x55, 0x71,
  0x12, 0xd5, 0x19, 0xdd, 0x0a, 0x0c, 0xc9, 0x22, 0x03, 0x1a, 0x04, 0x03,
  0xe8, 0xb4, 0x3f, 0x12, 0xde, 0x09, 0x2e, 0x33, 0xc8, 0x10, 0xe4, 0x94,
  0x31, 0x50, 0xc4, 0xf5, 0xdc, 0xe8, 0xff, 0xd5, 0xc3, 0xab, 0xf1, 0x1c,
  0x16, 0xf3, 0xed, 0xe4, 0x12, 0xf9, 0x32, 0x0a, 0xdb, 0xdd, 0xf4, 0x3a,
  0x21, 0xd9, 0xe0, 0x05, 0x02, 0x9f, 0xf2, 0xe0, 0xe6, 0xf0, 0x33, 0xf7,
  0xeb, 0x30, 0x65, 0xef, 0xb6, 0x0d, 0x32, 0x3c, 0x1d, 0x21, 0x7f, 0x43,
  0xef, 0xeb, 0x29, 0x15, 0x21, 0x3a, 0x57, 0xa1, 0x00, 0x12, 0xfb, 0xf0,
  0xb8, 0x30, 0xe4, 0x5a, 0x05, 0x7f, 0x9e, 0x25, 0xf7, 0x06, 0x0d, 0x31,
  0xfb, 0x41, 0x34, 0x27, 0xb4, 0xe0, 0xcf, 0xfd, 0x29, 0xca, 0xcb, 0x43,
  0x0c, 0x4f, 0x00, 0xf2, 0x0b, 0x1c, 0xc7, 0xbc, 0xf1, 0xff, 0x03, 0xe9,
  0xac, 0xfd, 0x02, 0xd2, 0x1f, 0xe5, 0x1f, 0xfa, 0xc4, 0xf7, 0x11, 0xe0,
  0x14, 0xf1, 0xc8, 0xba, 0xe4, 0xeb, 0xda, 0xf6, 0xd0, 0x11, 0x1e, 0x26,
  0x35, 0xcf, 0x2a, 0xf0, 0xfa, 0x1b, 0x1b, 0xe6, 0x0f, 0x23, 0xe1, 0xc5,
  0x03, 0xfc, 0xd8, 0xef, 0xd9, 0x17, 0x29, 0x01, 0x15, 0x2c, 0x70, 0x13,
  0x2f, 0x0c, 0x46, 0xd5, 0xe9, 0x22, 0x20, 0x08, 0xee, 0xe0, 0xaf, 0x06,
  0x0d, 0xa7, 0xb3, 0x08, 0xfb, 0xf3, 0x43, 0x5a, 0x2a, 0xf8, 0x22, 0x13,
  0xab, 0x0c, 0xe6, 0xea, 0xc7, 0x17, 0x81, 0x0a, 0xeb, 0xf8, 0xf0, 0xbf,
  0x01, 0x3b, 0x0b, 0x08, 0x12, 0xf6, 0x2a, 0x03, 0x27, 0x07, 0xe7, 0xe1,
  0xe7, 0x07, 0xb9, 0xdb, 0x17, 0x1b, 0xd7, 0xee, 0xf6, 0xea, 0x03, 0x08,
  0x04, 0x19, 0x39, 0x21, 0x27, 0x48, 0xf1, 0xd4, 0x13, 0xd7, 0x09, 0x0a,
  0xe4, 0x0b, 0xda, 0xf9, 0xf3, 0xfc, 0x00, 0x04, 0xec, 0xd2, 0x11, 0x21,
  0xe4, 0x07, 0x27, 0xc7, 0xfd, 0x0c, 0x12, 0x1f, 0x19, 0x0a, 0xeb, 0xb3,
  0xf9, 0x24, 0x94, 0x0e, 0x07, 0xb8, 0x9b, 0xf2, 0xc2, 0xcf, 0x65, 0x2a,
  0x24, 0x17, 0x56, 0xe8, 0xc7, 0x91, 0xe3, 0x45, 0x1c, 0xfd, 0x2c, 0xd4,
  0xe3, 0xe4, 0x7d, 0xff, 0x62, 0x2a, 0x06, 0xdf, 0xcd, 0x88, 0xd8, 0xad,
  0xe2, 0x08, 0xdd, 0x2a, 0x0f, 0xcc, 0x10, 0x1f, 0x1e, 0xe0, 0xf1, 0x2a,
  0x18, 0x37, 0x0a, 0xfb, 0xc4, 0xc8, 0xfe, 0xc4, 0x2c, 0xd6, 0x35, 0x1b,
  0xea, 0x03, 0x04, 0x3b, 0xfe, 0xf2, 0xd6, 0xe4, 0xfb, 0x1c, 0x15, 0xe0,
  0xd1, 0xe5, 0x18, 0xc8, 0x19, 0xf7, 0x2c, 0x2b, 0xce, 0x04, 0x28, 0x3c,
  0x07, 0x2e, 0xea, 0xe4, 0xd7, 0x20, 0xff, 0xf7, 0x31, 0x43, 0x5f, 0xc3,
  0x08, 0xe3, 0x5e, 0x2d, 0x81, 0x31, 0x57, 0x20, 0x3c, 0x4f, 0x09, 0xfa,
  0xfc, 0x07, 0x40, 0x37, 0x23, 0x38, 0x55, 0xbb, 0xc4, 0xbe, 0xfe, 0xff,
  0xc8, 0xbe, 0xfe, 0xff, 0x42, 0xce, 0xff, 0xff, 0x04, 0x00, 0x00, 0x00,
  0x50, 0x00, 0x00, 0x00, 0x78, 0xf8, 0xff, 0xff, 0x60, 0xf7, 0xff, 0xff,
  0x44, 0x00, 0x00, 0x00, 0xa9, 0xf1, 0xff, 0xff, 0x30, 0x02, 0x00, 0x00,
  0x63, 0xff, 0xff, 0xff, 0x90, 0x02, 0x00, 0x00, 0x69, 0x10, 0x00, 0x00,
  0x16, 0x04, 0x00, 0x00, 0x34, 0x04, 0x00, 0x00, 0x64, 0x06, 0x00, 0x00,
  0x5e, 0x18, 0x00, 0x00, 0x90, 0xfc, 0xff, 0xff, 0x21, 0x0b, 0x00, 0x00,
  0xf4, 0xfd, 0xff, 0xff, 0x56, 0x01, 0x00, 0x00, 0x78, 0xf9, 0xff, 0xff,
  0x3d, 0x05, 0x00, 0x00, 0xe7, 0x03, 0x00, 0x00, 0xa6, 0x03, 0x00, 0x00,
  0x9e, 0xce, 0xff, 0xff, 0x04, 0x00, 0x00, 0x00, 0x90, 0x01, 0x00, 0x00,
  0xb3, 0x16, 0x4f, 0xb0, 0xcf, 0xa5, 0x26, 0x90, 0xca, 0x3b, 0x7f, 0x26,
  0xa0, 0x18, 0x45, 0xfe, 0x53, 0x69, 0x2f, 0xcd, 0x52, 0x79, 0x3f, 0xd6,
  0xaa, 0xbe, 0x8b, 0xe8, 0xad, 0xcc, 0xe4, 0xea, 0x7f, 0x36, 0x3f, 0x0b,
  0x8c, 0xc1, 0x97, 0x06, 0x37, 0x60, 0x25, 0x62, 0xaa, 0xcc, 0x28, 0xe7,
  0xcd, 0x22, 0xe3, 0x33, 0xff, 0x12, 0x13, 0x81, 0xe6, 0x0b, 0xfb, 0x62,
  0x43, 0x01, 0xee, 0xe7, 0x24, 0xe5, 0x19, 0x87, 0x31, 0xec, 0xb4, 0x55,
  0xfa, 0x45, 0xf7, 0x7f, 0xea, 0x17, 0xc8, 0x83, 0xbc, 0x34, 0x10, 0xc3,
  0xe6, 0x95, 0x2b, 0xf6, 0x35, 0xc1, 0xd2, 0x9b, 0x76, 0xe4, 0x51, 0x53,
  0xab, 0x7f, 0x1b, 0xdf, 0xa5, 0xec, 0x81, 0x00, 0xed, 0xb8, 0x53, 0x4b,
  0xf1, 0xe1, 0x4f, 0xec, 0xce, 0x11, 0xf7, 0xe1, 0x4a, 0xed, 0xe7, 0xb9,
  0xb1, 0x81, 0xbf, 0x13, 0x59, 0xde, 0x6a, 0x1f, 0xed, 0x55, 0x00, 0x4b,
  0x19, 0x46, 0x7f, 0x25, 0xbf, 0xc0, 0x3a, 0x40, 0xd4, 0x28, 0x44, 0xca,
  0x0c, 0xfc, 0x2b, 0x06, 0xc9, 0x9b, 0x9b, 0xe7, 0xf0, 0xe5, 0x40, 0x0f,
  0xfa, 0x7f, 0xf1, 0x49, 0x8f, 0x11, 0x08, 0x32, 0x8a, 0xf2, 0x8c, 0x6d,
  0x96, 0x2d, 0xff, 0x32, 0x55, 0xa2, 0xc1, 0xd7, 0xf3, 0xa8, 0xaf, 0x7f,
  0x26, 0x23, 0xab, 0xa1, 0x1c, 0x39, 0xa9, 0xf5, 0xd5, 0xb7, 0x26, 0x0e,
  0x2f, 0xc1, 0xf8, 0xd7, 0x78, 0xe2, 0x03, 0x7f, 0xf3, 0xae, 0x02, 0xb9,
  0xf2, 0x2b, 0x16, 0x2b, 0x18, 0xbe, 0xc4, 0x7f, 0x32, 0xf4, 0x47, 0xe3,
  0xff, 0x46, 0x46, 0x44, 0x96, 0x30, 0xf4, 0x45, 0xd4, 0xe6, 0xb9, 0x25,
  0x7f, 0x49, 0x13, 0xe5, 0x37, 0xad, 0x00, 0xe6, 0x3e, 0xd8, 0xa8, 0xa5,
  0xea, 0xa3, 0x7f, 0x0d, 0x3d, 0xab, 0x13, 0xd8, 0x0e, 0x20, 0xb6, 0xf7,
  0x79, 0x45, 0x0d, 0xe9, 0x3f, 0x2c, 0x75, 0xc9, 0x9f, 0x2c, 0x81, 0xa8,
  0xfd, 0xe4, 0x50, 0x2f, 0xee, 0x35, 0x0c, 0xe5, 0xcc, 0xdd, 0xfa, 0x10,
  0x0f, 0x26, 0x27, 0x5d, 0x49, 0xbe, 0xe4, 0x67, 0x5b, 0xff, 0x47, 0x53,
  0x33, 0x4c, 0x2f, 0xbe, 0xa9, 0xb2, 0x39, 0xc2, 0x3d, 0x50, 0xea, 0x7f,
  0xda, 0x4c, 0xcb, 0xe8, 0x66, 0x6c, 0x01, 0xfc, 0x21, 0x19, 0x7f, 0x23,
  0x36, 0xc7, 0xb4, 0xe2, 0xbb, 0xf8, 0x1e, 0xa4, 0x66, 0x11, 0x4d, 0x7f,
  0x13, 0xd4, 0x16, 0xca, 0x47, 0x09, 0x99, 0xf0, 0xcd, 0xad, 0x1d, 0x9f,
  0xa5, 0x9e, 0x9b, 0xe1, 0xad, 0x59, 0xe6, 0xb1, 0x98, 0x3b, 0x06, 0x96,
  0x26, 0x2b, 0x21, 0x81, 0x38, 0x8c, 0x96, 0xad, 0x7f, 0xb7, 0x1a, 0xcc,
  0xb2, 0xc9, 0x05, 0x04, 0xb7, 0x6e, 0xb3, 0x27, 0x7f, 0x91, 0xec, 0x49,
  0xf9, 0x3d, 0xc4, 0xbb, 0xea, 0x34, 0xf0, 0x0d, 0x5d, 0x3f, 0x26, 0xf8,
  0xc7, 0xab, 0x27, 0x17, 0x53, 0x7a, 0x1b, 0xc7, 0xb5, 0xea, 0xde, 0x0f,
  0x7f, 0xff, 0x3b, 0x27, 0xc4, 0xc0, 0xfe, 0xff, 0xc8, 0xc0, 0xfe, 0xff,
  0xcc, 0xc0, 0xfe, 0xff, 0xd0, 0xc0, 0xfe, 0xff, 0xd4, 0xc0, 0xfe, 0xff,
  0xd8, 0xc0, 0xfe, 0xff, 0xdc, 0xc0, 0xfe, 0xff, 0x56, 0xd0, 0xff, 0xff,
  0x04, 0x00, 0x00, 0x00, 0x50, 0x00, 0x00, 0x00, 0xab, 0xa4, 0xff, 0xff,
  0xfd, 0x16, 0x00, 0x00, 0xfd, 0xd2, 0xff, 0xff, 0x68, 0x01, 0x00, 0x00,
  0xf5, 0xbd, 0xff, 0xff, 0xf2, 0x30, 0x00, 0x00, 0xe4, 0x28, 0x00, 0x00,
  0x46, 0x03, 0x00, 0x00, 0xe7, 0x46, 0x00, 0x00, 0x30, 0xc1, 0xff, 0xff,
  0x6a, 0xd7, 0xff, 0xff, 0xab, 0x24, 0x00, 0x00, 0x32, 0x25, 0x00, 0x00,
  0x29, 0xf2, 0xff, 0xff, 0xac, 0x29, 0x00, 0x00, 0xfa, 0xe4, 0xff, 0xff,
  0xd9, 0x00, 0x00, 0x00, 0x40, 0x18, 0x00, 0x00, 0x50, 0xeb, 0xff, 0xff,
  0xfc, 0xa4, 0xff, 0xff, 0xb2, 0xd0, 0xff, 0xff, 0x04, 0x00, 0x00, 0x00,
  0x90, 0x01, 0x00, 0x00, 0xc8, 0x82, 0x56, 0x08, 0x43, 0x37, 0x2c, 0x5d,
  0x2a, 0xfa, 0xe9, 0x5a, 0x42, 0x2c, 0x2d, 0x12, 0x7f, 0x31, 0x7c, 0xc8,
  0xed, 0xfd, 0x20, 0xf0, 0xa2, 0x1a, 0x0a, 0x7f, 0x9e, 0x3a, 0xd2, 0xb4,
  0xc5, 0x0b, 0xc7, 0xae, 0x1c, 0xdf, 0x16, 0x35, 0xe0, 0x7f, 0x0b, 0x8d,
  0x52, 0x6c, 0xbc, 0x3a, 0x43, 0x22, 0xd3, 0x3d, 0xdd, 0x34, 0x72, 0xd3,
  0xc3, 0x62, 0x58, 0xa7, 0x21, 0xee, 0x3a, 0xdf, 0x3c, 0x7f, 0xfa, 0xb5,
  0xe2, 0x0c, 0xc4, 0xdc, 0xac, 0x47, 0x1d, 0x28, 0xe6, 0xd1, 0x52, 0xc9,
  0x45, 0xf4, 0xbb, 0x7e, 0x7f, 0x50, 0x15, 0xab, 0x14, 0x56, 0x18, 0x68,
  0x1f, 0xc0, 0x22, 0x3a, 0x27, 0x06, 0xba, 0x00, 0x55, 0x81, 0xc0, 0x4c,
  0xb8, 0xcb, 0x0f, 0xb3, 0x0e, 0xd1, 0x02, 0x19, 0xee, 0xdf, 0x9a, 0x38,
  0xc0, 0xee, 0x60, 0xb6, 0x93, 0xc9, 0x47, 0xbf, 0x7f, 0xeb, 0x0f, 0xa5,
  0x5b, 0x0d, 0x42, 0xa0, 0xb7, 0xc9, 0xe8, 0xa1, 0xdf, 0xf1, 0x04, 0xd3,
  0x45, 0x29, 0x32, 0x42, 0x93, 0xbc, 0xc5, 0x6d, 0x43, 0xa6, 0x3f, 0x81,
  0xd3, 0xf5, 0x3c, 0x45, 0x05, 0x97, 0xfa, 0x10, 0x2f, 0xe0, 0x81, 0x06,
  0xa1, 0x31, 0x52, 0xe5, 0xf0, 0x07, 0x95, 0xb2, 0xe1, 0x21, 0xf5, 0x11,
  0xab, 0xff, 0xab, 0xfc, 0xdb, 0xd5, 0x10, 0x9a, 0xc1, 0xfd, 0xc8, 0x7e,
  0x7f, 0x10, 0x2a, 0x51, 0xe4, 0xf5, 0x64, 0xd4, 0x38, 0x3f, 0x66, 0x7e,
  0xa1, 0x60, 0x24, 0x5f, 0x14, 0xcc, 0x4c, 0x7a, 0xc8, 0xb1, 0x5b, 0xbb,
  0x81, 0x96, 0x30, 0x42, 0xfe, 0x46, 0x35, 0x6a, 0xcc, 0x76, 0x27, 0x58,
  0xca, 0x63, 0xc9, 0x81, 0xee, 0x89, 0x34, 0xc5, 0x4c, 0x97, 0xf1, 0x0b,
  0xf9, 0x27, 0x10, 0xad, 0xa8, 0xc4, 0x0d, 0x16, 0xef, 0x2a, 0xf0, 0xef,
  0xfa, 0x27, 0xfc, 0xc6, 0xc0, 0x81, 0xec, 0x4a, 0x00, 0xff, 0xb4, 0x1a,
  0xe0, 0x49, 0xfd, 0x3c, 0x7f, 0x54, 0x3d, 0xc7, 0x26, 0xe9, 0xfb, 0xff,
  0xb5, 0x05, 0xca, 0x07, 0xe5, 0xec, 0xf3, 0xed, 0x81, 0xad, 0xed, 0x53,
  0x45, 0xba, 0x56, 0x9e, 0xaa, 0x1d, 0xa6, 0x4d, 0x71, 0xda, 0x9e, 0xac,
  0x3d, 0x3b, 0xcd, 0x9e, 0xf5, 0xb4, 0xfb, 0x09, 0xf6, 0xf2, 0x37, 0x2b,
  0x52, 0xeb, 0x3f, 0x0e, 0x20, 0xfb, 0xf9, 0x1a, 0x7f, 0xcb, 0xc0, 0x00,
  0x68, 0xcd, 0x82, 0x60, 0xa1, 0x06, 0x7b, 0x7f, 0x73, 0xaa, 0x0c, 0x29,
  0xc6, 0xc4, 0x9a, 0xe6, 0xc3, 0x32, 0x61, 0xb4, 0xa0, 0x3e, 0x31, 0x55,
  0xb3, 0x8c, 0x52, 0x20, 0x35, 0xea, 0xb4, 0x07, 0x7f, 0xa4, 0xdf, 0xc4,
  0x49, 0xda, 0xdd, 0x9d, 0xe4, 0xb1, 0x27, 0xde, 0x40, 0x2f, 0x58, 0xbe,
  0xc8, 0x3c, 0x3c, 0x1f, 0xe5, 0xa0, 0x3d, 0x0f, 0x81, 0xdc, 0x53, 0x55,
  0x6d, 0x38, 0x3d, 0x44, 0xe9, 0xb5, 0x25, 0x51, 0x03, 0x7f, 0x34, 0xc2,
  0x36, 0x1f, 0xf2, 0x3a, 0xdf, 0x4f, 0x3e, 0x27, 0xd8, 0xc2, 0xfe, 0xff,
  0xdc, 0xc2, 0xfe, 0xff, 0xe0, 0xc2, 0xfe, 0xff, 0xe4, 0xc2, 0xfe, 0xff,
  0x5e, 0xd2, 0xff, 0xff, 0x04, 0x00, 0x00, 0x00, 0x50, 0x00, 0x00, 0x00,
  0x93, 0xfe, 0xff, 0xff, 0xe0, 0xfd, 0xff, 0xff, 0xc5, 0x00, 0x00, 0x00,
  0xb5, 0xfd, 0xff, 0xff, 0x49, 0x03, 0x00, 0x00, 0x04, 0xfe, 0xff, 0xff,
  0xad, 0xff, 0xff, 0xff, 0xbf, 0x10, 0x00, 0x00, 0xbd, 0x06, 0x00, 0x00,
  0x31, 0x06, 0x00, 0x00, 0x12, 0x06, 0x00, 0x00, 0xcd, 0x12, 0x00, 0x00,
  0x30, 0x01, 0x00, 0x00, 0x25, 0xfc, 0xff, 0xff, 0xbf, 0xfe, 0xff, 0xff,
  0xdc, 0xfe, 0xff, 0xff, 0x37, 0xfa, 0xff, 0xff, 0xed, 0x05, 0x00, 0x00,
  0x60, 0x00, 0x00, 0x00, 0xe7, 0x02, 0x00, 0x00, 0xba, 0xd2, 0xff, 0xff,
  0x04, 0x00, 0x00, 0x00, 0x90, 0x01, 0x00, 0x00, 0xbe, 0x38, 0x26, 0x4e,
  0x41, 0x93, 0xce, 0x27, 0x19, 0xc9, 0xfc, 0x86, 0xea, 0x50, 0x4c, 0x94,
  0x81, 0xe4, 0xf4, 0x64, 0x53, 0x75, 0xff, 0xef, 0x8d, 0x69, 0x67, 0xc7,
  0x00, 0x6d, 0x95, 0xd7, 0x02, 0x17, 0x02, 0x3e, 0x7e, 0x3c, 0x81, 0x94,
  0xd7, 0x4b, 0x21, 0xec, 0x73, 0xe3, 0x2c, 0xc4, 0x53, 0x37, 0x65, 0x42,
  0xb5, 0xc0, 0xf9, 0x97, 0x7f, 0x29, 0x1c, 0x89, 0x3d, 0xe7, 0x0e, 0x3f,
  0x51, 0x48, 0x41, 0x7f, 0x3a, 0x15, 0x2b, 0x1c, 0x1e, 0x1f, 0x3d, 0xde,
  0xfb, 0x53, 0x25, 0xff, 0xdb, 0xb1, 0xb9, 0xfd, 0xce, 0xfc, 0x4d, 0xca,
  0x9b, 0xfa, 0x34, 0x0a, 0xa8, 0x5b, 0xf6, 0x12, 0x55, 0x6d, 0x81, 0x85,
  0xf5, 0xf0, 0x7f, 0xfa, 0x18, 0xb8, 0x05, 0x1c, 0x9e, 0xe4, 0xcb, 0xae,
  0xda, 0x00, 0x1d, 0x41, 0xf8, 0x64, 0x18, 0xdf, 0xf1, 0xdf, 0xed, 0x3e,
  0xc0, 0xf8, 0x0d, 0xe1, 0x39, 0xd3, 0x38, 0xbc, 0x1a, 0xe6, 0x7f, 0x12,
  0xe4, 0xc1, 0xbe, 0xe1, 0xd0, 0xf3, 0x2b, 0x44, 0x0a, 0xca, 0x28, 0xf5,
  0x20, 0x2e, 0xf1, 0xca, 0xbe, 0xec, 0x03, 0x0e, 0x09, 0xd1, 0x0b, 0x7f,
  0x81, 0xcc, 0x39, 0x58, 0xef, 0x31, 0xef, 0xc2, 0x0d, 0x2d, 0x30, 0x0d,
  0xca, 0x31, 0x0b, 0xcf, 0xd7, 0xb2, 0x00, 0x74, 0xae, 0xd7, 0x6d, 0x29,
  0x5d, 0xbb, 0xe0, 0x15, 0x7f, 0x23, 0xff, 0x76, 0x4f, 0x46, 0xcd, 0x51,
  0x3a, 0x02, 0x16, 0xd5, 0x15, 0x1c, 0xad, 0x35, 0xab, 0xcc, 0xc4, 0x64,
  0x31, 0xb2, 0x6d, 0xf9, 0xa2, 0x0a, 0xe9, 0xf9, 0xad, 0x7f, 0x83, 0x16,
  0x10, 0x7f, 0xa6, 0x92, 0x26, 0xe6, 0x65, 0x4f, 0xf7, 0xb6, 0xeb, 0xf9,
  0x0b, 0x24, 0x19, 0x01, 0xf7, 0xff, 0xd7, 0xd1, 0x55, 0x1a, 0x83, 0xa8,
  0xd4, 0xd1, 0x7f, 0x27, 0xd3, 0x3d, 0x00, 0x65, 0x95, 0xd8, 0x0e, 0x36,
  0x11, 0xab, 0xbe, 0x21, 0x22, 0xd1, 0xb1, 0xc7, 0xb9, 0x7f, 0xbc, 0x44,
  0xcf, 0xc7, 0xfb, 0xd2, 0xf0, 0xe6, 0x52, 0xff, 0x09, 0xe9, 0xc2, 0x27,
  0x3c, 0xe0, 0x51, 0x81, 0xde, 0xca, 0xcc, 0xbc, 0x9b, 0xad, 0xb6, 0x38,
  0xcf, 0xd0, 0x18, 0xf2, 0x0d, 0xda, 0x8d, 0x25, 0x09, 0x7f, 0x37, 0x7f,
  0xc6, 0x07, 0xe2, 0x21, 0x5a, 0xd7, 0xe2, 0x58, 0x32, 0x93, 0x1e, 0x19,
  0x22, 0xe0, 0xfc, 0xf8, 0xe5, 0x47, 0x01, 0xad, 0x50, 0xd9, 0x00, 0xc2,
  0x97, 0x3c, 0xe3, 0x38, 0xb4, 0x09, 0xb7, 0x7f, 0x0c, 0x43, 0x92, 0xd8,
  0xeb, 0x12, 0x35, 0xea, 0xcd, 0x92, 0x2a, 0xb7, 0x00, 0x7f, 0x3b, 0x1f,
  0x11, 0xf4, 0xfd, 0x71, 0x4a, 0x31, 0x47, 0xf1, 0x0d, 0xc6, 0xdd, 0x52,
  0x5a, 0x15, 0xb9, 0xc0, 0x64, 0xd5, 0x81, 0xc3, 0xad, 0xc5, 0xfe, 0x11,
  0xd2, 0xa4, 0x3e, 0x6d, 0xf2, 0xd6, 0x2d, 0xb0, 0x99, 0xd8, 0x8a, 0x0c,
  0x28, 0x23, 0x23, 0xae, 0x1a, 0x56, 0x81, 0x25, 0x3a, 0xaa, 0x12, 0xe3,
  0xe0, 0xc4, 0xfe, 0xff, 0xe4, 0xc4, 0xfe, 0xff, 0xe8, 0xc4, 0xfe, 0xff,
  0xec, 0xc4, 0xfe, 0xff, 0xf0, 0xc4, 0xfe, 0xff, 0xf4, 0xc4, 0xfe, 0xff,
  0xf8, 0xc4, 0xfe, 0xff, 0x72, 0xd4, 0xff, 0xff, 0x04, 0x00, 0x00, 0x00,
  0x50, 0x00, 0x00, 0x00, 0x2c, 0x12, 0x00, 0x00, 0x60, 0x2c, 0x00, 0x00,
  0x4d, 0xd4, 0xff, 0xff, 0x65, 0xf1, 0xff, 0xff, 0xc9, 0x07, 0x00, 0x00,
  0x5b, 0x16, 0x00, 0x00, 0x8f, 0x1d, 0x00, 0x00, 0x2f, 0x26, 0x00, 0x00,
  0x86, 0x10, 0x00, 0x00, 0xfb, 0x16, 0x00, 0x00, 0xaf, 0x29, 0x00, 0x00,
  0x25, 0x2a, 0x00, 0x00, 0xf5, 0x20, 0x00, 0x00, 0xd0, 0x0d, 0x00, 0x00,
  0xc7, 0x0a, 0x00, 0x00, 0xda, 0xfc, 0xff, 0xff, 0xca, 0x21, 0x00, 0x00,
  0xec, 0x1a, 0x00, 0x00, 0x9b, 0xec, 0xff, 0xff, 0x17, 0xfd, 0xff, 0xff,
  0xce, 0xd4, 0xff, 0xff, 0x04, 0x00, 0x00, 0x00, 0x90, 0x01, 0x00, 0x00,
  0xce, 0xf3, 0xc8, 0x2d, 0x39, 0x4e, 0x61, 0xb7, 0x31, 0x7f, 0x81, 0xb0,
  0x0e, 0xd4, 0x2c, 0xf3, 0xba, 0xef, 0xb6, 0xe3, 0x26, 0x65, 0x91, 0xec,
  0xc0, 0xb7, 0x0d, 0xeb, 0xea, 0x81, 0x43, 0xe8, 0x28, 0x44, 0xce, 0x26,
  0xb3, 0xc3, 0x96, 0x08, 0x22, 0xe4, 0x7f, 0x36, 0xbe, 0xa5, 0xf4, 0x05,
  0x41, 0x0e, 0x2c, 0xde, 0x32, 0xff, 0x50, 0x70, 0x46, 0x24, 0xf9, 0xe0,
  0xce, 0xe4, 0x2b, 0x1f, 0x1b, 0xcf, 0x28, 0xcb, 0xcb, 0xe7, 0x2a, 0x20,
  0x29, 0x81, 0xe2, 0x25, 0x34, 0x4d, 0x2c, 0x3a, 0xd8, 0x92, 0x69, 0xa5,
  0xdd, 0x59, 0xe7, 0x1e, 0x81, 0x85, 0x40, 0x5e, 0x46, 0x0c, 0xab, 0x2b,
  0x45, 0xb2, 0xf0, 0xcf, 0x09, 0xd8, 0xa4, 0xae, 0x13, 0xf2, 0xed, 0xc7,
  0xb9, 0x16, 0x4d, 0x57, 0x16, 0x11, 0x19, 0x81, 0xcc, 0x6a, 0xbd, 0x33,
  0xe8, 0x05, 0xc3, 0x85, 0xee, 0xc8, 0xc6, 0xfe, 0x31, 0x3c, 0x3d, 0x45,
  0x03, 0x04, 0xc4, 0xed, 0xe9, 0x00, 0x81, 0xe3, 0xa7, 0xfb, 0x85, 0xda,
  0xe3, 0xdd, 0xe8, 0x2b, 0xc0, 0x16, 0xa7, 0x1d, 0x27, 0x20, 0x81, 0x2e,
  0x51, 0xdf, 0xef, 0xf1, 0xba, 0x7f, 0x5e, 0x36, 0x9a, 0xb7, 0x3a, 0xa1,
  0xd8, 0xbf, 0x47, 0x1c, 0xe2, 0xce, 0x12, 0xb4, 0x4e, 0x74, 0xd1, 0xc6,
  0x3b, 0xd9, 0x63, 0x4d, 0xd4, 0xb1, 0xf0, 0x23, 0x81, 0x64, 0x07, 0xa5,
  0x88, 0x0d, 0xbc, 0x9e, 0xa7, 0xf9, 0x3a, 0x0b, 0x07, 0x1d, 0x81, 0xbb,
  0x5b, 0xdc, 0xfd, 0x8e, 0x2f, 0x51, 0xde, 0x46, 0xb7, 0xf7, 0x9c, 0xb5,
  0x20, 0xbc, 0xca, 0xde, 0xee, 0x05, 0x24, 0x38, 0xf4, 0xf3, 0xde, 0xa1,
  0xa2, 0x08, 0x3f, 0x1b, 0xe1, 0x81, 0xd7, 0xa4, 0x6a, 0x94, 0xa6, 0xd8,
  0x81, 0xba, 0xcb, 0x1f, 0xca, 0xa5, 0x47, 0xd8, 0xcd, 0x09, 0xea, 0x32,
  0xe9, 0xb1, 0xdf, 0x2d, 0xc6, 0x03, 0x42, 0x56, 0xd4, 0x2b, 0x4d, 0xef,
  0x47, 0x09, 0x81, 0x7e, 0xc7, 0xdb, 0xb1, 0xe9, 0xf8, 0x01, 0xff, 0x8d,
  0x53, 0x12, 0xbc, 0xc7, 0x1c, 0x28, 0x7f, 0xa7, 0xe9, 0x47, 0x28, 0xaa,
  0x06, 0x48, 0xd7, 0x0d, 0xa3, 0xaf, 0xb1, 0x81, 0x39, 0x5a, 0x3c, 0xa7,
  0x48, 0xad, 0xb3, 0xb6, 0x01, 0xd2, 0xb2, 0xe1, 0x02, 0x52, 0x1b, 0xe0,
  0xf5, 0x6d, 0x00, 0x7f, 0xa2, 0xff, 0x1e, 0x4f, 0x2f, 0x13, 0x81, 0xd2,
  0x1e, 0xb4, 0xf8, 0x07, 0xa8, 0x88, 0x79, 0xed, 0x39, 0x10, 0xed, 0xd6,
  0xde, 0xea, 0xf8, 0x07, 0x99, 0x81, 0xe4, 0xde, 0x6f, 0x49, 0xb5, 0xdf,
  0x0f, 0xe5, 0xdb, 0xfc, 0x0b, 0xd6, 0xfe, 0x20, 0xdb, 0x20, 0xf3, 0xdb,
  0xfb, 0xc2, 0x3d, 0x4e, 0x07, 0xba, 0x15, 0xc0, 0x52, 0xf3, 0x7f, 0x3c,
  0x09, 0x21, 0xa0, 0xb3, 0xdd, 0xe6, 0xc5, 0x7b, 0xe2, 0xd6, 0x64, 0x61,
  0x81, 0x71, 0xd6, 0x34, 0xdc, 0x40, 0xf9, 0xa1, 0x47, 0xc1, 0xc6, 0xea,
  0x73, 0x3f, 0xd6, 0xa1, 0xf4, 0xc6, 0xfe, 0xff, 0xf8, 0xc6, 0xfe, 0xff,
  0xfc, 0xc6, 0xfe, 0xff, 0x00, 0xc7, 0xfe, 0xff, 0x7a, 0xd6, 0xff, 0xff,
  0x04, 0x00, 0x00, 0x00, 0x50, 0x00, 0x00, 0x00, 0xa5, 0xfd, 0xff, 0xff,
  0xa0, 0xfc, 0xff, 0xff, 0x78, 0x02, 0x00, 0x00, 0x66, 0xf5, 0xff, 0xff,
  0xa3, 0x02, 0x00, 0x00, 0x2f, 0xfb, 0xff, 0xff, 0x58, 0x00, 0x00, 0x00,
  0x88, 0x09, 0x00, 0x00, 0x86, 0x09, 0x00, 0x00, 0xb0, 0x01, 0x00, 0x00,
  0x95, 0xff, 0xff, 0xff, 0xc3, 0x02, 0x00, 0x00, 0x8f, 0xff, 0xff, 0xff,
  0x10, 0xfc, 0xff, 0xff, 0xfb, 0x00, 0x00, 0x00, 0x93, 0xfe, 0xff, 0xff,
  0xd6, 0xfb, 0xff, 0xff, 0xb8, 0x00, 0x00, 0x00, 0xff, 0xff, 0xff, 0xff,
  0x7e, 0x00, 0x00, 0x00, 0xd6, 0xd6, 0xff, 0xff, 0x04, 0x00, 0x00, 0x00,
  0x90, 0x01, 0x00, 0x00, 0x98, 0x22, 0x25, 0xc2, 0x1f, 0x5e, 0xb4, 0x81,
  0x37, 0xd8, 0x49, 0x69, 0x0b, 0x5e, 0xe2, 0xac, 0x97, 0x02, 0x44, 0x5f,
  0x31, 0xb3, 0x13, 0x04, 0xf7, 0xe5, 0x4c, 0xcd, 0x27, 0x08, 0x39, 0x51,
  0xfe, 0x4c, 0xd3, 0x84, 0x36, 0xcf, 0x79, 0x7f, 0xa6, 0x95, 0x40, 0x9e,
  0x81, 0x0d, 0xf6, 0xe4, 0xdc, 0x32, 0x3c, 0xd4, 0x7a, 0x5a, 0xee, 0x0f,
  0x3d, 0xdb, 0xf3, 0x05, 0xef, 0xe2, 0x6a, 0x27, 0xe7, 0x28, 0x3b, 0x67,
  0x99, 0xfc, 0xd3, 0xf2, 0x44, 0x81, 0x86, 0x6c, 0x4e, 0xf3, 0xf4, 0x32,
  0xae, 0x06, 0xd5, 0x34, 0x12, 0x4b, 0xe5, 0x0d, 0x7f, 0xf1, 0x04, 0x54,
  0x25, 0x62, 0x11, 0xb1, 0x50, 0x9b, 0x31, 0x0e, 0x09, 0xed, 0x32, 0x4a,
  0x13, 0x56, 0x75, 0x11, 0x55, 0xe2, 0xc2, 0xc7, 0x81, 0x33, 0xf1, 0x31,
  0x13, 0xae, 0xd4, 0x93, 0x19, 0x8f, 0xf7, 0x8c, 0xd9, 0xbb, 0xea, 0x18,
  0xe2, 0x7f, 0xfc, 0x63, 0xe3, 0x17, 0xb2, 0x1e, 0xab, 0xd9, 0xd3, 0xdf,
  0x21, 0x92, 0x0e, 0x1f, 0x98, 0xf9, 0x37, 0x23, 0x42, 0x55, 0x03, 0xbb,
  0x7f, 0x3c, 0x20, 0xe7, 0xe0, 0x1c, 0xc9, 0xe4, 0x02, 0x4e, 0xc6, 0xd2,
  0xd4, 0xe5, 0x7f, 0x13, 0x6a, 0x0e, 0x40, 0xb9, 0xce, 0x03, 0x21, 0x51,
  0x0b, 0x2a, 0xa7, 0x30, 0xc0, 0xc5, 0xf0, 0xb1, 0x81, 0x17, 0x29, 0x38,
  0xe3, 0x3f, 0x3c, 0x0e, 0x06, 0x11, 0xc1, 0xc0, 0x01, 0x3a, 0x4b, 0x06,
  0x32, 0xc8, 0x4a, 0xb4, 0xfa, 0x39, 0x47, 0xbf, 0xb1, 0x7b, 0x9f, 0x57,
  0x0e, 0x81, 0xb8, 0xa6, 0x38, 0xdb, 0xc7, 0xa3, 0x9f, 0xab, 0x27, 0x26,
  0x90, 0xcc, 0xa6, 0x54, 0x81, 0x24, 0x4b, 0x16, 0xd3, 0xd3, 0x56, 0x16,
  0xc0, 0x61, 0x02, 0xb5, 0xf1, 0x4a, 0x01, 0x0f, 0xb1, 0xe3, 0xc1, 0xad,
  0x35, 0xe1, 0xd4, 0xa1, 0x06, 0x4d, 0xa2, 0x40, 0x81, 0x4b, 0xc1, 0x0b,
  0x99, 0x1d, 0x06, 0x5b, 0x74, 0x07, 0x8b, 0x49, 0xba, 0x23, 0x09, 0x7f,
  0xcf, 0x12, 0x16, 0x31, 0x54, 0xb7, 0x43, 0x09, 0xef, 0xcc, 0xe7, 0xee,
  0xb0, 0xe1, 0x64, 0x61, 0x7f, 0x39, 0xda, 0x58, 0x47, 0x5d, 0xb9, 0x47,
  0x9f, 0xa1, 0x7f, 0x95, 0x00, 0xe2, 0x79, 0x16, 0xbf, 0x6a, 0xab, 0xd1,
  0x24, 0x11, 0x90, 0x81, 0xa3, 0x22, 0xbb, 0x75, 0x18, 0x8b, 0xef, 0x99,
  0xb2, 0xed, 0xad, 0x3e, 0xf1, 0xaa, 0xef, 0x5c, 0x7f, 0x9d, 0xef, 0x42,
  0x32, 0x86, 0x56, 0xb1, 0x60, 0x5c, 0x12, 0xf6, 0xab, 0x4d, 0x1e, 0xed,
  0xa3, 0xbd, 0xaf, 0x1f, 0xa8, 0x76, 0xdd, 0x17, 0x43, 0xf0, 0xc5, 0xfe,
  0xcc, 0x79, 0xe7, 0x81, 0xfc, 0x7f, 0x6d, 0xc7, 0x3b, 0xa9, 0xe6, 0x4c,
  0xc6, 0xfd, 0x54, 0xc3, 0x20, 0x29, 0xc1, 0x10, 0xdd, 0x98, 0xf4, 0x63,
  0x01, 0xbd, 0x99, 0x39, 0x02, 0x7f, 0xdc, 0x5a, 0xab, 0x55, 0x8c, 0x43,
  0xdf, 0xaf, 0xda, 0x28, 0xba, 0xfc, 0x8a, 0xf8, 0xfc, 0xc8, 0xfe, 0xff,
  0x00, 0xc9, 0xfe, 0xff, 0x04, 0xc9, 0xfe, 0xff, 0x08, 0xc9, 0xfe, 0xff,
  0x0c, 0xc9, 0xfe, 0xff, 0x10, 0xc9, 0xfe, 0xff, 0x14, 0xc9, 0xfe, 0xff,
  0x8e, 0xd8, 0xff, 0xff, 0x04, 0x00, 0x00, 0x00, 0x50, 0x00, 0x00, 0x00,
  0x34, 0xf6, 0xff, 0xff, 0x47, 0xf0, 0xff, 0xff, 0xb9, 0xed, 0xff, 0xff,
  0x29, 0xe9, 0xff, 0xff, 0xde, 0xc2, 0xff, 0xff, 0xc9, 0xde, 0xff, 0xff,
  0x9a, 0x0a, 0x00, 0x00, 0xd0, 0x0b, 0x00, 0x00, 0xe5, 0x27, 0x00, 0x00,
  0x1b, 0x06, 0x00, 0x00, 0x9c, 0x13, 0x00, 0x00, 0xaa, 0xd8, 0xff, 0xff,
  0x85, 0x08, 0x00, 0x00, 0x22, 0xe8, 0xff, 0xff, 0xc2, 0x08, 0x00, 0x00,
  0xc6, 0xfc, 0xff, 0xff, 0x2c, 0xef, 0xff, 0xff, 0x2c, 0x30, 0x00, 0x00,
  0x67, 0xfb, 0xff, 0xff, 0x13, 0xb7, 0xff, 0xff, 0xea, 0xd8, 0xff, 0xff,
  0x04, 0x00, 0x00, 0x00, 0x90, 0x01, 0x00, 0x00, 0xa1, 0xa3, 0x51, 0x1b,
  0x5c, 0xd8, 0x24, 0x3e, 0xf0, 0x26, 0x47, 0x29, 0xbf, 0xb0, 0x81, 0xad,
  0xe3, 0x45, 0xd9, 0x42, 0xdd, 0xd8, 0xe4, 0x2a, 0x49, 0xfd, 0x3f, 0x31,
  0x0e, 0x36, 0xf0, 0xb6, 0xd1, 0x69, 0x81, 0x3a, 0x1b, 0x21, 0x09, 0xcc,
  0xf3, 0x19, 0x41, 0x2e, 0xda, 0x58, 0x95, 0x09, 0x3c, 0xbc, 0x17, 0x36,
  0xdc, 0xf6, 0xb0, 0xec, 0x2c, 0xc4, 0x7f, 0x11, 0xd4, 0x3c, 0x94, 0x49,
  0xf2, 0xfa, 0x5d, 0x33, 0xd3, 0x75, 0xbf, 0xf2, 0xf6, 0x9a, 0xcb, 0x7f,
  0x3d, 0x25, 0x0f, 0x40, 0x69, 0x08, 0xec, 0x77, 0x3d, 0xd1, 0x7f, 0x0c,
  0x02, 0x71, 0x33, 0x1f, 0xdc, 0x5d, 0xcf, 0x26, 0xf3, 0xc3, 0xbf, 0x15,
  0xe0, 0xd1, 0x45, 0xb5, 0x4b, 0xac, 0xe3, 0xbe, 0xf6, 0x4d, 0x5c, 0x09,
  0xda, 0x4d, 0x18, 0x7f, 0xf5, 0xf6, 0x2b, 0x22, 0x0b, 0x00, 0x0d, 0x81,
  0x04, 0x1a, 0x39, 0xe9, 0x43, 0x54, 0xd8, 0x17, 0x43, 0xe9, 0xed, 0x2d,
  0xa2, 0x37, 0x9b, 0x8d, 0xdb, 0x3d, 0xb3, 0x00, 0xca, 0x4f, 0x6f, 0xe9,
  0xb8, 0x9b, 0x41, 0x7f, 0x56, 0xbd, 0x69, 0xa1, 0x05, 0x2f, 0xfa, 0xdb,
  0x1d, 0xe0, 0x1a, 0x81, 0x18, 0xa1, 0xec, 0xf7, 0xdb, 0xd6, 0xda, 0xad,
  0x3c, 0xd0, 0x9e, 0x3a, 0xa3, 0x21, 0x19, 0x0f, 0xca, 0xdd, 0x73, 0x59,
  0x95, 0xfd, 0xf3, 0xa3, 0x22, 0x36, 0x53, 0x58, 0x87, 0x0f, 0x7f, 0x9e,
  0xd3, 0xbf, 0xb6, 0x0d, 0x19, 0xa0, 0x01, 0x48, 0xd2, 0x45, 0x81, 0x66,
  0xb6, 0x9b, 0x0a, 0xe7, 0x1a, 0xf8, 0xd0, 0x27, 0xdd, 0x4d, 0x0f, 0xa8,
  0x4b, 0x1b, 0xdc, 0xca, 0x36, 0xe2, 0x2e, 0x7f, 0x2f, 0xd1, 0x5d, 0x71,
  0x39, 0x19, 0x26, 0xb8, 0x3e, 0xcd, 0x35, 0xaa, 0xa1, 0x0a, 0x5d, 0x1b,
  0xef, 0xc2, 0x04, 0xf7, 0x0d, 0xf4, 0xed, 0x16, 0xd9, 0xfb, 0xca, 0x81,
  0x20, 0xe1, 0x45, 0x42, 0x7f, 0xbb, 0x2f, 0x8e, 0xfc, 0x0e, 0xc6, 0x74,
  0x16, 0x9d, 0xd1, 0x0d, 0x5f, 0x62, 0xde, 0x51, 0xee, 0xdb, 0x7a, 0xd5,
  0xa3, 0xf2, 0xce, 0x44, 0xe9, 0x2d, 0x59, 0x02, 0x58, 0x36, 0x81, 0x34,
  0x05, 0xe7, 0xa8, 0x16, 0x1f, 0xc8, 0xbb, 0xdd, 0x72, 0x31, 0x37, 0x38,
  0xf0, 0x31, 0x14, 0x81, 0xc9, 0x18, 0xdf, 0xee, 0x8e, 0x97, 0x7c, 0x37,
  0xab, 0xbb, 0x0c, 0x69, 0xdc, 0xb9, 0xd4, 0xb1, 0x7c, 0x09, 0xe1, 0x15,
  0x01, 0xd4, 0xfe, 0x52, 0x7f, 0x90, 0xb1, 0x35, 0x27, 0x00, 0x57, 0x1d,
  0x81, 0xf7, 0xd9, 0x0f, 0xdd, 0xd6, 0x13, 0x27, 0xdc, 0x46, 0x06, 0xd2,
  0x99, 0xb1, 0x46, 0x91, 0x44, 0x12, 0xe4, 0xbe, 0xcb, 0x0b, 0xe7, 0xb2,
  0x0c, 0xc8, 0xfd, 0x5d, 0x1d, 0xf9, 0x40, 0x04, 0x66, 0x5a, 0xf2, 0x12,
  0x06, 0x30, 0xe1, 0x81, 0x57, 0x3b, 0x43, 0x1d, 0x42, 0x79, 0xca, 0x7f,
  0x1f, 0x09, 0x3f, 0xb7, 0x7b, 0x40, 0x19, 0xf0, 0x05, 0x13, 0xec, 0xbb,
  0x10, 0xcb, 0xfe, 0xff, 0x14, 0xcb, 0xfe, 0xff, 0x18, 0xcb, 0xfe, 0xff,
  0x1c, 0xcb, 0xfe, 0xff, 0x96, 0xda, 0xff, 0xff, 0x04, 0x00, 0x00, 0x00,
  0x50, 0x00, 0x00, 0x00, 0x43, 0x01, 0x00, 0x00, 0xa5, 0xff, 0xff, 0xff,
  0x69, 0x0c, 0x00, 0x00, 0x22, 0x01, 0x00, 0x00, 0xd8, 0x03, 0x00, 0x00,
  0xf9, 0xfe, 0xff, 0xff, 0x02, 0xfc, 0xff, 0xff, 0x90, 0x02, 0x00, 0x00,
  0x26, 0x00, 0x00, 0x00, 0x00, 0x07, 0x00, 0x00, 0xea, 0x02, 0x00, 0x00,
  0xa1, 0x04, 0x00, 0x00, 0x6f, 0x03, 0x00, 0x00, 0x3a, 0xfd, 0xff, 0xff,
  0x7d, 0xfc, 0xff, 0xff, 0xc1, 0x00, 0x00, 0x00, 0xa9, 0x05, 0x00, 0x00,
  0x8e, 0xfc, 0xff, 0xff, 0x95, 0x00, 0x00, 0x00, 0x57, 0x02, 0x00, 0x00,
  0xf2, 0xda, 0xff, 0xff, 0x04, 0x00, 0x00, 0x00, 0x90, 0x01, 0x00, 0x00,
  0xc6, 0x6c, 0x81, 0xe8, 0x31, 0xe9, 0x4d, 0xd5, 0x3f, 0x3e, 0xdb, 0x44,
  0x16, 0x86, 0xf2, 0xac, 0xa4, 0x13, 0xc0, 0x2f, 0xbf, 0x55, 0x54, 0x7f,
  0xb0, 0xcd, 0x7e, 0xc2, 0x94, 0xf6, 0x02, 0xd6, 0x6b, 0x18, 0x2e, 0xfc,
  0xa9, 0x1d, 0xaf, 0xc5, 0x41, 0xaa, 0x68, 0xb6, 0xc6, 0x19, 0xd3, 0x49,
  0x00, 0xd8, 0xf9, 0x97, 0x7f, 0x2d, 0xc1, 0xb1, 0xd7, 0x1c, 0x95, 0x55,
  0xe6, 0xec, 0xed, 0x40, 0xa4, 0xc1, 0xcd, 0x78, 0x1b, 0x7c, 0xe3, 0x2c,
  0x0c, 0x17, 0x81, 0x2b, 0x3f, 0xf7, 0x75, 0xeb, 0x35, 0xe7, 0xd6, 0x1a,
  0x17, 0x05, 0xc8, 0xdb, 0x05, 0xba, 0x6f, 0xf9, 0x81, 0x1b, 0x2f, 0xfb,
  0x0a, 0xb0, 0x1b, 0xa6, 0x06, 0x7f, 0xf4, 0x47, 0x13, 0x49, 0xd9, 0x30,
  0x41, 0xf0, 0x39, 0x13, 0x44, 0x2b, 0xd5, 0xe8, 0xa1, 0xb8, 0xf0, 0x1d,
  0x5e, 0x95, 0x03, 0xc2, 0xe9, 0x6a, 0x09, 0xdc, 0xc6, 0xda, 0x08, 0xae,
  0x42, 0x55, 0x45, 0xf4, 0x7f, 0x02, 0x3a, 0x0a, 0xa3, 0xab, 0x06, 0x21,
  0xc9, 0xe4, 0x4c, 0x81, 0x22, 0x4a, 0xb7, 0xf1, 0xc9, 0x45, 0x5e, 0x76,
  0xc1, 0xba, 0xd3, 0x26, 0x8c, 0xf8, 0x28, 0xa4, 0x19, 0x8c, 0x7f, 0x05,
  0xde, 0xcc, 0x79, 0x16, 0xf2, 0x1c, 0x42, 0x81, 0x08, 0xdf, 0xf2, 0xf5,
  0x59, 0x46, 0x4b, 0x03, 0x23, 0xbb, 0xc9, 0x4f, 0x4b, 0x99, 0xa0, 0x1e,
  0x81, 0x0b, 0x52, 0xdc, 0xcc, 0x58, 0x2e, 0xd1, 0x3a, 0x26, 0xe0, 0x1d,
  0xb4, 0xc9, 0x7f, 0x5d, 0x19, 0x91, 0x2c, 0xa8, 0x78, 0x22, 0x00, 0x9d,
  0xf0, 0x34, 0x47, 0x39, 0x67, 0x89, 0x32, 0xac, 0x94, 0x2a, 0xe4, 0xb4,
  0xb2, 0x53, 0xe3, 0xd8, 0x2d, 0x1c, 0xf7, 0x27, 0x7f, 0x5c, 0xb7, 0x20,
  0x36, 0x3f, 0xd1, 0xce, 0x04, 0x2f, 0x0f, 0x81, 0xca, 0xfe, 0x17, 0x56,
  0xf4, 0x44, 0x26, 0x5a, 0xb6, 0xb1, 0xf7, 0x13, 0x85, 0xdc, 0x90, 0x2e,
  0xae, 0x5c, 0xd5, 0xac, 0x96, 0x3f, 0xb6, 0xed, 0xb0, 0x4a, 0xf6, 0x44,
  0xc8, 0x8b, 0x81, 0xd5, 0x26, 0xf3, 0xa8, 0x20, 0xa8, 0xd3, 0x1d, 0x1e,
  0xc0, 0x2e, 0x07, 0xf8, 0xd5, 0xd8, 0x25, 0xcd, 0x48, 0x22, 0x8a, 0x7f,
  0xda, 0x7b, 0x58, 0x4d, 0x9f, 0x5f, 0xe8, 0x13, 0xb3, 0xf4, 0x67, 0xc4,
  0xec, 0xbf, 0xf5, 0x81, 0xa5, 0xff, 0x5a, 0x58, 0xbc, 0xf8, 0x38, 0x4b,
  0x7f, 0xa4, 0xed, 0x7a, 0xb0, 0xf1, 0x25, 0xb6, 0xeb, 0xed, 0x02, 0x29,
  0x58, 0x0b, 0xd0, 0x38, 0xec, 0x4d, 0x0d, 0x81, 0x23, 0x54, 0x1e, 0x10,
  0x4e, 0x87, 0x93, 0x59, 0x2e, 0x53, 0x55, 0xc7, 0x4f, 0x88, 0x39, 0x62,
  0xd0, 0x7f, 0x89, 0xb2, 0xe1, 0x10, 0x8f, 0xe2, 0x26, 0x01, 0x26, 0x1a,
  0xbe, 0xc2, 0xdd, 0x4a, 0xf1, 0xa4, 0x08, 0x2f, 0x22, 0xec, 0x09, 0x45,
  0x81, 0xd8, 0x89, 0xed, 0x1b, 0x47, 0x9b, 0x44, 0x7b, 0x00, 0x0b, 0x10,
  0x06, 0xdf, 0x39, 0xf4, 0x18, 0xcd, 0xfe, 0xff, 0x1c, 0xcd, 0xfe, 0xff,
  0x20, 0xcd, 0xfe, 0xff, 0x24, 0xcd, 0xfe, 0xff, 0x28, 0xcd, 0xfe, 0xff,
  0x2c, 0xcd, 0xfe, 0xff, 0x30, 0xcd, 0xfe, 0xff, 0xaa, 0xdc, 0xff, 0xff,
  0x04, 0x00, 0x00, 0x00, 0x50, 0x00, 0x00, 0x00, 0xcb, 0x02, 0x00, 0x00,
  0x5a, 0x02, 0x00, 0x00, 0xdb, 0x00, 0x00, 0x00, 0x1b, 0xf8, 0xff, 0xff,
  0x5c, 0x00, 0x00, 0x00, 0x40, 0xfe, 0xff, 0xff, 0xad, 0x03, 0x00, 0x00,
  0x36, 0xfa, 0xff, 0xff, 0x3e, 0xfa, 0xff, 0xff, 0xc4, 0x01, 0x00, 0x00,
  0xe7, 0x02, 0x00, 0x00, 0x1c, 0x09, 0x00, 0x00, 0x7e, 0xf9, 0xff, 0xff,
  0x57, 0xfd, 0xff, 0xff, 0xe0, 0xfb, 0xff, 0xff, 0xf5, 0x04, 0x00, 0x00,
  0xa2, 0x02, 0x00, 0x00, 0x55, 0x00, 0x00, 0x00, 0x8a, 0xfd, 0xff, 0xff,
  0x96, 0xf9, 0xff, 0xff, 0x06, 0xdd, 0xff, 0xff, 0x04, 0x00, 0x00, 0x00,
  0x90, 0x01, 0x00, 0x00, 0x2d, 0x22, 0xe6, 0xc9, 0xe8, 0x0e, 0xb8, 0x02,
  0x12, 0x50, 0xb1, 0x19, 0x81, 0xfc, 0x4d, 0x44, 0xef, 0x29, 0x1f, 0x37,
  0xcc, 0x82, 0xc9, 0x4e, 0x16, 0x2e, 0x39, 0xb8, 0x46, 0x31, 0x64, 0xff,
  0xc0, 0x2a, 0xc3, 0xe2, 0x81, 0xe2, 0xcf, 0x3e, 0xaf, 0xc7, 0xca, 0xdd,
  0xcd, 0xa8, 0xd9, 0x53, 0xe9, 0xe7, 0x18, 0xc5, 0x4a, 0xab, 0xd7, 0x9b,
  0xc6, 0x7f, 0x67, 0xd0, 0x4f, 0x43, 0x43, 0x78, 0xb8, 0x37, 0x92, 0x5c,
  0xb0, 0x81, 0x58, 0xc9, 0x26, 0xa4, 0xb6, 0x2b, 0xf5, 0x08, 0x64, 0x6f,
  0xfa, 0xa1, 0xf1, 0x61, 0x72, 0x18, 0x47, 0x26, 0x87, 0xf2, 0xd6, 0x05,
  0x77, 0x3c, 0x4b, 0xe2, 0xf7, 0x0a, 0xf0, 0x81, 0xd6, 0xbf, 0x7d, 0xd4,
  0xc4, 0xeb, 0xcc, 0x34, 0x47, 0x0d, 0xc4, 0xef, 0x81, 0x34, 0x59, 0x09,
  0x5a, 0xea, 0xd0, 0xab, 0x56, 0x51, 0xd1, 0xc4, 0xb1, 0x81, 0x18, 0x01,
  0x09, 0x3a, 0x1e, 0x2c, 0x45, 0x8e, 0x6f, 0x5f, 0xcc, 0x30, 0x7c, 0xe9,
  0xdd, 0x96, 0x1d, 0x3c, 0xc2, 0x34, 0xa5, 0xe4, 0xc5, 0xec, 0xf1, 0x1c,
  0x7f, 0x35, 0xad, 0x5c, 0x54, 0x3e, 0x59, 0x5f, 0x46, 0xa5, 0x7f, 0x4e,
  0xb3, 0x3c, 0xfe, 0x24, 0x3d, 0xd9, 0xc3, 0x1e, 0xbd, 0x9e, 0xf8, 0xda,
  0xfb, 0x3d, 0xfd, 0x15, 0x7f, 0x7c, 0xb5, 0x36, 0x30, 0x53, 0x1e, 0x9c,
  0x0e, 0xb0, 0xe0, 0xd2, 0x3a, 0x0e, 0xb6, 0x13, 0x4b, 0x32, 0x6f, 0x0b,
  0x9b, 0x1c, 0x3d, 0xc6, 0x59, 0xbe, 0xd4, 0x94, 0x39, 0xdc, 0x0d, 0xe7,
  0x17, 0x49, 0x24, 0x7f, 0x40, 0xcf, 0xc4, 0x97, 0xb2, 0xf8, 0xb2, 0xbd,
  0xbe, 0x4c, 0x58, 0x0f, 0x37, 0x28, 0xe5, 0x7f, 0xc2, 0xe0, 0x43, 0xd8,
  0x92, 0x53, 0xa9, 0xd5, 0x59, 0x53, 0x4d, 0x4d, 0x06, 0xd4, 0xb8, 0xec,
  0xf5, 0xb1, 0xfd, 0x5d, 0x30, 0x4a, 0x02, 0xc2, 0x48, 0x2e, 0x7f, 0x5e,
  0xcd, 0x6f, 0x2d, 0x0d, 0xbf, 0x03, 0xfa, 0x59, 0xf5, 0x1a, 0x81, 0xb6,
  0x84, 0xac, 0x04, 0xef, 0x5e, 0xd4, 0x03, 0xda, 0x64, 0xa0, 0x41, 0x1a,
  0x13, 0x81, 0x25, 0x3f, 0xbc, 0xd0, 0xbe, 0x9b, 0x4c, 0xd9, 0x0c, 0xfa,
  0xa4, 0x83, 0x11, 0x40, 0xea, 0x7f, 0x9e, 0xe7, 0x60, 0x64, 0xdd, 0xc7,
  0xfc, 0x29, 0x1d, 0x9c, 0x9c, 0x12, 0xc0, 0x43, 0xbb, 0x87, 0xc5, 0xf9,
  0x44, 0x1c, 0xa2, 0xba, 0x98, 0xf5, 0x27, 0xb7, 0xa7, 0x6b, 0x81, 0xaf,
  0xc5, 0x1a, 0x15, 0xab, 0x5b, 0xcf, 0x2b, 0xc4, 0xe1, 0x02, 0xd4, 0xd4,
  0x31, 0x25, 0x59, 0xfd, 0xf2, 0x28, 0x1d, 0xe0, 0xf9, 0xc9, 0xd7, 0x1c,
  0x43, 0x75, 0x5c, 0x7f, 0x00, 0x36, 0x38, 0x0d, 0x95, 0xd7, 0x96, 0xc9,
  0x9b, 0xc4, 0x61, 0x07, 0x92, 0xc7, 0x31, 0xc4, 0x7f, 0xe8, 0xf0, 0xd5,
  0x10, 0xcf, 0x7b, 0x7f, 0xb3, 0x36, 0xd3, 0xf6, 0x47, 0x6d, 0xf2, 0xca,
  0x3a, 0x5d, 0x05, 0xd1, 0x9f, 0x54, 0xdb, 0x58, 0x2c, 0xcf, 0xfe, 0xff,
  0x30, 0xcf, 0xfe, 0xff, 0x34, 0xcf, 0xfe, 0xff, 0x38, 0xcf, 0xfe, 0xff,
  0x3c, 0xcf, 0xfe, 0xff, 0xb6, 0xde, 0xff, 0xff, 0x04, 0x00, 0x00, 0x00,
  0x50, 0x00, 0x00, 0x00, 0x32, 0x23, 0x00, 0x00, 0x96, 0x02, 0x00, 0x00,
  0x93, 0x31, 0x00, 0x00, 0x68, 0x09, 0x00, 0x00, 0xf7, 0x15, 0x00, 0x00,
  0x19, 0x24, 0x00, 0x00, 0x58, 0xe8, 0xff, 0xff, 0xf0, 0x1e, 0x00, 0x00,
  0xda, 0xf6, 0xff, 0xff, 0x65, 0x21, 0x00, 0x00, 0x9a, 0x03, 0x00, 0x00,
  0x0b, 0x0d, 0x00, 0x00, 0x06, 0xdd, 0xff, 0xff, 0x55, 0xcc, 0xff, 0xff,
  0x43, 0xe4, 0xff, 0xff, 0xa3, 0xc9, 0xff, 0xff, 0x87, 0xe1, 0xff, 0xff,
  0x16, 0x10, 0x00, 0x00, 0x21, 0xe7, 0xff, 0xff, 0xae, 0xf6, 0xff, 0xff,
  0x12, 0xdf, 0xff, 0xff, 0x04, 0x00, 0x00, 0x00, 0x40, 0x01, 0x00, 0x00,
  0xed, 0xae, 0x39, 0xb7, 0x29, 0x91, 0xd8, 0xbb, 0x7f, 0x48, 0xc9, 0xe4,
  0xd7, 0xc4, 0xd9, 0x4f, 0x7f, 0xbf, 0xfa, 0x04, 0x02, 0x19, 0xf3, 0x9b,
  0xea, 0xfc, 0xd0, 0xf7, 0x52, 0x0c, 0x0d, 0xb7, 0x88, 0x88, 0x8c, 0x75,
  0x83, 0xdd, 0xce, 0x31, 0x45, 0x2c, 0xbf, 0x61, 0xe6, 0x81, 0x46, 0x47,
  0xd0, 0xea, 0x50, 0x3f, 0x81, 0xd7, 0x52, 0x50, 0x2d, 0x5c, 0xb9, 0x5b,
  0xa0, 0x98, 0x7a, 0xae, 0xc1, 0x37, 0xaa, 0xd6, 0x37, 0x02, 0xaf, 0xe5,
  0xe5, 0xd1, 0x16, 0x3c, 0x29, 0x7f, 0xca, 0xc3, 0x0d, 0xa3, 0x15, 0xb7,
  0x86, 0x10, 0x94, 0xd0, 0xed, 0xb8, 0x4f, 0x32, 0x81, 0xfd, 0x1e, 0x46,
  0x3f, 0x1b, 0x1e, 0x68, 0x61, 0x1f, 0x25, 0xa3, 0x44, 0x1c, 0x1f, 0x34,
  0x97, 0x0c, 0x81, 0xa3, 0xc6, 0x2d, 0x43, 0x2a, 0x2d, 0xd1, 0xaa, 0xb1,
  0x46, 0xb3, 0xf0, 0x81, 0xf1, 0xaa, 0x39, 0x26, 0x02, 0xca, 0xf3, 0xf5,
  0x7f, 0x2f, 0xf1, 0xf3, 0x71, 0xa5, 0xa1, 0x2a, 0x42, 0xba, 0xdf, 0x39,
  0xac, 0xd3, 0xe1, 0x3f, 0xf3, 0x1c, 0x51, 0x16, 0x93, 0x5a, 0x75, 0x0d,
  0xbf, 0xd5, 0x81, 0xac, 0x8f, 0x8d, 0x05, 0xcb, 0x03, 0xdc, 0x6f, 0xd8,
  0x0e, 0x0e, 0x3d, 0x07, 0x7f, 0xa3, 0x19, 0x10, 0x61, 0xcb, 0xb5, 0xcc,
  0x63, 0x56, 0x57, 0x05, 0xc2, 0x81, 0xb4, 0x07, 0x44, 0xb7, 0xba, 0xf3,
  0xef, 0x2c, 0x74, 0x47, 0xc7, 0xba, 0x69, 0x47, 0x5f, 0x0f, 0x18, 0x59,
  0x02, 0x76, 0x81, 0x8f, 0x2d, 0x34, 0xe4, 0x54, 0xd0, 0x4b, 0xb4, 0x3e,
  0x19, 0x5c, 0xc1, 0x61, 0x04, 0x39, 0xce, 0x7f, 0x46, 0x9a, 0xa6, 0x78,
  0x2c, 0x7f, 0xbe, 0x7a, 0x20, 0x28, 0x5b, 0x8d, 0x93, 0x15, 0x04, 0xd1,
  0xa4, 0x5f, 0xdb, 0xc7, 0x5d, 0x73, 0x29, 0xdb, 0x65, 0x2e, 0x26, 0xea,
  0x76, 0x97, 0x16, 0x7f, 0x66, 0x5d, 0x88, 0xc8, 0x5e, 0x61, 0x7f, 0xa4,
  0xeb, 0x79, 0xbe, 0x53, 0x0e, 0xaa, 0x26, 0x07, 0x67, 0x15, 0xa6, 0x07,
  0xaa, 0x96, 0x7f, 0x5e, 0x99, 0x00, 0x31, 0x02, 0x9b, 0x87, 0xcb, 0x40,
  0x18, 0x07, 0xc4, 0x7f, 0xea, 0x9a, 0x07, 0xea, 0xdb, 0xbb, 0xda, 0xf1,
  0x6c, 0x26, 0x4e, 0x64, 0x5c, 0x5e, 0xd8, 0x35, 0x57, 0x81, 0xd7, 0x1b,
  0xf4, 0x4a, 0x31, 0xd9, 0xc6, 0xb5, 0x5b, 0x07, 0xe8, 0xd0, 0xfe, 0xff,
  0xec, 0xd0, 0xfe, 0xff, 0x66, 0xe0, 0xff, 0xff, 0x04, 0x00, 0x00, 0x00,
  0x40, 0x00, 0x00, 0x00, 0x36, 0x06, 0x00, 0x00, 0x7c, 0xf8, 0xff, 0xff,
  0x92, 0xfd, 0xff, 0xff, 0x5c, 0xfe, 0xff, 0xff, 0xca, 0x01, 0x00, 0x00,
  0xa8, 0x02, 0x00, 0x00, 0x91, 0x01, 0x00, 0x00, 0xf1, 0xfe, 0xff, 0xff,
  0x70, 0xfc, 0xff, 0xff, 0x05, 0xfd, 0xff, 0xff, 0x3f, 0x01, 0x00, 0x00,
  0x37, 0xfc, 0xff, 0xff, 0x13, 0x01, 0x00, 0x00, 0xb2, 0x04, 0x00, 0x00,
  0x83, 0x02, 0x00, 0x00, 0x87, 0x04, 0x00, 0x00, 0xb2, 0xe0, 0xff, 0xff,
  0x04, 0x00, 0x00, 0x00, 0x00, 0x01, 0x00, 0x00, 0xe7, 0x63, 0x9c, 0x63,
  0x52, 0x52, 0xb7, 0x07, 0x90, 0x4f, 0xe6, 0xe2, 0x2f, 0x7f, 0x05, 0x98,
  0xa3, 0xfe, 0xae, 0x47, 0xa0, 0xb2, 0x7f, 0x56, 0x27, 0x6e, 0x3a, 0xfc,
  0x5c, 0x68, 0x43, 0x39, 0x54, 0xe1, 0xe8, 0x04, 0xf4, 0xab, 0x50, 0xb9,
  0x48, 0x37, 0x2b, 0xa2, 0x79, 0xa9, 0x7f, 0x04, 0x44, 0x02, 0xbc, 0xbf,
  0xab, 0xb2, 0xd7, 0xfd, 0xb7, 0xe3, 0xdf, 0xf1, 0x5e, 0x2b, 0x09, 0x81,
  0xe5, 0xdd, 0x7f, 0xe1, 0xe9, 0xd6, 0xfc, 0x0c, 0x36, 0xff, 0xbe, 0x20,
  0xe9, 0xf7, 0x3f, 0xe3, 0x81, 0x59, 0x0c, 0x6e, 0xd2, 0x0a, 0x63, 0x59,
  0x54, 0xab, 0x19, 0x04, 0x5e, 0x0d, 0x29, 0x94, 0x4c, 0x7f, 0x3f, 0x4f,
  0xd0, 0xfe, 0xbd, 0x2d, 0xc1, 0x24, 0xd6, 0x12, 0xf4, 0xb6, 0xd1, 0xb0,
  0x2b, 0xea, 0xd1, 0xd4, 0x2f, 0xca, 0xb0, 0xda, 0x00, 0x29, 0xbd, 0x3b,
  0x81, 0x0b, 0x48, 0x05, 0x7f, 0xaf, 0x3d, 0x2b, 0x46, 0xd8, 0x99, 0x0c,
  0x2b, 0x88, 0x46, 0xf1, 0x05, 0xcc, 0xea, 0x54, 0x38, 0xac, 0x81, 0xf7,
  0xdd, 0xde, 0xdb, 0x28, 0xec, 0xcf, 0x9c, 0x34, 0xcb, 0x9f, 0x83, 0x31,
  0x13, 0x0f, 0xfe, 0xd2, 0xd5, 0x00, 0xb5, 0xf5, 0x1a, 0xd2, 0x04, 0x29,
  0xa0, 0xe1, 0xcf, 0x7f, 0x3d, 0xce, 0x22, 0x81, 0xe8, 0xa0, 0x3f, 0x6a,
  0xf1, 0xde, 0x76, 0x64, 0x58, 0x2b, 0x88, 0xea, 0xe6, 0x04, 0xc7, 0x1a,
  0x1e, 0xdd, 0xbf, 0x81, 0xc2, 0xd3, 0xaf, 0x40, 0x33, 0x03, 0x3f, 0x1b,
  0xc6, 0xb4, 0xb8, 0xe1, 0xe6, 0xe4, 0xfc, 0x81, 0x5b, 0x11, 0xf6, 0x6e,
  0x6d, 0x18, 0x5a, 0x18, 0x0e, 0x59, 0xb6, 0x7f, 0x9e, 0xca, 0x3d, 0xb3,
  0xbf, 0x41, 0xf1, 0xd4, 0xef, 0x4a, 0x74, 0x5d, 0x81, 0x39, 0xef, 0xe8,
  0xc9, 0xc2, 0x2a, 0x00, 0x81, 0x06, 0x4d, 0xb4, 0x33, 0x87, 0x00, 0xcc,
  0x48, 0xd2, 0xfe, 0xff, 0x4c, 0xd2, 0xfe, 0xff, 0x50, 0xd2, 0xfe, 0xff,
  0x54, 0xd2, 0xfe, 0xff, 0x58, 0xd2, 0xfe, 0xff, 0x5c, 0xd2, 0xfe, 0xff,
  0x60, 0xd2, 0xfe, 0xff, 0xda, 0xe1, 0xff, 0xff, 0x04, 0x00, 0x00, 0x00,
  0x40, 0x00, 0x00, 0x00, 0xb8, 0x33, 0x00, 0x00, 0x74, 0x21, 0x00, 0x00,
  0xe7, 0xfa, 0xff, 0xff, 0x49, 0x23, 0x00, 0x00, 0x43, 0xd2, 0xff, 0xff,
  0xb0, 0x42, 0x00, 0x00, 0x2b, 0xdb, 0xff, 0xff, 0x54, 0x30, 0x00, 0x00,
  0xc3, 0xdf, 0xff, 0xff, 0x85, 0xdc, 0xff, 0xff, 0xcd, 0xe6, 0xff, 0xff,
  0x0f, 0xdc, 0xff, 0xff, 0x36, 0x02, 0x00, 0x00, 0x7f, 0xb8, 0xff, 0xff,
  0x2f, 0x30, 0x00, 0x00, 0x66, 0xde, 0xff, 0xff, 0x26, 0xe2, 0xff, 0xff,
  0x04, 0x00, 0x00, 0x00, 0x00, 0x01, 0x00, 0x00, 0xaf, 0x9b, 0xef, 0x9d,
  0x7f, 0xf1, 0xac, 0xc5, 0x83, 0x2c, 0xb7, 0x24, 0x09, 0x6c, 0xf9, 0xd6,
  0xed, 0x81, 0x19, 0x3c, 0xb6, 0x90, 0x0e, 0xf2, 0x12, 0xff, 0xc6, 0xe1,
  0x08, 0x2f, 0xec, 0xf0, 0x52, 0xd5, 0x39, 0x2e, 0xda, 0x1d, 0x66, 0xfa,
  0x95, 0xf2, 0x7e, 0xfb, 0xde, 0xf7, 0x81, 0xaf, 0xc5, 0xba, 0x79, 0x28,
  0xc4, 0xc0, 0x9f, 0xbd, 0x8b, 0x3b, 0x81, 0x6c, 0x02, 0x2b, 0x3f, 0x08,
  0x08, 0xd1, 0x69, 0xb2, 0x49, 0x3b, 0x50, 0xff, 0x7f, 0x01, 0x23, 0xdf,
  0xa7, 0xeb, 0x2b, 0x2c, 0xc8, 0xd6, 0xd6, 0x2e, 0xe0, 0x81, 0x27, 0xdc,
  0xab, 0x04, 0xa9, 0x24, 0xa3, 0xa0, 0x54, 0xf7, 0x42, 0xef, 0x7f, 0x41,
  0xa8, 0xcc, 0xa8, 0xb5, 0x08, 0xd4, 0x28, 0xb1, 0x71, 0x4d, 0x61, 0x5a,
  0xd5, 0x48, 0x7f, 0x8c, 0x90, 0xa5, 0x18, 0xb0, 0xcf, 0x21, 0x5c, 0xdc,
  0x8f, 0x92, 0x7c, 0xd2, 0x54, 0xd5, 0xfd, 0xa1, 0xdc, 0x43, 0x23, 0xa8,
  0xa7, 0xeb, 0x6d, 0x41, 0xf1, 0x7f, 0xf0, 0x42, 0x66, 0x26, 0xb0, 0x54,
  0xa5, 0x5f, 0x63, 0xb4, 0x81, 0x0f, 0x7f, 0x53, 0x38, 0x68, 0x88, 0x8f,
  0x0c, 0x58, 0xca, 0x96, 0x5d, 0xee, 0xfe, 0xe6, 0x73, 0x1e, 0x7f, 0x44,
  0xab, 0x74, 0xc0, 0xaf, 0xc3, 0xd0, 0xde, 0xd3, 0xb5, 0x64, 0x64, 0xd9,
  0xa4, 0x32, 0x13, 0x7f, 0x41, 0x09, 0x54, 0x4a, 0x66, 0x21, 0x93, 0x7f,
  0x34, 0x3e, 0x8d, 0x39, 0xb3, 0xae, 0x88, 0x4a, 0xab, 0x4a, 0x38, 0xdb,
  0x7f, 0x39, 0x5d, 0x5e, 0x03, 0x2b, 0xfd, 0x66, 0xcf, 0x3b, 0x28, 0x45,
  0x1b, 0x22, 0xff, 0xd0, 0xd0, 0xa6, 0x8e, 0x13, 0xf5, 0x39, 0xa0, 0xe2,
  0x71, 0x3b, 0x81, 0xfb, 0x4d, 0x8b, 0xcc, 0xf7, 0x2f, 0x38, 0x2d, 0x1c,
  0x20, 0x54, 0x6f, 0xd3, 0x15, 0xe9, 0xc2, 0x81, 0xdf, 0x42, 0xe9, 0x05,
  0xbc, 0xd3, 0xfe, 0xff, 0xc0, 0xd3, 0xfe, 0xff, 0xc4, 0xd3, 0xfe, 0xff,
  0xc8, 0xd3, 0xfe, 0xff, 0x42, 0xe3, 0xff, 0xff, 0x04, 0x00, 0x00, 0x00,
  0x40, 0x00, 0x00, 0x00, 0xcb, 0xfd, 0xff, 0xff, 0x35, 0xfa, 0xff, 0xff,
  0xa5, 0x00, 0x00, 0x00, 0x6b, 0x03, 0x00, 0x00, 0x7a, 0x03, 0x00, 0x00,
  0x11, 0x05, 0x00, 0x00, 0xc3, 0x02, 0x00, 0x00, 0x10, 0xf7, 0xff, 0xff,
  0x42, 0x02, 0x00, 0x00, 0x1c, 0x00, 0x00, 0x00, 0xfd, 0xfe, 0xff, 0xff,
  0x09, 0xfe, 0xff, 0xff, 0x75, 0xfe, 0xff, 0xff, 0xab, 0x02, 0x00, 0x00,
  0xa1, 0xfe, 0xff, 0xff, 0xad, 0xff, 0xff, 0xff, 0x8e, 0xe3, 0xff, 0xff,
  0x04, 0x00, 0x00, 0x00, 0x00, 0x01, 0x00, 0x00, 0x2b, 0x50, 0x02, 0x4b,
  0xc8, 0x2a, 0xb2, 0x32, 0x30, 0x5c, 0x7f, 0x54, 0xc9, 0xdd, 0xef, 0x57,
  0x27, 0x37, 0xbc, 0xb0, 0x46, 0x26, 0xd8, 0x7f, 0x27, 0xc6, 0x3a, 0x92,
  0xc4, 0x43, 0x40, 0xf3, 0x0c, 0x33, 0x7f, 0x33, 0x01, 0xc8, 0xcf, 0xe1,
  0xc4, 0xc4, 0xb4, 0x18, 0xa3, 0x60, 0x30, 0x34, 0x05, 0x0a, 0x4d, 0x45,
  0x34, 0xf6, 0xe5, 0x55, 0x7f, 0x50, 0x41, 0xd7, 0x35, 0xb2, 0x4d, 0xd5,
  0x81, 0xec, 0xf3, 0x8f, 0x02, 0x29, 0x46, 0x00, 0x12, 0xcc, 0x1b, 0x91,
  0x13, 0x5d, 0xbc, 0x0d, 0xd6, 0xbc, 0xd6, 0x14, 0x28, 0xa8, 0xc8, 0x25,
  0xfb, 0x7f, 0xba, 0xf2, 0x07, 0x44, 0x37, 0xb4, 0xaa, 0xdc, 0xfc, 0x6f,
  0x38, 0xf5, 0x13, 0x20, 0x1b, 0x7f, 0x9e, 0x3c, 0x2f, 0x49, 0xc9, 0xfa,
  0x4a, 0x61, 0xe9, 0xe4, 0x03, 0x7f, 0xaa, 0x97, 0xd1, 0x67, 0x5b, 0x12,
  0x24, 0xb0, 0xe6, 0x1c, 0xb7, 0x59, 0x23, 0xe1, 0x13, 0x38, 0x1f, 0x32,
  0x0f, 0x41, 0xe4, 0x61, 0xd8, 0x81, 0x01, 0x59, 0x5f, 0xa0, 0xd2, 0x48,
  0x5e, 0x0a, 0x4c, 0x46, 0x40, 0x58, 0x1f, 0x7f, 0xf6, 0x2d, 0x41, 0x21,
  0x7f, 0xa9, 0xcb, 0x02, 0xe9, 0x98, 0xc2, 0xbd, 0x0c, 0x1b, 0xd8, 0xad,
  0x32, 0xcc, 0x08, 0x56, 0xf3, 0x81, 0xeb, 0x85, 0xac, 0x58, 0x13, 0x2e,
  0xd7, 0x31, 0x0a, 0xb6, 0xdc, 0x41, 0x9d, 0x1e, 0x21, 0x70, 0xed, 0xb3,
  0xc7, 0xf8, 0xc8, 0xc0, 0x26, 0x59, 0x7f, 0xa2, 0xa0, 0x30, 0xa9, 0xd2,
  0x7f, 0x08, 0xc2, 0xb7, 0x33, 0x2a, 0x3d, 0xd1, 0xcc, 0xdc, 0xee, 0x41,
  0xa2, 0x23, 0x91, 0xe8, 0xf7, 0xa5, 0xc5, 0xd9, 0x13, 0xbf, 0x5c, 0xd4,
  0xcf, 0xac, 0x3c, 0xde, 0x81, 0xf7, 0x45, 0xf4, 0x87, 0x4b, 0x0a, 0x0e,
  0x32, 0xd4, 0x4d, 0xb8, 0x33, 0xd2, 0x68, 0x81, 0x55, 0x9d, 0x0c, 0xbb,
  0x24, 0xd5, 0xfe, 0xff, 0x28, 0xd5, 0xfe, 0xff, 0x2c, 0xd5, 0xfe, 0xff,
  0x30, 0xd5, 0xfe, 0xff, 0x34, 0xd5, 0xfe, 0xff, 0x38, 0xd5, 0xfe, 0xff,
  0x3c, 0xd5, 0xfe, 0xff, 0xb6, 0xe4, 0xff, 0xff, 0x04, 0x00, 0x00, 0x00,
  0x40, 0x00, 0x00, 0x00, 0x8b, 0xc2, 0xff, 0xff, 0x2e, 0x16, 0x00, 0x00,
  0x56, 0x29, 0x00, 0x00, 0x3d, 0xef, 0xff, 0xff, 0xd3, 0x36, 0x00, 0x00,
  0xe9, 0xc2, 0xff, 0xff, 0x86, 0x13, 0x00, 0x00, 0x82, 0x4b, 0x00, 0x00,
  0x80, 0xbe, 0xff, 0xff, 0x80, 0x31, 0x00, 0x00, 0x04, 0xa8, 0xff, 0xff,
  0xd2, 0xca, 0xff, 0xff, 0x02, 0x43, 0x00, 0x00, 0x7b, 0x2f, 0x00, 0x00,
  0x86, 0x12, 0x00, 0x00, 0x15, 0xc2, 0xff, 0xff, 0x02, 0xe5, 0xff, 0xff,
  0x04, 0x00, 0x00, 0x00, 0x00, 0x01, 0x00, 0x00, 0x1b, 0xbf, 0xaa, 0xb3,
  0x3e, 0x4f, 0xa9, 0x1e, 0x0f, 0x3a, 0x4c, 0x32, 0x7f, 0x2f, 0x56, 0x5a,
  0x2f, 0x50, 0x32, 0x08, 0xf1, 0x54, 0x8c, 0x81, 0xea, 0xc4, 0x68, 0xce,
  0xb4, 0xd3, 0x41, 0xaa, 0x2a, 0x98, 0x7a, 0x3f, 0x6b, 0x63, 0xe2, 0x90,
  0xb6, 0x5a, 0x93, 0xd2, 0x81, 0xbf, 0xf2, 0xa8, 0x6d, 0xc7, 0xef, 0x31,
  0x2b, 0xe6, 0xb9, 0x2c, 0x81, 0xf5, 0x0a, 0x33, 0x1b, 0xb5, 0x6c, 0x5a,
  0xdb, 0xa8, 0x12, 0x4a, 0x32, 0xed, 0xcf, 0xfa, 0x9a, 0xb5, 0xc6, 0x81,
  0x70, 0xd9, 0xbf, 0xfb, 0xcb, 0xa8, 0x97, 0x57, 0x56, 0x34, 0x66, 0x6c,
  0x63, 0x7f, 0xfb, 0xdb, 0x96, 0x24, 0x79, 0x09, 0x81, 0xd7, 0x24, 0xfc,
  0xcb, 0xb6, 0xa3, 0x4d, 0x51, 0xd0, 0x4f, 0xbd, 0x45, 0x15, 0x20, 0xee,
  0xcf, 0xc4, 0x5c, 0xdf, 0xd0, 0x81, 0xaf, 0xd8, 0x3a, 0xf3, 0xc6, 0xe9,
  0xab, 0xe3, 0xc5, 0x1f, 0x70, 0x35, 0xaf, 0x61, 0x14, 0xc7, 0x7f, 0xfb,
  0x8e, 0x28, 0xd2, 0x2d, 0x30, 0x24, 0x13, 0x78, 0xe5, 0xe4, 0xcb, 0xb0,
  0xe0, 0xec, 0x4f, 0x3a, 0x9d, 0x63, 0x81, 0x4e, 0x15, 0xae, 0x12, 0xdd,
  0xff, 0xf3, 0x27, 0x6d, 0x81, 0x0f, 0x7b, 0x9d, 0x57, 0x67, 0x4f, 0x1f,
  0x72, 0x4d, 0xfe, 0xeb, 0x4d, 0xcd, 0x58, 0xdc, 0x63, 0x9d, 0x4b, 0x41,
  0xb7, 0xe6, 0xe1, 0x40, 0xdf, 0x7f, 0x5a, 0x30, 0xcc, 0x17, 0x0a, 0xff,
  0x1e, 0xcd, 0xb1, 0x30, 0xa7, 0xd4, 0xb8, 0xa0, 0x81, 0x22, 0xa5, 0x5d,
  0xff, 0x7f, 0xd2, 0xb8, 0x0e, 0xe6, 0x06, 0x21, 0xbe, 0xb4, 0x35, 0xd6,
  0xab, 0x9d, 0x65, 0xba, 0x7f, 0x49, 0xbe, 0xc0, 0x26, 0x2d, 0xd9, 0x23,
  0x15, 0xba, 0x34, 0x34, 0xf3, 0xca, 0x8f, 0x97, 0x5b, 0x81, 0x22, 0x69,
  0x0d, 0xbf, 0x13, 0x15, 0x07, 0x3f, 0x68, 0x67, 0x1f, 0xda, 0x11, 0x22,
  0x98, 0xd6, 0xfe, 0xff, 0x9c, 0xd6, 0xfe, 0xff, 0xa0, 0xd6, 0xfe, 0xff,
  0xa4, 0xd6, 0xfe, 0xff, 0x1e, 0xe6, 0xff, 0xff, 0x04, 0x00, 0x00, 0x00,
  0x40, 0x00, 0x00, 0x00, 0xed, 0x04, 0x00, 0x00, 0x46, 0xfa, 0xff, 0xff,
  0x9d, 0x08, 0x00, 0x00, 0xcd, 0x02, 0x00, 0x00, 0x75, 0x01, 0x00, 0x00,
  0xf5, 0x01, 0x00, 0x00, 0xdb, 0x05, 0x00, 0x00, 0x63, 0xfd, 0xff, 0xff,
  0xcd, 0x05, 0x00, 0x00, 0x11, 0xfe, 0xff, 0xff, 0xb7, 0x03, 0x00, 0x00,
  0xc2, 0xfb, 0xff, 0xff, 0x88, 0xfe, 0xff, 0xff, 0x51, 0x05, 0x00, 0x00,
  0x0d, 0x00, 0x00, 0x00, 0x44, 0x03, 0x00, 0x00, 0x6a, 0xe6, 0xff, 0xff,
  0x04, 0x00, 0x00, 0x00, 0x00, 0x01, 0x00, 0x00, 0xe6, 0xe2, 0x3d, 0x51,
  0x01, 0x1d, 0xf9, 0x6c, 0xc5, 0xb8, 0x7f, 0x01, 0xa6, 0xe6, 0x72, 0xfd,
  0x01, 0xd5, 0x09, 0x22, 0xde, 0x40, 0x81, 0xac, 0x22, 0x39, 0xe5, 0xed,
  0x16, 0x3c, 0x45, 0x06, 0x52, 0x34, 0xf7, 0x0c, 0xed, 0xd3, 0x5b, 0x81,
  0x75, 0x38, 0x57, 0xba, 0xd3, 0x9e, 0x08, 0x5b, 0x55, 0x7f, 0x44, 0x0f,
  0xd1, 0x0c, 0x4c, 0x0b, 0xa9, 0xc8, 0x4f, 0xf2, 0xd3, 0x1a, 0x94, 0x99,
  0xd9, 0xb0, 0x7f, 0xec, 0x77, 0xc0, 0x98, 0x28, 0xc3, 0x63, 0x28, 0xc8,
  0xb2, 0xc7, 0xf8, 0x97, 0x93, 0xc3, 0xb1, 0x3f, 0x31, 0x0b, 0x38, 0xfa,
  0x04, 0x5f, 0x88, 0xa5, 0x81, 0x07, 0xab, 0xc7, 0xfd, 0x60, 0x35, 0x0a,
  0xed, 0x81, 0x4d, 0x9e, 0xaf, 0x24, 0x31, 0xc5, 0xea, 0x22, 0x8d, 0xb9,
  0x9c, 0xc6, 0xd5, 0x2a, 0x65, 0xa3, 0x53, 0x70, 0xc6, 0x81, 0xd6, 0xab,
  0x15, 0xd5, 0x12, 0xa5, 0x39, 0xee, 0x34, 0x39, 0x69, 0xf5, 0xa7, 0xca,
  0x54, 0x7f, 0xa7, 0x5d, 0xf8, 0x4f, 0x84, 0xcb, 0x39, 0x10, 0xec, 0x28,
  0x2e, 0xce, 0x33, 0x23, 0x7f, 0xba, 0x39, 0x00, 0x6b, 0xd0, 0xe3, 0x2f,
  0x53, 0xb7, 0x2a, 0x40, 0xa5, 0x6e, 0xb7, 0xdd, 0x6d, 0x35, 0x69, 0x7f,
  0x37, 0xf7, 0xdc, 0xa9, 0x5e, 0x52, 0x5b, 0xb0, 0xcc, 0xcf, 0xc2, 0x0c,
  0x81, 0xa9, 0x08, 0x9c, 0xc7, 0x32, 0x68, 0x1b, 0x23, 0x28, 0x0d, 0x16,
  0x9e, 0x12, 0x4e, 0x54, 0xf0, 0x81, 0xcb, 0x18, 0x66, 0x24, 0x11, 0xdd,
  0x49, 0xd1, 0x9a, 0x3e, 0xdb, 0x9c, 0x7f, 0x2a, 0xfa, 0x57, 0x9f, 0xb3,
  0xf4, 0xb3, 0x5b, 0xd7, 0xfd, 0x3b, 0x46, 0x4f, 0x37, 0xac, 0x26, 0x58,
  0x6a, 0xd7, 0x0d, 0xdb, 0x7f, 0x26, 0xa9, 0xf2, 0xfa, 0x29, 0x7f, 0x04,
  0x94, 0xb1, 0x21, 0xeb, 0xc3, 0x59, 0xd9, 0xb8, 0xe1, 0xf7, 0xf0, 0x2b,
  0x00, 0xd8, 0xfe, 0xff, 0x04, 0xd8, 0xfe, 0xff, 0x08, 0xd8, 0xfe, 0xff,
  0x0c, 0xd8, 0xfe, 0xff, 0x10, 0xd8, 0xfe, 0xff, 0x14, 0xd8, 0xfe, 0xff,
  0x18, 0xd8, 0xfe, 0xff, 0x92, 0xe7, 0xff, 0xff, 0x04, 0x00, 0x00, 0x00,
  0x40, 0x00, 0x00, 0x00, 0x27, 0xf6, 0xff, 0xff, 0x09, 0x05, 0x00, 0x00,
  0x7d, 0xf9, 0xff, 0xff, 0xfd, 0xc9, 0xff, 0xff, 0x80, 0x1b, 0x00, 0x00,
  0xa7, 0xc1, 0xff, 0xff, 0xfc, 0x21, 0x00, 0x00, 0x96, 0xc0, 0xff, 0xff,
  0x29, 0x1d, 0x00, 0x00, 0xb5, 0xf0, 0xff, 0xff, 0xaa, 0xf3, 0xff, 0xff,
  0x09, 0xe4, 0xff, 0xff, 0xa9, 0x08, 0x00, 0x00, 0xe1, 0xb8, 0xff, 0xff,
  0xaf, 0x22, 0x00, 0x00, 0x1f, 0xda, 0xff, 0xff, 0xde, 0xe7, 0xff, 0xff,
  0x04, 0x00, 0x00, 0x00, 0x00, 0x01, 0x00, 0x00, 0x38, 0x37, 0xef, 0xcd,
  0xf7, 0xe0, 0x0e, 0x2f, 0xec, 0xc7, 0xf6, 0x3a, 0x7f, 0xca, 0xcd, 0x0f,
  0xb7, 0xfd, 0x67, 0x64, 0xb3, 0x82, 0xd4, 0x4f, 0xbf, 0x88, 0x23, 0x38,
  0x6b, 0x81, 0xca, 0x67, 0x5c, 0x8a, 0x26, 0x6a, 0x52, 0x1c, 0x93, 0x4d,
  0x39, 0x06, 0x03, 0x09, 0xba, 0x3c, 0x81, 0xcc, 0x7f, 0x2b, 0x33, 0xf2,
  0x06, 0xf1, 0x86, 0xe8, 0x57, 0xa5, 0x42, 0x70, 0xf3, 0x6a, 0x2d, 0x54,
  0x27, 0x5c, 0xfb, 0x58, 0xda, 0x0c, 0xc4, 0x0b, 0xb0, 0xc2, 0xcc, 0x28,
  0x81, 0x5a, 0xea, 0x8d, 0x7f, 0x4d, 0x0f, 0xc1, 0xc2, 0xb4, 0x3d, 0x1d,
  0xa6, 0x74, 0x30, 0x6c, 0x72, 0x4a, 0x63, 0x19, 0xee, 0xa3, 0xa9, 0xb7,
  0xd0, 0xa4, 0x7f, 0x19, 0x76, 0xcf, 0xca, 0xb0, 0xed, 0x2a, 0xa8, 0xd9,
  0xad, 0x87, 0x2e, 0x30, 0x7f, 0xd3, 0x4c, 0xca, 0x5f, 0x05, 0x7b, 0x69,
  0x43, 0x3d, 0xbd, 0x12, 0x29, 0x40, 0x16, 0x97, 0xa9, 0x31, 0xbc, 0xc8,
  0x39, 0xea, 0xbc, 0xf1, 0x7f, 0xd7, 0x3b, 0x9f, 0x45, 0x54, 0x0d, 0xbd,
  0xdd, 0x50, 0xda, 0x1a, 0x81, 0x2b, 0x0a, 0xb9, 0x37, 0x49, 0x0d, 0x45,
  0x6d, 0x81, 0x46, 0x2b, 0x3a, 0x06, 0xf6, 0xf2, 0x09, 0xef, 0x2c, 0x52,
  0xda, 0x99, 0xff, 0x07, 0xe7, 0x34, 0x2a, 0x46, 0xec, 0xcc, 0xa0, 0x2a,
  0xc8, 0x74, 0xe1, 0x7f, 0xfd, 0x32, 0x57, 0x2a, 0x63, 0xd2, 0x3a, 0x0d,
  0x2a, 0x81, 0x44, 0x19, 0x5e, 0xc9, 0xe1, 0xd0, 0x04, 0x96, 0xb4, 0x04,
  0xf4, 0xad, 0x7b, 0x3a, 0xfd, 0x5f, 0x7f, 0x30, 0x55, 0xd6, 0xbc, 0xea,
  0x33, 0xc8, 0x75, 0x70, 0x33, 0x31, 0xd2, 0x97, 0x79, 0xa1, 0x39, 0xd9,
  0xb4, 0x92, 0x7f, 0x42, 0xc0, 0x88, 0xcb, 0xbe, 0xa6, 0x7f, 0xa9, 0x2f,
  0xe2, 0x62, 0x78, 0xdd, 0xa7, 0xb0, 0x1d, 0x49, 0xcc, 0x49, 0x5a, 0xf4,
  0x74, 0xd9, 0xfe, 0xff, 0x78, 0xd9, 0xfe, 0xff, 0x7c, 0xd9, 0xfe, 0xff,
  0x80, 0xd9, 0xfe, 0xff, 0xfa, 0xe8, 0xff, 0xff, 0x04, 0x00, 0x00, 0x00,
  0x40, 0x00, 0x00, 0x00, 0xc9, 0x01, 0x00, 0x00, 0x28, 0xfc, 0xff, 0xff,
  0xf3, 0xfe, 0xff, 0xff, 0xb3, 0x06, 0x00, 0x00, 0x07, 0xfc, 0xff, 0xff,
  0x42, 0x04, 0x00, 0x00, 0xb5, 0x09, 0x00, 0x00, 0xfd, 0x02, 0x00, 0x00,
  0x54, 0x09, 0x00, 0x00, 0x2f, 0x03, 0x00, 0x00, 0x8b, 0x05, 0x00, 0x00,
  0x68, 0x06, 0x00, 0x00, 0x0c, 0x00, 0x00, 0x00, 0x77, 0x06, 0x00, 0x00,
  0xda, 0xff, 0xff, 0xff, 0x51, 0x07, 0x00, 0x00, 0x46, 0xe9, 0xff, 0xff,
  0x04, 0x00, 0x00, 0x00, 0x00, 0x01, 0x00, 0x00, 0xfd, 0xc4, 0x09, 0xf9,
  0xdc, 0xa2, 0x77, 0x26, 0xb4, 0xf5, 0xd3, 0x7f, 0x05, 0x2f, 0xbc, 0xd8,
  0xb6, 0xc6, 0xf5, 0xf0, 0xfd, 0xd3, 0x0b, 0x2c, 0x34, 0x23, 0x42, 0x9e,
  0x3a, 0xdb, 0xbb, 0x7f, 0xdf, 0x59, 0x33, 0xff, 0xce, 0x6a, 0x47, 0xf3,
  0x0a, 0xae, 0x7f, 0x48, 0xa0, 0xde, 0x3f, 0x70, 0x74, 0x07, 0x13, 0xed,
  0x8f, 0x6a, 0xda, 0xb8, 0xc4, 0xd3, 0xf2, 0x6a, 0xac, 0x7f, 0xbc, 0xd7,
  0x30, 0x95, 0x99, 0xed, 0xaa, 0xc3, 0x20, 0xfa, 0x00, 0x06, 0x81, 0x52,
  0x07, 0x20, 0xd9, 0xe3, 0x0b, 0x2f, 0x1d, 0x81, 0xef, 0xa0, 0x9a, 0x66,
  0x05, 0x3e, 0xaf, 0x17, 0xb2, 0x5b, 0x04, 0xfb, 0xd9, 0xca, 0x2a, 0x81,
  0x23, 0x9b, 0xf0, 0xdc, 0x2c, 0xe9, 0xdc, 0x94, 0x49, 0x13, 0xd9, 0x47,
  0xc8, 0xf9, 0x2e, 0x7f, 0xfe, 0xa0, 0x45, 0x36, 0x2d, 0xaf, 0x39, 0xce,
  0x1e, 0x36, 0x10, 0x5c, 0x5f, 0xc8, 0xa1, 0x7a, 0x45, 0x22, 0xf9, 0x7f,
  0x5c, 0x44, 0x65, 0xf2, 0xeb, 0x46, 0xeb, 0xaf, 0x89, 0xde, 0xbc, 0xb9,
  0x7a, 0xd6, 0x6c, 0x06, 0x13, 0x62, 0x28, 0x7f, 0x88, 0x2f, 0xdf, 0x01,
  0xe1, 0xc5, 0x81, 0x08, 0xdc, 0x02, 0x1d, 0x6b, 0xe8, 0xb8, 0x18, 0xb1,
  0x1e, 0xd7, 0xe5, 0x56, 0xde, 0x4d, 0x30, 0xbe, 0x79, 0x2a, 0x29, 0x2d,
  0xfa, 0x43, 0x81, 0x30, 0x0f, 0xf9, 0xcc, 0xa3, 0x58, 0xf2, 0x52, 0x31,
  0x20, 0x09, 0xa9, 0xae, 0xe3, 0x36, 0xc4, 0x7f, 0x19, 0x27, 0xef, 0x5f,
  0x90, 0x9b, 0x81, 0xe2, 0x43, 0xaa, 0xeb, 0xf4, 0x49, 0x0d, 0xda, 0x55,
  0xc4, 0x35, 0x33, 0x0f, 0xc5, 0x42, 0xe1, 0x2d, 0xbe, 0x19, 0x18, 0x66,
  0xbe, 0x7f, 0xe2, 0xe1, 0xca, 0x63, 0xbb, 0x2b, 0x3c, 0x81, 0x9b, 0x1c,
  0xbe, 0xb0, 0xc2, 0x9d, 0xd5, 0x33, 0x4b, 0x9c, 0x19, 0x35, 0xc5, 0x0e,
  0xdc, 0xda, 0xfe, 0xff, 0xe0, 0xda, 0xfe, 0xff, 0xe4, 0xda, 0xfe, 0xff,
  0xe8, 0xda, 0xfe, 0xff, 0xec, 0xda, 0xfe, 0xff, 0xf0, 0xda, 0xfe, 0xff,
  0xf4, 0xda, 0xfe, 0xff, 0x6e, 0xea, 0xff, 0xff, 0x04, 0x00, 0x00, 0x00,
  0x40, 0x00, 0x00, 0x00, 0xd8, 0xf9, 0xff, 0xff, 0x76, 0xff, 0xff, 0xff,
  0xd9, 0x05, 0x00, 0x00, 0x9f, 0x06, 0x00, 0x00, 0x2d, 0xfe, 0xff, 0xff,
  0xf7, 0xf9, 0xff, 0xff, 0xe2, 0x00, 0x00, 0x00, 0x54, 0x09, 0x00, 0x00,
  0x0e, 0xff, 0xff, 0xff, 0x79, 0x08, 0x00, 0x00, 0x7e, 0x07, 0x00, 0x00,
  0xde, 0xf4, 0xff, 0xff, 0xb3, 0x05, 0x00, 0x00, 0x46, 0xf6, 0xff, 0xff,
  0xf1, 0xfc, 0xff, 0xff, 0x46, 0x00, 0x00, 0x00, 0xba, 0xea, 0xff, 0xff,
  0x04, 0x00, 0x00, 0x00, 0x00, 0x01, 0x00, 0x00, 0xda, 0x81, 0x50, 0xa7,
  0xb1, 0xb6, 0x7b, 0x4d, 0x2c, 0x02, 0x81, 0x90, 0x37, 0x2f, 0x58, 0xf3,
  0xa2, 0x7f, 0xff, 0xb6, 0x03, 0xf8, 0x2d, 0x51, 0x94, 0xb9, 0x23, 0x2b,
  0xfe, 0x2d, 0xfd, 0x3e, 0xb3, 0x32, 0x13, 0x66, 0x6b, 0x04, 0xae, 0x24,
  0x81, 0x7a, 0xfa, 0x27, 0x3a, 0x6f, 0x09, 0xdf, 0x7f, 0xc9, 0x00, 0x42,
  0x27, 0x02, 0xc0, 0x9b, 0x31, 0x25, 0x2b, 0xd4, 0x8e, 0x95, 0xdf, 0xb5,
  0xf6, 0x03, 0x38, 0x13, 0x9a, 0xff, 0xd3, 0x7f, 0xf0, 0x14, 0x91, 0xee,
  0xe5, 0xf7, 0x5d, 0x00, 0x30, 0x08, 0x92, 0xcb, 0xfd, 0x8c, 0x4e, 0xe7,
  0x70, 0xc9, 0xa6, 0xfe, 0xe4, 0xb4, 0xbd, 0x7f, 0xaf, 0xfb, 0x01, 0xa2,
  0x97, 0x5c, 0xff, 0x55, 0xdf, 0xa1, 0xde, 0x1d, 0x89, 0xf9, 0x81, 0xca,
  0xdd, 0x2a, 0xbc, 0xa6, 0xb3, 0x27, 0xb0, 0x3c, 0xb2, 0x81, 0x9a, 0xe0,
  0xc6, 0xa3, 0x18, 0x0c, 0xda, 0xa8, 0xf5, 0x6a, 0x35, 0xea, 0x1d, 0xba,
  0x28, 0x8b, 0x81, 0x0c, 0xaf, 0x40, 0x12, 0xa6, 0xea, 0x10, 0x87, 0x7d,
  0xdd, 0x71, 0x8e, 0x01, 0x6c, 0x94, 0xee, 0xcc, 0xfb, 0x91, 0xf3, 0x81,
  0x6e, 0x2a, 0xb4, 0x3d, 0x69, 0x4c, 0xb7, 0x15, 0xe7, 0x31, 0xfa, 0xee,
  0x7f, 0xb9, 0xe5, 0x2c, 0xc4, 0x23, 0xcc, 0x3d, 0xdb, 0x9e, 0xfe, 0x7f,
  0x2e, 0xef, 0xde, 0x26, 0xac, 0x17, 0xc7, 0x62, 0x56, 0xd1, 0x62, 0xe3,
  0xe0, 0xcf, 0x53, 0x68, 0xed, 0xfe, 0xc2, 0x81, 0x0b, 0xce, 0x22, 0x97,
  0xc8, 0xb2, 0xd3, 0x7f, 0xd2, 0xcb, 0xe5, 0xec, 0x23, 0x2a, 0xbb, 0xc1,
  0x99, 0x33, 0x41, 0x19, 0x18, 0xf4, 0x13, 0x45, 0x46, 0x4a, 0x43, 0x81,
  0x53, 0xe4, 0x1a, 0x15, 0xc8, 0x60, 0x8b, 0xbe, 0xe1, 0xde, 0x46, 0xce,
  0x7f, 0x67, 0xff, 0xd0, 0x7d, 0x57, 0x06, 0xda, 0x6f, 0x31, 0x19, 0x2e,
  0x50, 0xdc, 0xfe, 0xff, 0x54, 0xdc, 0xfe, 0xff, 0x58, 0xdc, 0xfe, 0xff,
  0x5c, 0xdc, 0xfe, 0xff, 0x60, 0xdc, 0xfe, 0xff, 0xda, 0xeb, 0xff, 0xff,
  0x04, 0x00, 0x00, 0x00, 0x40, 0x00, 0x00, 0x00, 0x5e, 0x08, 0x00, 0x00,
  0x65, 0xe6, 0xff, 0xff, 0xa3, 0xde, 0xff, 0xff, 0x1f, 0x09, 0x00, 0x00,
  0x82, 0xf7, 0xff, 0xff, 0x26, 0x0a, 0x00, 0x00, 0xdb, 0x0d, 0x00, 0x00,
  0x55, 0x18, 0x00, 0x00, 0x42, 0x2a, 0x00, 0x00, 0x7d, 0xf8, 0xff, 0xff,
  0x28, 0x06, 0x00, 0x00, 0x2c, 0x2a, 0x00, 0x00, 0x8e, 0x0b, 0x00, 0x00,
  0x3b, 0x06, 0x00, 0x00, 0xb1, 0x0e, 0x00, 0x00, 0xec, 0x2c, 0x00, 0x00,
  0x26, 0xec, 0xff, 0xff, 0x04, 0x00, 0x00, 0x00, 0xc0, 0x00, 0x00, 0x00,
  0xfd, 0x0b, 0x81, 0x14, 0x4d, 0x1e, 0x44, 0xc8, 0x2a, 0x0b, 0x8a, 0x12,
  0x43, 0x17, 0x7f, 0xc8, 0x07, 0xd9, 0x72, 0x23, 0x1f, 0xad, 0x2b, 0xb2,
  0x8a, 0x7f, 0x5d, 0x35, 0x7b, 0x64, 0xed, 0x01, 0xc6, 0x79, 0x8a, 0x4d,
  0xc6, 0xc7, 0x26, 0xfd, 0x26, 0x23, 0x09, 0x0f, 0xcf, 0xa5, 0xf1, 0x7f,
  0xb0, 0x78, 0xb6, 0xa7, 0x7e, 0x45, 0x20, 0x15, 0x60, 0xe9, 0xf7, 0x81,
  0xef, 0x19, 0x3a, 0x81, 0xba, 0xe5, 0x56, 0xc6, 0x0f, 0xf9, 0xd9, 0xe9,
  0x81, 0x14, 0xf0, 0x18, 0xf9, 0xe5, 0xe2, 0x51, 0x19, 0xeb, 0x2c, 0xae,
  0xc9, 0x81, 0x52, 0x5c, 0xf5, 0xf2, 0xac, 0xee, 0x28, 0xd7, 0xc6, 0x04,
  0x51, 0x0e, 0x9f, 0x2c, 0xe8, 0xf0, 0xe5, 0xee, 0xee, 0xbc, 0x81, 0xca,
  0xc5, 0x27, 0xb9, 0x5f, 0xac, 0xe5, 0xe9, 0xc1, 0x76, 0x5a, 0x99, 0x7f,
  0x45, 0x7e, 0x05, 0x67, 0x0e, 0xc0, 0xf5, 0x81, 0xef, 0xd4, 0x1d, 0xa4,
  0x10, 0xbf, 0x75, 0xca, 0x75, 0xce, 0xe1, 0xe4, 0x91, 0xa2, 0xe2, 0x81,
  0x1d, 0x4b, 0x81, 0x11, 0xaa, 0xe2, 0x44, 0x8c, 0x72, 0xa2, 0x24, 0xbf,
  0x8f, 0x23, 0x1c, 0x48, 0x7f, 0x03, 0x2d, 0x87, 0xe7, 0xb3, 0xf2, 0x3b,
  0x34, 0x26, 0xa9, 0xe9, 0xc8, 0x95, 0x81, 0x23, 0xf2, 0xf5, 0x72, 0xee,
  0x9f, 0x9e, 0xc1, 0xac, 0xd0, 0x81, 0xcc, 0xf8, 0x1e, 0x44, 0x0f, 0xea,
  0x7c, 0xdd, 0xfe, 0xff, 0x80, 0xdd, 0xfe, 0xff, 0xfa, 0xec, 0xff, 0xff,
  0x04, 0x00, 0x00, 0x00, 0x30, 0x00, 0x00, 0x00, 0xc3, 0xff, 0xff, 0xff,
  0x06, 0x04, 0x00, 0x00, 0x42, 0x05, 0x00, 0x00, 0xe5, 0xff, 0xff, 0xff,
  0xdb, 0xfd, 0xff, 0xff, 0xcb, 0xfb, 0xff, 0xff, 0xb0, 0x01, 0x00, 0x00,
  0x1b, 0xfe, 0xff, 0xff, 0x1a, 0x02, 0x00, 0x00, 0xba, 0x06, 0x00, 0x00,
  0x7c, 0x04, 0x00, 0x00, 0xfb, 0x01, 0x00, 0x00, 0x36, 0xed, 0xff, 0xff,
  0x04, 0x00, 0x00, 0x00, 0x90, 0x00, 0x00, 0x00, 0x71, 0x23, 0xfe, 0x67,
  0x2e, 0x8d, 0xf6, 0x00, 0x60, 0x95, 0x7f, 0xcb, 0x29, 0x0f, 0x04, 0x7f,
  0xa7, 0xc8, 0xc3, 0x43, 0x1d, 0x30, 0xd5, 0x48, 0x15, 0xc3, 0x59, 0x30,
  0x7f, 0x68, 0x00, 0xad, 0x5f, 0xfd, 0xfc, 0x96, 0xa2, 0x81, 0x4c, 0xb7,
  0x17, 0xad, 0x96, 0xa4, 0xf8, 0xd8, 0xbf, 0x86, 0xfd, 0x51, 0xfc, 0x28,
  0xbb, 0x31, 0xed, 0x14, 0xa5, 0x3b, 0x7f, 0x51, 0xdb, 0xfc, 0x81, 0xc9,
  0xbd, 0x96, 0x9c, 0x37, 0xec, 0xe9, 0x48, 0x6e, 0x35, 0x75, 0xf5, 0x5e,
  0x1b, 0x81, 0x0a, 0x84, 0xb7, 0x03, 0x25, 0x57, 0xdb, 0x44, 0x99, 0x0e,
  0x0e, 0xd0, 0x0a, 0x8c, 0x2b, 0x81, 0x42, 0x8d, 0x27, 0xc9, 0x4e, 0x7f,
  0x40, 0xe1, 0xb4, 0x21, 0xdd, 0x96, 0xe1, 0x36, 0x7f, 0x9c, 0x89, 0xad,
  0x2d, 0xb8, 0x47, 0xdf, 0x49, 0x21, 0xf2, 0xa4, 0x18, 0x92, 0x45, 0xe7,
  0xd3, 0x58, 0xf9, 0x90, 0xcf, 0x7f, 0x82, 0x40, 0xce, 0xd5, 0xce, 0x5b,
  0xf4, 0x4b, 0x4a, 0xb3, 0x81, 0x3f, 0xac, 0xdd, 0x5c, 0xde, 0xfe, 0xff,
  0x60, 0xde, 0xfe, 0xff, 0x64, 0xde, 0xfe, 0xff, 0x68, 0xde, 0xfe, 0xff,
  0x6c, 0xde, 0xfe, 0xff, 0x70, 0xde, 0xfe, 0xff, 0x74, 0xde, 0xfe, 0xff,
  0xee, 0xed, 0xff, 0xff, 0x04, 0x00, 0x00, 0x00, 0x30, 0x00, 0x00, 0x00,
  0x72, 0x0b, 0x00, 0x00, 0x10, 0x28, 0x00, 0x00, 0xb0, 0x2b, 0x00, 0x00,
  0x14, 0xd6, 0xff, 0xff, 0x67, 0x07, 0x00, 0x00, 0xee, 0xe4, 0xff, 0xff,
  0x26, 0x24, 0x00, 0x00, 0x65, 0xe1, 0xff, 0xff, 0x44, 0x02, 0x00, 0x00,
  0x9a, 0x10, 0x00, 0x00, 0x16, 0xed, 0xff, 0xff, 0x31, 0xe4, 0xff, 0xff,
  0x2a, 0xee, 0xff, 0xff, 0x04, 0x00, 0x00, 0x00, 0x90, 0x00, 0x00, 0x00,
  0xe7, 0xdf, 0x58, 0xf3, 0xa5, 0xec, 0x81, 0x5e, 0xcf, 0x12, 0x5c, 0xf7,
  0xf8, 0x7b, 0x97, 0x4f, 0x81, 0x49, 0xaf, 0xa4, 0xe9, 0xa4, 0x1b, 0xd5,
  0xb0, 0x7c, 0xb0, 0xd0, 0xf5, 0x37, 0x9d, 0x81, 0xd3, 0x56, 0x99, 0xae,
  0x07, 0xda, 0x25, 0x46, 0x81, 0x67, 0x4d, 0xbf, 0xb1, 0x6d, 0x4f, 0x69,
  0x0d, 0x24, 0x76, 0xd4, 0x54, 0x7f, 0xb5, 0xed, 0xea, 0xb0, 0xa4, 0xf1,
  0x3d, 0x45, 0x57, 0xea, 0x75, 0x49, 0x9b, 0x93, 0x97, 0x2b, 0x7f, 0x03,
  0xf7, 0x2f, 0xb3, 0xde, 0x81, 0xfe, 0xf9, 0xeb, 0x26, 0xca, 0xb2, 0x02,
  0xb3, 0xd4, 0x21, 0x22, 0xbb, 0xf3, 0x35, 0x4f, 0xb1, 0x37, 0x7f, 0x6a,
  0x4d, 0x29, 0xe1, 0x2c, 0xaf, 0xd5, 0x56, 0x1c, 0x81, 0xea, 0x30, 0x16,
  0xfc, 0x66, 0x24, 0x8e, 0xae, 0x81, 0x96, 0xf9, 0xe5, 0x45, 0xe3, 0x48,
  0x07, 0x50, 0x81, 0x64, 0x1a, 0x36, 0xdb, 0xb4, 0x2a, 0x50, 0x12, 0xf1,
  0x84, 0x68, 0xb0, 0x0b, 0xdd, 0xf9, 0x7f, 0x00, 0x59, 0x42, 0x1d, 0xa0,
  0x50, 0xdf, 0xfe, 0xff, 0x54, 0xdf, 0xfe, 0xff, 0x58, 0xdf, 0xfe, 0xff,
  0x5c, 0xdf, 0xfe, 0xff, 0xd6, 0xee, 0xff, 0xff, 0x04, 0x00, 0x00, 0x00,
  0x30, 0x00, 0x00, 0x00, 0xbe, 0xfd, 0xff, 0xff, 0x3f, 0x02, 0x00, 0x00,
  0xb3, 0xfc, 0xff, 0xff, 0xff, 0x00, 0x00, 0x00, 0x55, 0x02, 0x00, 0x00,
  0x94, 0x01, 0x00, 0x00, 0x32, 0x03, 0x00, 0x00, 0x1f, 0xfe, 0xff, 0xff,
  0xaf, 0x07, 0x00, 0x00, 0x31, 0x05, 0x00, 0x00, 0x1c, 0x03, 0x00, 0x00,
  0x45, 0x03, 0x00, 0x00, 0x12, 0xef, 0xff, 0xff, 0x04, 0x00, 0x00, 0x00,
  0x90, 0x00, 0x00, 0x00, 0x4a, 0x3a, 0x06, 0x6d, 0x22, 0xee, 0x62, 0xd6,
  0xa4, 0x26, 0xef, 0x81, 0x12, 0x17, 0x7f, 0x01, 0xd4, 0xcd, 0xca, 0xc1,
  0x5e, 0xc3, 0x2a, 0x2c, 0xa7, 0x01, 0x7f, 0xe6, 0xf5, 0x9e, 0x38, 0xb0,
  0xe1, 0x2f, 0x44, 0x02, 0xaa, 0x59, 0x5e, 0x4b, 0x7f, 0xe7, 0xe6, 0x9e,
  0xc5, 0xb7, 0x5d, 0xe8, 0xdb, 0x8e, 0xb0, 0x3a, 0x9c, 0x43, 0x7f, 0x11,
  0x46, 0x9a, 0x0e, 0x55, 0x7f, 0x5a, 0xc6, 0x67, 0x2b, 0xa2, 0x01, 0x7a,
  0xf8, 0xee, 0x08, 0x6b, 0xdd, 0x7f, 0x3c, 0xd3, 0xfa, 0xbe, 0xbf, 0x57,
  0xf5, 0x2f, 0xc9, 0x43, 0xed, 0xf3, 0x90, 0x81, 0x7c, 0x1c, 0xe8, 0xbf,
  0xba, 0xf7, 0x8f, 0xf5, 0xd7, 0x34, 0x4b, 0xbc, 0xae, 0x61, 0x66, 0x25,
  0xa4, 0x47, 0x5f, 0x81, 0xb0, 0x03, 0xc8, 0xc9, 0x13, 0x7f, 0x22, 0xe2,
  0xed, 0xb9, 0x2f, 0xe5, 0x7e, 0x81, 0x27, 0x33, 0x0f, 0x2d, 0x10, 0xb3,
  0xdf, 0x33, 0xbd, 0x59, 0xe0, 0xfb, 0xe4, 0x0d, 0xe1, 0xe1, 0x20, 0x25,
  0x7f, 0xf8, 0x06, 0x33, 0x38, 0xe0, 0xfe, 0xff, 0x3c, 0xe0, 0xfe, 0xff,
  0x40, 0xe0, 0xfe, 0xff, 0x44, 0xe0, 0xfe, 0xff, 0x48, 0xe0, 0xfe, 0xff,
  0x4c, 0xe0, 0xfe, 0xff, 0x50, 0xe0, 0xfe, 0xff, 0xca, 0xef, 0xff, 0xff,
  0x04, 0x00, 0x00, 0x00, 0x30, 0x00, 0x00, 0x00, 0xbf, 0x04, 0x00, 0x00,
  0x98, 0xfc, 0xff, 0xff, 0xda, 0xff, 0xff, 0xff, 0x1e, 0x00, 0x00, 0x00,
  0xa7, 0xff, 0xff, 0xff, 0x81, 0xfa, 0xff, 0xff, 0x80, 0xf3, 0xff, 0xff,
  0xee, 0xf1, 0xff, 0xff, 0x35, 0xf0, 0xff, 0xff, 0x70, 0xfa, 0xff, 0xff,
  0xb1, 0xf9, 0xff, 0xff, 0x39, 0xf4, 0xff, 0xff, 0x06, 0xf0, 0xff, 0xff,
  0x04, 0x00, 0x00, 0x00, 0x90, 0x00, 0x00, 0x00, 0x9b, 0xc9, 0xc7, 0x81,
  0xd7, 0xd4, 0xa5, 0x4f, 0x9c, 0x60, 0x8c, 0x2b, 0xa8, 0x63, 0x8a, 0xab,
  0x81, 0x94, 0x1e, 0x62, 0xc7, 0x00, 0x56, 0x95, 0x44, 0xe5, 0xd3, 0x81,
  0x94, 0x82, 0x8b, 0xb2, 0xc8, 0x34, 0x17, 0x4b, 0xf5, 0x81, 0x41, 0x2c,
  0xdb, 0x2b, 0x1e, 0x26, 0xc4, 0x42, 0x3b, 0x18, 0x81, 0x30, 0xbe, 0x14,
  0xf7, 0xc3, 0x49, 0xd9, 0x92, 0x2f, 0xcc, 0x52, 0xa2, 0x02, 0x1c, 0x9f,
  0x59, 0x83, 0x7f, 0xaf, 0xe4, 0xde, 0xf1, 0x67, 0xbd, 0xcd, 0x9a, 0x43,
  0x71, 0x74, 0xd9, 0x7a, 0x7f, 0x17, 0x4d, 0x3a, 0x2f, 0xba, 0x94, 0xf3,
  0x37, 0x57, 0xfd, 0x7f, 0x72, 0x2a, 0x66, 0xd4, 0xfc, 0xc6, 0xd8, 0xb6,
  0xfe, 0x18, 0x2a, 0xc1, 0x39, 0x7f, 0xeb, 0x11, 0xdc, 0x74, 0x13, 0x4c,
  0x16, 0x5f, 0xf1, 0x9d, 0x0c, 0xf8, 0x7f, 0x1f, 0x7f, 0x24, 0xd7, 0x16,
  0xdd, 0x14, 0x00, 0xeb, 0x2e, 0x79, 0xfb, 0xcd, 0x01, 0x28, 0xc7, 0x81,
  0x34, 0x60, 0x24, 0x92, 0x41, 0xc7, 0x08, 0x05, 0x2c, 0xe1, 0xfe, 0xff,
  0x30, 0xe1, 0xfe, 0xff, 0x34, 0xe1, 0xfe, 0xff, 0x38, 0xe1, 0xfe, 0xff,
  0x3c, 0xe1, 0xfe, 0xff, 0xb6, 0xf0, 0xff, 0xff, 0x04, 0x00, 0x00, 0x00,
  0x30, 0x00, 0x00, 0x00, 0xa2, 0x09, 0x00, 0x00, 0xbf, 0xf7, 0xff, 0xff,
  0xcb, 0xd9, 0xff, 0xff, 0x7a, 0x09, 0x00, 0x00, 0x51, 0xfe, 0xff, 0xff,
  0x68, 0xf8, 0xff, 0xff, 0x6d, 0x00, 0x00, 0x00, 0x80, 0x03, 0x00, 0x00,
  0x91, 0x08, 0x00, 0x00, 0xc4, 0x0c, 0x00, 0x00, 0x86, 0x0f, 0x00, 0x00,
  0xb1, 0xff, 0xff, 0xff, 0xf2, 0xf0, 0xff, 0xff, 0x04, 0x00, 0x00, 0x00,
  0x60, 0x00, 0x00, 0x00, 0xa1, 0x01, 0x37, 0x93, 0x17, 0x81, 0xd9, 0x38,
  0xdb, 0x36, 0x14, 0xaf, 0x7f, 0x58, 0x07, 0xba, 0x0e, 0x7a, 0x78, 0x41,
  0x7f, 0x1d, 0x28, 0x41, 0xe7, 0x3c, 0x05, 0x25, 0xd2, 0x9e, 0x81, 0xea,
  0xba, 0x1b, 0x42, 0x7f, 0xf8, 0xac, 0x0c, 0xb7, 0x0d, 0xa7, 0xfa, 0xb1,
  0x7f, 0xec, 0x40, 0x66, 0xbe, 0xe0, 0xc1, 0xcc, 0x7f, 0xdd, 0x68, 0x12,
  0x73, 0xc4, 0xa1, 0x7f, 0xc2, 0xc8, 0xb5, 0x1a, 0x04, 0x22, 0xec, 0xaf,
  0x7f, 0x8b, 0xf8, 0xce, 0xcb, 0x82, 0xd8, 0xcf, 0xef, 0xa3, 0x7f, 0x5b,
  0x72, 0x49, 0xcb, 0xbd, 0x81, 0xf6, 0xaa, 0xf3, 0x69, 0x81, 0x33, 0x00,
  0x08, 0xd2, 0x65, 0xb7, 0xe8, 0xe1, 0xfe, 0xff, 0xec, 0xe1, 0xfe, 0xff,
  0x66, 0xf1, 0xff, 0xff, 0x04, 0x00, 0x00, 0x00, 0x20, 0x00, 0x00, 0x00,
  0x5d, 0x01, 0x00, 0x00, 0x38, 0x00, 0x00, 0x00, 0x1e, 0x01, 0x00, 0x00,
  0x6f, 0x00, 0x00, 0x00, 0xe3, 0x02, 0x00, 0x00, 0x8e, 0xff, 0xff, 0xff,
  0x48, 0xfc, 0xff, 0xff, 0x46, 0xfe, 0xff, 0xff, 0x92, 0xf1, 0xff, 0xff,
  0x04, 0x00, 0x00, 0x00, 0x40, 0x00, 0x00, 0x00, 0x41, 0xc0, 0x60, 0x49,
  0x81, 0xbb, 0xdf, 0xda, 0xfb, 0x96, 0x1c, 0xf9, 0xab, 0x15, 0x78, 0x7f,
  0x65, 0x8f, 0x65, 0xd1, 0x9d, 0x7f, 0x0d, 0x19, 0x55, 0x6b, 0x23, 0x75,
  0xaa, 0x32, 0x81, 0xcc, 0x38, 0xcd, 0x40, 0xa2, 0x7f, 0x3a, 0xa5, 0x25,
  0xcd, 0x08, 0xdf, 0x44, 0x81, 0xac, 0x16, 0xba, 0x07, 0x0c, 0xca, 0x81,
  0x1b, 0x8b, 0x62, 0xd3, 0x3c, 0xdb, 0xb4, 0x12, 0xac, 0x81, 0xbb, 0x98,
  0x68, 0xe2, 0xfe, 0xff, 0x6c, 0xe2, 0xfe, 0xff, 0xe6, 0xf1, 0xff, 0xff,
  0x04, 0x00, 0x00, 0x00, 0x20, 0x00, 0x00, 0x00, 0x58, 0xfd, 0xff, 0xff,
  0xbc, 0x03, 0x00, 0x00, 0xbc, 0xf6, 0xff, 0xff, 0xed, 0xff, 0xff, 0xff,
  0xbe, 0xff, 0xff, 0xff, 0x67, 0x00, 0x00, 0x00, 0xbd, 0xf9, 0xff, 0xff,
  0x1e, 0xfe, 0xff, 0xff, 0x12, 0xf2, 0xff, 0xff, 0x04, 0x00, 0x00, 0x00,
  0x18, 0x00, 0x00, 0x00, 0x6b, 0xbb, 0x63, 0xb8, 0x13, 0x36, 0x7f, 0x41,
  0xf5, 0xf4, 0x6c, 0x34, 0x0e, 0xb9, 0x2c, 0xcd, 0xf1, 0xef, 0x10, 0x29,
  0xbf, 0x7e, 0xf7, 0x31, 0xc0, 0xe2, 0xfe, 0xff, 0x3a, 0xf2, 0xff, 0xff,
  0x04, 0x00, 0x00, 0x00, 0x20, 0x00, 0x00, 0x00, 0xa7, 0xfa, 0xff, 0xff,
  0x5a, 0xe7, 0xff, 0xff, 0x56, 0xfc, 0xff, 0xff, 0x62, 0xe2, 0xff, 0xff,
  0x46, 0x0d, 0x00, 0x00, 0x8b, 0xd2, 0xff, 0xff, 0x80, 0xc9, 0xff, 0xff,
  0xf7, 0x04, 0x00, 0x00, 0x66, 0xf2, 0xff, 0xff, 0x04, 0x00, 0x00, 0x00,
  0x40, 0x00, 0x00, 0x00, 0xcd, 0xfa, 0x17, 0x23, 0xf7, 0xc6, 0xb0, 0x7f,
  0xde, 0x2d, 0x9c, 0xd4, 0x7a, 0xba, 0x7f, 0x04, 0x7f, 0x2c, 0x68, 0xd7,
  0xac, 0x10, 0xae, 0x0a, 0x65, 0x65, 0x91, 0x63, 0x61, 0x79, 0xcb, 0x81,
  0x4b, 0xfe, 0xdf, 0xe5, 0x65, 0xb7, 0x81, 0xd7, 0x38, 0x7f, 0x38, 0x74,
  0x1e, 0x59, 0xbe, 0xb1, 0xc6, 0x09, 0x25, 0xf6, 0x7f, 0x67, 0x59, 0xed,
  0x28, 0xcb, 0x84, 0xd2, 0x14, 0x69, 0x7f, 0xc7, 0x3c, 0xe3, 0xfe, 0xff,
  0x40, 0xe3, 0xfe, 0xff, 0x44, 0xe3, 0xfe, 0xff, 0x48, 0xe3, 0xfe, 0xff,
  0xc2, 0xf2, 0xff, 0xff, 0x04, 0x00, 0x00, 0x00, 0x20, 0x00, 0x00, 0x00,
  0x14, 0x00, 0x00, 0x00, 0xe5, 0x00, 0x00, 0x00, 0x6d, 0x04, 0x00, 0x00,
  0xb4, 0xff, 0xff, 0xff, 0xe7, 0x03, 0x00, 0x00, 0xe8, 0xfd, 0xff, 0xff,
  0xbd, 0x01, 0x00, 0x00, 0x05, 0x05, 0x00, 0x00, 0xee, 0xf2, 0xff, 0xff,
  0x04, 0x00, 0x00, 0x00, 0x40, 0x00, 0x00, 0x00, 0x25, 0x0f, 0x26, 0x16,
  0x17, 0x0f, 0x7f, 0x3a, 0xde, 0x27, 0x12, 0x7f, 0x4f, 0xea, 0xdb, 0x1e,
  0x06, 0xe6, 0x71, 0x08, 0x7f, 0x4f, 0x02, 0x2a, 0x33, 0x4e, 0x1b, 0x7f,
  0xfb, 0x0a, 0xb6, 0xdb, 0x7f, 0xa9, 0xd1, 0x26, 0xf3, 0x08, 0xf7, 0x09,
  0xfe, 0xa6, 0xfc, 0x22, 0x94, 0x01, 0xfe, 0x7f, 0x68, 0x24, 0xbc, 0xbb,
  0xd7, 0x33, 0x40, 0x81, 0x66, 0x94, 0x7f, 0xd9, 0xfd, 0x78, 0x99, 0x5a,
  0xc4, 0xe3, 0xfe, 0xff, 0xc8, 0xe3, 0xfe, 0xff, 0x42, 0xf3, 0xff, 0xff,
  0x04, 0x00, 0x00, 0x00, 0x20, 0x00, 0x00, 0x00, 0xf6, 0x00, 0x00, 0x00,
