#ifndef NEPSPOT_MODEL_DATA_H_
#define NEPSPOT_MODEL_DATA_H_

#include <stdint.h>

const unsigned char nepspot_model_data[] = {
  0x20, 0x00, 0x00, 0x00, 0x54, 0x46, 0x4c, 0x33, 0x00, 0x00, 0x00, 0x00,
  0x14, 0x00, 0x20, 0x00, 0x1c, 0x00, 0x18, 0x00, 0x14, 0x00, 0x10, 0x00,
  0x0c, 0x00, 0x00, 0x00, 0x08, 0x00, 0x04, 0x00, 0x14, 0x00, 0x00, 0x00,
  0x1c, 0x00, 0x00, 0x00, 0x98, 0x00, 0x00, 0x00, 0x18, 0x01, 0x00, 0x00,
  0x68, 0x46, 0x00, 0x00, 0x78, 0x46, 0x00, 0x00, 0x14, 0x86, 0x00, 0x00,
  0x03, 0x00, 0x00, 0x00, 0x01, 0x00, 0x00, 0x00, 0x10, 0x00, 0x00, 0x00,
  0x00, 0x00, 0x0a, 0x00, 0x10, 0x00, 0x0c, 0x00, 0x08, 0x00, 0x04, 0x00,
  0x0a, 0x00, 0x00, 0x00, 0x0c, 0x00, 0x00, 0x00, 0x1c, 0x00, 0x00, 0x00,
  0x3c, 0x00, 0x00, 0x00, 0x0f, 0x00, 0x00, 0x00, 0x73, 0x65, 0x72, 0x76,
  0x69, 0x6e, 0x67, 0x5f, 0x64, 0x65, 0x66, 0x61, 0x75, 0x6c, 0x74, 0x00,
  0x01, 0x00, 0x00, 0x00, 0x04, 0x00, 0x00, 0x00, 0x68, 0xff, 0xff, 0xff,
  0x1b, 0x00, 0x00, 0x00, 0x04, 0x00, 0x00, 0x00, 0x08, 0x00, 0x00, 0x00,
  0x6f, 0x75, 0x74, 0x70, 0x75, 0x74, 0x5f, 0x30, 0x00, 0x00, 0x00, 0x00,
  0x01, 0x00, 0x00, 0x00, 0x04, 0x00, 0x00, 0x00, 0x76, 0xb9, 0xff, 0xff,
  0x04, 0x00, 0x00, 0x00, 0x0c, 0x00, 0x00, 0x00, 0x6b, 0x65, 0x72, 0x61,
  0x73, 0x5f, 0x74, 0x65, 0x6e, 0x73, 0x6f, 0x72, 0x00, 0x00, 0x00, 0x00,
  0x03, 0x00, 0x00, 0x00, 0x5c, 0x00, 0x00, 0x00, 0x2c, 0x00, 0x00, 0x00,
  0x04, 0x00, 0x00, 0x00, 0xb8, 0xff, 0xff, 0xff, 0x1f, 0x00, 0x00, 0x00,
  0x04, 0x00, 0x00, 0x00, 0x13, 0x00, 0x00, 0x00, 0x43, 0x4f, 0x4e, 0x56,
  0x45, 0x52, 0x53, 0x49, 0x4f, 0x4e, 0x5f, 0x4d, 0x45, 0x54, 0x41, 0x44,
  0x41, 0x54, 0x41, 0x00, 0xdc, 0xff, 0xff, 0xff, 0x1e, 0x00, 0x00, 0x00,
  0x04, 0x00, 0x00, 0x00, 0x13, 0x00, 0x00, 0x00, 0x6d, 0x69, 0x6e, 0x5f,
  0x72, 0x75, 0x6e, 0x74, 0x69, 0x6d, 0x65, 0x5f, 0x76, 0x65, 0x72, 0x73,
  0x69, 0x6f, 0x6e, 0x00, 0x08, 0x00, 0x0c, 0x00, 0x08, 0x00, 0x04, 0x00,
  0x08, 0x00, 0x00, 0x00, 0x1d, 0x00, 0x00, 0x00, 0x04, 0x00, 0x00, 0x00,
  0x13, 0x00, 0x00, 0x00, 0x6d, 0x69, 0x6e, 0x5f, 0x72, 0x75, 0x6e, 0x74,
  0x69, 0x6d, 0x65, 0x5f, 0x76, 0x65, 0x72, 0x73, 0x69, 0x6f, 0x6e, 0x00,
  0x20, 0x00, 0x00, 0x00, 0x4c, 0x45, 0x00, 0x00, 0x44, 0x45, 0x00, 0x00,
  0x2c, 0x45, 0x00, 0x00, 0xec, 0x44, 0x00, 0x00, 0xdc, 0x41, 0x00, 0x00,
  0xcc, 0x40, 0x00, 0x00, 0xbc, 0x30, 0x00, 0x00, 0xac, 0x2f, 0x00, 0x00,
  0x5c, 0x2d, 0x00, 0x00, 0x4c, 0x2c, 0x00, 0x00, 0x3c, 0x1c, 0x00, 0x00,
  0x2c, 0x1b, 0x00, 0x00, 0xdc, 0x18, 0x00, 0x00, 0xcc, 0x17, 0x00, 0x00,
  0xbc, 0x07, 0x00, 0x00, 0xac, 0x06, 0x00, 0x00, 0x5c, 0x04, 0x00, 0x00,
  0x4c, 0x03, 0x00, 0x00, 0xfc, 0x00, 0x00, 0x00, 0xf4, 0x00, 0x00, 0x00,
  0xec, 0x00, 0x00, 0x00, 0xe4, 0x00, 0x00, 0x00, 0xdc, 0x00, 0x00, 0x00,
  0xd4, 0x00, 0x00, 0x00, 0xcc, 0x00, 0x00, 0x00, 0xc4, 0x00, 0x00, 0x00,
  0xbc, 0x00, 0x00, 0x00, 0xb4, 0x00, 0x00, 0x00, 0xac, 0x00, 0x00, 0x00,
  0x8c, 0x00, 0x00, 0x00, 0x6c, 0x00, 0x00, 0x00, 0x04, 0x00, 0x00, 0x00,
  0x9a, 0xba, 0xff, 0xff, 0x04, 0x00, 0x00, 0x00, 0x58, 0x00, 0x00, 0x00,
  0x0c, 0x00, 0x00, 0x00, 0x08, 0x00, 0x0e, 0x00, 0x08, 0x00, 0x04, 0x00,
  0x08, 0x00, 0x00, 0x00, 0x10, 0x00, 0x00, 0x00, 0x28, 0x00, 0x00, 0x00,
  0x00, 0x00, 0x06, 0x00, 0x08, 0x00, 0x04, 0x00, 0x06, 0x00, 0x00, 0x00,
  0x04, 0x00, 0x00, 0x00, 0x01, 0x00, 0x00, 0x00, 0xeb, 0x03, 0x00, 0x00,
  0x00, 0x00, 0x0a, 0x00, 0x10, 0x00, 0x0c, 0x00, 0x08, 0x00, 0x04, 0x00,
  0x0a, 0x00, 0x00, 0x00, 0x01, 0x00, 0x00, 0x00, 0x02, 0x00, 0x00, 0x00,
  0x04, 0x00, 0x00, 0x00, 0x06, 0x00, 0x00, 0x00, 0x32, 0x2e, 0x31, 0x36,
  0x2e, 0x32, 0x00, 0x00, 0xfe, 0xba, 0xff, 0xff, 0x04, 0x00, 0x00, 0x00,
  0x10, 0x00, 0x00, 0x00, 0x00, 0x00, 0x00, 0x00, 0x00, 0x00, 0x00, 0x00,
  0x00, 0x00, 0x00, 0x00, 0x00, 0x00, 0x00, 0x00, 0x1a, 0xbb, 0xff, 0xff,
  0x04, 0x00, 0x00, 0x00, 0x10, 0x00, 0x00, 0x00, 0x31, 0x2e, 0x31, 0x34,
  0x2e, 0x30, 0x00, 0x00, 0x00, 0x00, 0x00, 0x00, 0x00, 0x00, 0x00, 0x00,
  0xf0, 0x7c, 0xff, 0xff, 0xf4, 0x7c, 0xff, 0xff, 0xf8, 0x7c, 0xff, 0xff,
  0xfc, 0x7c, 0xff, 0xff, 0x00, 0x7d, 0xff, 0xff, 0x04, 0x7d, 0xff, 0xff,
  0x08, 0x7d, 0xff, 0xff, 0x0c, 0x7d, 0xff, 0xff, 0x10, 0x7d, 0xff, 0xff,
  0x14, 0x7d, 0xff, 0xff, 0x5e, 0xbb, 0xff, 0xff, 0x04, 0x00, 0x00, 0x00,
  0x40, 0x02, 0x00, 0x00, 0x39, 0x07, 0x1a, 0x06, 0x22, 0xd1, 0xcb, 0x7f,
  0x43, 0x46, 0x16, 0x9f, 0x7f, 0xf8, 0xe6, 0x28, 0x24, 0xcd, 0xea, 0xde,
  0xc1, 0x4a, 0x2a, 0x0e, 0xcd, 0x8b, 0x81, 0x13, 0xf8, 0xf0, 0x7f, 0x04,
  0x0f, 0xf9, 0xfd, 0x07, 0x19, 0x37, 0xf2, 0xea, 0x04, 0xd8, 0x78, 0x7f,
  0x3f, 0x10, 0x34, 0x7f, 0x1a, 0xff, 0xe5, 0xdd, 0xc9, 0xb2, 0x7f, 0x02,
  0xee, 0xf4, 0x04, 0x13, 0xfa, 0xe9, 0x01, 0xf7, 0x04, 0xcd, 0x08, 0xf7,
  0x7f, 0x5d, 0x52, 0x68, 0x44, 0x41, 0x38, 0xd0, 0xf1, 0x25, 0x81, 0x9d,
  0xf2, 0x0e, 0xc2, 0xbf, 0xf5, 0xf8, 0x81, 0x05, 0xc4, 0xc7, 0xf1, 0x02,
  0x47, 0xd9, 0xfd, 0x5d, 0xa7, 0xe5, 0x7f, 0x5f, 0xc9, 0x81, 0x54, 0x69,
  0xe9, 0xee, 0x55, 0x42, 0x41, 0x43, 0xdd, 0xe1, 0x18, 0xde, 0x94, 0x3d,
  0x7f, 0x08, 0x18, 0x32, 0xb5, 0x20, 0xaa, 0x75, 0x15, 0x7f, 0x06, 0xfe,
  0x8c, 0xd1, 0x81, 0xa7, 0xf8, 0xa8, 0xf7, 0xf8, 0xf2, 0xfa, 0x32, 0x6b,
  0x7a, 0x96, 0x9e, 0x81, 0xd7, 0xf2, 0x53, 0x08, 0xff, 0xfb, 0x81, 0xe2,
  0x05, 0xd3, 0x31, 0x0e, 0x4d, 0x2c, 0xb3, 0x73, 0x07, 0x81, 0x3b, 0xed,
  0xdc, 0x5c, 0x1b, 0x81, 0x85, 0x06, 0x69, 0x89, 0x81, 0xf9, 0x7c, 0x78,
  0x3e, 0xfa, 0xec, 0xea, 0xc1, 0xfe, 0x36, 0x81, 0xf6, 0x77, 0x5d, 0xd5,
  0xc8, 0x11, 0xd4, 0x14, 0x24, 0x7f, 0x00, 0xa7, 0xa9, 0xcd, 0xe9, 0x02,
  0xfc, 0xeb, 0xd0, 0x8c, 0xed, 0x1d, 0x7f, 0x02, 0x21, 0x7f, 0xed, 0xfd,
  0x0b, 0x08, 0x02, 0xd5, 0x7f, 0x0f, 0x97, 0xfa, 0x14, 0xe6, 0x70, 0x0b,
  0xea, 0x81, 0x34, 0x23, 0xb7, 0x36, 0x2d, 0x3a, 0xf1, 0xca, 0x12, 0x09,
  0xfa, 0x4f, 0x7f, 0xb9, 0x12, 0x0f, 0xcb, 0xf1, 0x21, 0xd8, 0xff, 0xfb,
  0x0a, 0x7f, 0x34, 0xe2, 0x55, 0x33, 0x2b, 0xe8, 0xcb, 0xfd, 0x9e, 0xa2,
  0x81, 0x81, 0xe3, 0x34, 0xe7, 0x18, 0x5a, 0x89, 0xca, 0x2a, 0xc2, 0x07,
  0x7f, 0x24, 0x22, 0xec, 0x31, 0x19, 0xc0, 0x73, 0x71, 0x77, 0x81, 0x0d,
  0xd1, 0x07, 0xe1, 0xe4, 0xf1, 0xcc, 0xe0, 0x5f, 0x7f, 0x2c, 0xce, 0xa0,
  0xc5, 0xd5, 0xf8, 0x06, 0xca, 0x32, 0xf6, 0x81, 0x14, 0x36, 0xd9, 0xe5,
  0xd8, 0x7d, 0x6e, 0x06, 0x85, 0x81, 0x2d, 0xb4, 0xe1, 0x34, 0x70, 0x0d,
  0x81, 0xa2, 0x1a, 0x6a, 0x3c, 0x35, 0x7f, 0x0d, 0xd2, 0x89, 0xe7, 0x24,
  0x21, 0x98, 0x0b, 0xd8, 0xce, 0x1c, 0x33, 0x7f, 0x27, 0x03, 0x5f, 0x41,
  0x7f, 0xa6, 0xc4, 0x8d, 0xde, 0xca, 0xae, 0x15, 0xdf, 0x81, 0x11, 0xf3,
  0x14, 0x15, 0xf8, 0xd2, 0xeb, 0xcf, 0x30, 0x1d, 0x26, 0xc4, 0x81, 0x8e,
  0xd4, 0x0f, 0x51, 0xf1, 0x3e, 0x26, 0x42, 0x7f, 0x27, 0xb7, 0x1e, 0xdf,
  0xd3, 0xf0, 0x29, 0x6a, 0x7f, 0xe6, 0xaa, 0x0b, 0xe2, 0xef, 0xe5, 0x18,
  0xcf, 0xdc, 0x8e, 0x81, 0x36, 0x1b, 0x04, 0xe0, 0xf5, 0x0d, 0xc6, 0x2e,
  0x7f, 0xb7, 0xf2, 0x5d, 0x22, 0x06, 0x7f, 0xde, 0x1d, 0x77, 0xc5, 0xeb,
  0x89, 0x08, 0xe3, 0x81, 0x1c, 0x1f, 0x69, 0xdd, 0x0c, 0x7f, 0x4d, 0x29,
  0x0f, 0x34, 0xdb, 0xf2, 0x81, 0x00, 0x6f, 0x58, 0x07, 0xd2, 0xfc, 0x11,
  0x06, 0x42, 0xfe, 0x52, 0x13, 0xee, 0x85, 0x17, 0xde, 0x81, 0x20, 0x07,
  0x43, 0xf7, 0xe9, 0xe0, 0x00, 0xdb, 0x81, 0x48, 0x81, 0xe2, 0x42, 0x29,
  0xc1, 0xc8, 0x25, 0xe5, 0xa8, 0x1c, 0xfd, 0x7f, 0xcf, 0x1c, 0xfe, 0x0e,
  0x01, 0xea, 0xed, 0x18, 0x2b, 0x1b, 0x27, 0x71, 0x7f, 0x3a, 0xce, 0xca,
  0x94, 0xc7, 0xf3, 0x13, 0x7f, 0x28, 0xbc, 0x20, 0x34, 0xc0, 0x07, 0x7f,
  0xde, 0x03, 0x01, 0x82, 0x11, 0xde, 0xcc, 0x5f, 0x7f, 0x63, 0x55, 0x2c,
  0x64, 0x81, 0xfb, 0x07, 0x8d, 0xfc, 0x1e, 0xc8, 0xf6, 0x01, 0x81, 0xb7,
  0xeb, 0xd2, 0xe3, 0xeb, 0x0e, 0xfa, 0xdd, 0xdc, 0xfe, 0xd2, 0xf5, 0x4b,
  0x3d, 0xca, 0x86, 0x81, 0x10, 0x1d, 0x08, 0x02, 0x0e, 0xe4, 0x7f, 0x6e,
  0xe9, 0x49, 0x56, 0xc6, 0xc9, 0x8f, 0x4e, 0x61, 0x7f, 0x70, 0xf7, 0x63,
  0x1d, 0x7f, 0xda, 0xd9, 0x88, 0xc5, 0xe8, 0x13, 0xfa, 0xdf, 0x7f, 0x20,
  0x45, 0xae, 0x9d, 0xb2, 0xaa, 0xbd, 0xff, 0xff, 0x04, 0x00, 0x00, 0x00,
  0x00, 0x01, 0x00, 0x00, 0x1a, 0xfe, 0xff, 0xff, 0xf1, 0x00, 0x00, 0x00,
  0xa4, 0x06, 0x00, 0x00, 0xf3, 0x00, 0x00, 0x00, 0xdc, 0xfe, 0xff, 0xff,
  0x8b, 0x02, 0x00, 0x00, 0xc7, 0xfc, 0xff, 0xff, 0x62, 0xfc, 0xff, 0xff,
  0x45, 0x09, 0x00, 0x00, 0x99, 0x00, 0x00, 0x00, 0x8e, 0xff, 0xff, 0xff,
  0xa9, 0xf4, 0xff, 0xff, 0x34, 0xff, 0xff, 0xff, 0x42, 0x00, 0x00, 0x00,
  0x54, 0x00, 0x00, 0x00, 0x38, 0x04, 0x00, 0x00, 0x93, 0x00, 0x00, 0x00,
  0xb8, 0xff, 0xff, 0xff, 0xeb, 0xff, 0xff, 0xff, 0x2f, 0x01, 0x00, 0x00,
  0xf4, 0xff, 0xff, 0xff, 0xdc, 0x00, 0x00, 0x00, 0x2f, 0xfe, 0xff, 0xff,
  0x77, 0xfe, 0xff, 0xff, 0x01, 0x01, 0x00, 0x00, 0x91, 0xfe, 0xff, 0xff,
  0x00, 0x00, 0x00, 0x00, 0xb1, 0xfe, 0xff, 0xff, 0xc8, 0x07, 0x00, 0x00,
  0xb9, 0x00, 0x00, 0x00, 0x68, 0xfe, 0xff, 0xff, 0x13, 0x01, 0x00, 0x00,
  0xe4, 0x00, 0x00, 0x00, 0xd2, 0xff, 0xff, 0xff, 0x65, 0x00, 0x00, 0x00,
  0xa1, 0x00, 0x00, 0x00, 0x00, 0xf9, 0xff, 0xff, 0x63, 0x00, 0x00, 0x00,
  0x23, 0x07, 0x00, 0x00, 0x87, 0x00, 0x00, 0x00, 0x07, 0x03, 0x00, 0x00,
  0x7c, 0x03, 0x00, 0x00, 0xe0, 0xff, 0xff, 0xff, 0xbc, 0x02, 0x00, 0x00,
  0x85, 0xfe, 0xff, 0xff, 0xd7, 0xfd, 0xff, 0xff, 0xcf, 0x01, 0x00, 0x00,
  0xc4, 0x03, 0x00, 0x00, 0xa1, 0xfd, 0xff, 0xff, 0x7f, 0x02, 0x00, 0x00,
  0x6f, 0x03, 0x00, 0x00, 0x05, 0xfd, 0xff, 0xff, 0xd3, 0xff, 0xff, 0xff,
  0x56, 0xfc, 0xff, 0xff, 0xf1, 0x02, 0x00, 0x00, 0xdc, 0x00, 0x00, 0x00,
  0xa7, 0xfd, 0xff, 0xff, 0xb7, 0xf4, 0xff, 0xff, 0x38, 0x00, 0x00, 0x00,
  0xd0, 0x04, 0x00, 0x00, 0xec, 0xfd, 0xff, 0xff, 0xbc, 0xf9, 0xff, 0xff,
  0xe1, 0x01, 0x00, 0x00, 0x2c, 0x02, 0x00, 0x00, 0xb6, 0xbe, 0xff, 0xff,
  0x04, 0x00, 0x00, 0x00, 0x40, 0x02, 0x00, 0x00, 0x3a, 0x5c, 0x0e, 0xf1,
  0x71, 0xc3, 0x5b, 0x24, 0xd8, 0x1e, 0x05, 0x38, 0xf9, 0x7f, 0x1a, 0x28,
  0x5a, 0x13, 0x06, 0xa1, 0x39, 0x2a, 0xe4, 0x20, 0xf7, 0x32, 0x9f, 0x05,
  0xee, 0x14, 0xd6, 0x81, 0x5a, 0x81, 0xc0, 0x81, 0xd3, 0x81, 0xc1, 0xb3,
  0xbb, 0x42, 0xd7, 0xdd, 0x06, 0x65, 0xd1, 0x81, 0xde, 0xc3, 0x3b, 0x2e,
  0x42, 0xf1, 0x41, 0x4b, 0x06, 0x7f, 0xcf, 0xe8, 0x25, 0x26, 0xf7, 0xf8,
  0x1a, 0xef, 0xfa, 0xf5, 0x1a, 0xef, 0x22, 0x16, 0xca, 0xd7, 0xec, 0x7f,
  0x0c, 0xd0, 0x15, 0xa6, 0xfe, 0x2f, 0x0f, 0xc6, 0x18, 0x4e, 0xda, 0x1f,
  0xf8, 0x7f, 0xe6, 0x40, 0xe9, 0x48, 0x0e, 0xc9, 0x2f, 0x1c, 0xe7, 0xfe,
  0x2e, 0xf4, 0xde, 0xc0, 0x44, 0xfe, 0xe0, 0xfb, 0xd5, 0xd9, 0xf7, 0xec,
  0x17, 0xf2, 0x03, 0x2e, 0xe3, 0xfb, 0x2f, 0xcc, 0x23, 0xd8, 0x04, 0xd7,
  0x11, 0x8a, 0xfd, 0x18, 0x82, 0xb4, 0xe4, 0x24, 0xf0, 0xff, 0x53, 0x17,
  0xcf, 0xad, 0x89, 0xf2, 0x3e, 0x42, 0x81, 0x81, 0xa8, 0x24, 0x81, 0xae,
  0x2c, 0x30, 0x18, 0x81, 0x1e, 0x40, 0x7f, 0xd9, 0x50, 0xe4, 0x41, 0x11,
  0xaa, 0x45, 0x01, 0xe3, 0x7f, 0x3f, 0xb2, 0xe8, 0xf7, 0x26, 0xb6, 0x7a,
  0x16, 0xba, 0x19, 0x31, 0x0b, 0x69, 0xc9, 0xd7, 0x01, 0xe5, 0x7d, 0xfc,
  0x27, 0xbb, 0x95, 0x11, 0x0f, 0xc3, 0x12, 0x11, 0xd0, 0x30, 0xff, 0x7f,
  0x54, 0xc1, 0xc7, 0x12, 0x1d, 0xc3, 0xee, 0x20, 0x7f, 0xe7, 0x05, 0xf7,
  0x81, 0x19, 0xfc, 0x01, 0x4a, 0x81, 0xde, 0x9e, 0x81, 0x0d, 0x21, 0x95,
  0x71, 0x30, 0xeb, 0xed, 0x81, 0x8d, 0x81, 0x1a, 0xd9, 0xd3, 0xf1, 0x1c,
  0x07, 0x7f, 0xf2, 0x53, 0xb6, 0x1b, 0x12, 0x8e, 0x12, 0xb1, 0x07, 0x7f,
  0x81, 0xf8, 0x7f, 0xda, 0xcd, 0xc6, 0x81, 0x15, 0x16, 0x81, 0x06, 0x23,
  0x51, 0x04, 0x02, 0xd7, 0x01, 0x2a, 0x04, 0x22, 0xfe, 0x15, 0x38, 0xd3,
  0x38, 0xeb, 0xf7, 0x14, 0xa0, 0x12, 0x1f, 0x0c, 0xf2, 0xb4, 0xe5, 0xbd,
  0x13, 0xb4, 0xc7, 0x03, 0x3a, 0x37, 0x25, 0xd5, 0xdc, 0xdd, 0x01, 0xfe,
  0x28, 0xe0, 0x22, 0xcf, 0x02, 0x28, 0x20, 0xeb, 0x46, 0xfe, 0x13, 0x33,
  0x09, 0x00, 0x06, 0x38, 0x0d, 0xfd, 0x2c, 0x62, 0xa3, 0x0e, 0xc9, 0x21,
  0xd3, 0xf2, 0x09, 0xfc, 0x81, 0xcd, 0xd9, 0xbf, 0x7f, 0x7f, 0xf0, 0x93,
  0x08, 0x7f, 0x7f, 0xd0, 0xb6, 0xf2, 0xa7, 0x04, 0xdd, 0x35, 0xb0, 0xed,
  0x14, 0xe4, 0xec, 0xd2, 0x68, 0x1a, 0xa1, 0x4e, 0x81, 0xaa, 0x7f, 0xcd,
  0xf2, 0x2a, 0x2a, 0x01, 0x46, 0x2e, 0x00, 0xfa, 0xf7, 0x39, 0x26, 0xb8,
  0x61, 0xa9, 0xdc, 0x15, 0x7f, 0x7f, 0x02, 0x52, 0xf7, 0x17, 0x56, 0xa6,
  0x81, 0xf9, 0xff, 0x51, 0xc3, 0x71, 0x09, 0xfb, 0x2a, 0x7f, 0x29, 0x3f,
  0x25, 0x0a, 0x81, 0xcc, 0x81, 0x2c, 0x0a, 0xfe, 0x25, 0xd3, 0x8e, 0x06,
  0x0e, 0x29, 0xd1, 0x81, 0x3f, 0x1e, 0x19, 0xc7, 0xf6, 0xfb, 0x16, 0x81,
  0xd1, 0x81, 0xf7, 0x46, 0x0d, 0xb5, 0x98, 0xad, 0x17, 0x3b, 0x7f, 0xe9,
  0x70, 0x3c, 0xbd, 0x1a, 0xfc, 0x06, 0x7f, 0xd9, 0xbd, 0x4f, 0xdc, 0xe8,
  0x1a, 0x7f, 0xf4, 0x81, 0x27, 0xd5, 0xf0, 0xb9, 0x81, 0x2f, 0x7f, 0xbb,
  0x04, 0x0b, 0xe3, 0xf8, 0xe4, 0xe5, 0xc3, 0x8c, 0xbd, 0x3f, 0xfb, 0xf4,
  0x0b, 0xbb, 0xac, 0xe6, 0xde, 0x6d, 0xca, 0xd1, 0x3f, 0x48, 0x49, 0xc1,
  0x25, 0x6e, 0x00, 0xd2, 0x40, 0xa6, 0xfc, 0xad, 0xc7, 0xa8, 0xdc, 0xef,
  0x37, 0xbe, 0x4e, 0x5e, 0x7f, 0xf2, 0x83, 0xc8, 0xe1, 0xf2, 0x1a, 0x00,
  0x41, 0x02, 0x27, 0xd9, 0xf4, 0x09, 0xce, 0x2c, 0x00, 0x39, 0x15, 0x97,
  0xdb, 0x4e, 0xe2, 0xbc, 0xbd, 0x86, 0x81, 0xf1, 0x3e, 0x09, 0xd9, 0x81,
  0x1a, 0x1e, 0x11, 0xfb, 0x9d, 0x9f, 0xa5, 0x9f, 0x0b, 0x7f, 0xb1, 0xf4,
  0x7f, 0xa5, 0x7f, 0xdf, 0xbb, 0x85, 0xc8, 0xfb, 0x1d, 0xa9, 0x0f, 0x8b,
  0x8d, 0xaa, 0x07, 0xad, 0x40, 0xe6, 0xfd, 0x7f, 0xc0, 0xca, 0x81, 0x81,
  0x81, 0x81, 0x93, 0x19, 0x53, 0x97, 0x7f, 0xdf, 0xe2, 0xda, 0x83, 0xe2,
  0x96, 0x15, 0x0c, 0x81, 0x56, 0xf5, 0xad, 0x81, 0x02, 0xc1, 0xff, 0xff,
  0x04, 0x00, 0x00, 0x00, 0x00, 0x01, 0x00, 0x00, 0x3b, 0x01, 0x00, 0x00,
  0xf2, 0xfe, 0xff, 0xff, 0xb1, 0x02, 0x00, 0x00, 0x16, 0xff, 0xff, 0xff,
  0x4a, 0xfb, 0xff, 0xff, 0xba, 0xff, 0xff, 0xff, 0x96, 0x00, 0x00, 0x00,
  0x86, 0x03, 0x00, 0x00, 0xba, 0x04, 0x00, 0x00, 0x96, 0xff, 0xff, 0xff,
  0x42, 0xff, 0xff, 0xff, 0x07, 0xff, 0xff, 0xff, 0x83, 0xfe, 0xff, 0xff,
  0x24, 0x00, 0x00, 0x00, 0x80, 0x05, 0x00, 0x00, 0x34, 0x03, 0x00, 0x00,
  0x35, 0x01, 0x00, 0x00, 0xbf, 0xfd, 0xff, 0xff, 0x10, 0x04, 0x00, 0x00,
  0xa6, 0x03, 0x00, 0x00, 0xe5, 0xfc, 0xff, 0xff, 0xf1, 0xff, 0xff, 0xff,
  0x36, 0x00, 0x00, 0x00, 0x3b, 0x01, 0x00, 0x00, 0xb1, 0xff, 0xff, 0xff,
  0x3e, 0xfe, 0xff, 0xff, 0xd1, 0x00, 0x00, 0x00, 0x04, 0x02, 0x00, 0x00,
  0x98, 0xfd, 0xff, 0xff, 0xc7, 0x03, 0x00, 0x00, 0x74, 0xff, 0xff, 0xff,
  0xa2, 0x04, 0x00, 0x00, 0x54, 0x02, 0x00, 0x00, 0xf2, 0x02, 0x00, 0x00,
  0xff, 0x01, 0x00, 0x00, 0xbc, 0x03, 0x00, 0x00, 0x07, 0xff, 0xff, 0xff,
  0xe4, 0x01, 0x00, 0x00, 0xc4, 0xff, 0xff, 0xff, 0xe1, 0x02, 0x00, 0x00,
  0x8e, 0xfd, 0xff, 0xff, 0x47, 0xf9, 0xff, 0xff, 0x88, 0x05, 0x00, 0x00,
  0x2d, 0xff, 0xff, 0xff, 0x92, 0x00, 0x00, 0x00, 0x79, 0x01, 0x00, 0x00,
  0x76, 0x00, 0x00, 0x00, 0x2d, 0x02, 0x00, 0x00, 0x75, 0xff, 0xff, 0xff,
  0x8f, 0xff, 0xff, 0xff, 0x20, 0xfe, 0xff, 0xff, 0xc0, 0xfe, 0xff, 0xff,
  0xcc, 0x00, 0x00, 0x00, 0x65, 0xff, 0xff, 0xff, 0x14, 0xfc, 0xff, 0xff,
  0x57, 0x00, 0x00, 0x00, 0xfa, 0x01, 0x00, 0x00, 0xd8, 0xff, 0xff, 0xff,
  0x20, 0x07, 0x00, 0x00, 0xd7, 0x01, 0x00, 0x00, 0xec, 0xff, 0xff, 0xff,
  0xb6, 0x00, 0x00, 0x00, 0x88, 0xff, 0xff, 0xff, 0xac, 0x01, 0x00, 0x00,
  0x0e, 0xc2, 0xff, 0xff, 0x04, 0x00, 0x00, 0x00, 0x00, 0x10, 0x00, 0x00,
  0x05, 0x02, 0x19, 0x24, 0xe7, 0x08, 0xe7, 0x1a, 0xf4, 0x0f, 0xdf, 0x1e,
  0x0c, 0x09, 0x44, 0xf6, 0xce, 0xef, 0x57, 0x1d, 0x30, 0x00, 0x06, 0x0c,
  0x81, 0x34, 0xcd, 0x28, 0x74, 0x22, 0xa7, 0x44, 0x14, 0x5e, 0x3a, 0x6d,
  0x12, 0x24, 0x2a, 0x0e, 0x28, 0xa7, 0x1d, 0x19, 0x2a, 0xd9, 0x30, 0xd2,
  0x0f, 0x22, 0xed, 0xe2, 0xee, 0x2a, 0x12, 0xc3, 0x21, 0x00, 0x0e, 0x9e,
  0x00, 0x61, 0x30, 0x05, 0x11, 0xee, 0x27, 0xe3, 0xed, 0x1e, 0x31, 0xdd,
  0xe1, 0xf0, 0xea, 0xb8, 0x4c, 0xb6, 0x21, 0xf8, 0x09, 0xb2, 0xf8, 0x09,
  0x22, 0x19, 0x0d, 0x95, 0x2e, 0xf3, 0x62, 0xea, 0xe1, 0x19, 0x1d, 0xf9,
  0x20, 0xde, 0xde, 0x0e, 0xb9, 0x49, 0xca, 0x9b, 0x14, 0x31, 0xd6, 0xeb,
  0xee, 0xd9, 0xfa, 0xec, 0xd7, 0xcb, 0x06, 0xd5, 0x00, 0xd9, 0x81, 0xfc,
  0x19, 0xd9, 0x95, 0xf4, 0x09, 0xf1, 0x13, 0x56, 0xf1, 0xfc, 0x2a, 0x10,
  0xf0, 0x1e, 0x20, 0x3b, 0x1c, 0xc9, 0xba, 0x4b, 0xae, 0x15, 0x4f, 0xdd,
  0xb2, 0xcd, 0x38, 0x1c, 0xd8, 0x0f, 0x13, 0x2d, 0x03, 0x20, 0x21, 0xff,
  0xfe, 0x17, 0x1a, 0xf5, 0x20, 0xfc, 0x20, 0x19, 0xca, 0xfc, 0xf1, 0xc0,
  0x48, 0x04, 0x44, 0x45, 0xd6, 0xd9, 0x65, 0xb7, 0xee, 0x03, 0xe2, 0x18,
  0x22, 0x1e, 0xfb, 0x1b, 0x32, 0x81, 0x15, 0xc1, 0x38, 0xab, 0x04, 0x10,
  0xe6, 0xe6, 0x43, 0x02, 0xed, 0xde, 0xfc, 0xca, 0x09, 0x36, 0xea, 0xc7,
  0x31, 0x3a, 0xf5, 0xef, 0x0a, 0x10, 0xd6, 0xe9, 0x95, 0xed, 0x2b, 0xce,
  0xe7, 0xec, 0x2d, 0x1a, 0xda, 0xc9, 0x14, 0x27, 0x5c, 0x14, 0x10, 0xad,
  0x2a, 0xc3, 0xc6, 0x19, 0x11, 0x2d, 0x12, 0x08, 0x06, 0xe4, 0xd4, 0x03,
  0x81, 0x3c, 0x21, 0xe0, 0xd4, 0x21, 0xdc, 0xcd, 0xe1, 0x0e, 0x02, 0x1e,
  0x3a, 0x13, 0x1e, 0x14, 0x36, 0x02, 0x04, 0x28, 0x35, 0x19, 0xed, 0x03,
  0xc4, 0xe7, 0x05, 0xd9, 0x27, 0xdf, 0x9e, 0x47, 0xe0, 0x0c, 0xd9, 0x22,
  0xbf, 0xf6, 0x0f, 0x33, 0xfc, 0x06, 0xaa, 0xfd, 0xbd, 0xa4, 0xec, 0x63,
  0x83, 0x04, 0x2f, 0x7f, 0x2d, 0xe7, 0x50, 0x3c, 0x2f, 0x29, 0xf9, 0xfd,
  0xe6, 0xbb, 0xfa, 0xfe, 0xdf, 0xce, 0x4c, 0xc8, 0xee, 0x55, 0xbf, 0xcd,
  0x2d, 0xd2, 0x3d, 0xa8, 0xf9, 0xac, 0x3e, 0xaf, 0x17, 0x30, 0x44, 0x0a,
  0x18, 0x3f, 0xb9, 0xa1, 0x04, 0xf9, 0xe0, 0xc5, 0x16, 0xfd, 0x40, 0xbc,
  0x57, 0x0e, 0x01, 0xab, 0x24, 0xf7, 0x67, 0xbd, 0x37, 0xe4, 0xc9, 0x06,
  0x15, 0x0c, 0x10, 0xd7, 0x0c, 0x9a, 0x02, 0x91, 0xf7, 0xec, 0x1d, 0x1e,
  0x21, 0x2c, 0x00, 0x2a, 0xfe, 0xe1, 0x3a, 0x81, 0x42, 0xcd, 0xbc, 0x02,
  0xeb, 0x2e, 0xa3, 0x13, 0xe6, 0x0e, 0x38, 0xda, 0x0a, 0x3a, 0xef, 0x79,
  0xee, 0x21, 0x07, 0xca, 0xf9, 0xa2, 0xf7, 0xec, 0xc7, 0x14, 0x4b, 0x35,
  0xfd, 0x12, 0xb0, 0xd3, 0x65, 0xdb, 0x00, 0xe2, 0xef, 0xe7, 0x19, 0xdf,
  0x12, 0x25, 0xf6, 0x18, 0x5b, 0x01, 0xb6, 0xeb, 0x10, 0xd8, 0x7f, 0x01,
  0x21, 0xec, 0x0c, 0x27, 0xfd, 0xd5, 0x00, 0x05, 0x04, 0x90, 0xe8, 0x0c,
  0xd7, 0xfa, 0x53, 0x1b, 0x0a, 0x33, 0xda, 0x57, 0x05, 0x0e, 0xfd, 0x02,
  0xf1, 0x2b, 0x8c, 0x16, 0x81, 0xd6, 0x0e, 0xe6, 0x08, 0x2d, 0xdf, 0xfd,
  0x1c, 0xf5, 0xa6, 0x8f, 0x08, 0xf8, 0x1a, 0xec, 0xc6, 0x03, 0xb8, 0x3d,
  0xf5, 0x1d, 0x25, 0x0b, 0x16, 0x8f, 0x17, 0x07, 0x24, 0xdb, 0x07, 0x06,
  0x5d, 0x04, 0xd3, 0xce, 0x26, 0xfd, 0x21, 0xc1, 0xed, 0x2d, 0x0c, 0xef,
  0xe8, 0xe1, 0xe1, 0x19, 0x1b, 0xee, 0x20, 0x1a, 0xb1, 0xfe, 0xec, 0x23,
  0xee, 0xd2, 0xfe, 0x26, 0x29, 0x11, 0x1e, 0x0e, 0xe7, 0xe0, 0xea, 0x01,
  0xef, 0xc2, 0x10, 0x93, 0xba, 0x22, 0x1e, 0xdb, 0xcb, 0xd6, 0x1c, 0xf6,
  0x0f, 0xee, 0xe6, 0x7f, 0xfd, 0xd0, 0x5e, 0xe6, 0xf4, 0xd8, 0xe4, 0xd3,
  0x32, 0x8a, 0xbc, 0xf2, 0x0a, 0xeb, 0x1c, 0x1a, 0x0b, 0x0a, 0x99, 0xee,
  0x20, 0x32, 0x3e, 0x40, 0xac, 0x07, 0x1d, 0xeb, 0x29, 0xcf, 0xd8, 0x04,
  0x8b, 0x06, 0xa1, 0x06, 0xed, 0xf4, 0x06, 0x40, 0xdc, 0x41, 0xf8, 0xf0,
  0xff, 0xdb, 0xde, 0x4f, 0x24, 0xe2, 0x26, 0x0b, 0xfd, 0x05, 0x0a, 0xfa,
  0x19, 0xfe, 0xc0, 0x11, 0xe3, 0x1e, 0x00, 0x1c, 0xe8, 0xb6, 0x07, 0xe2,
  0xf9, 0xf1, 0x0f, 0xd1, 0x12, 0xc4, 0x17, 0xe0, 0x01, 0x81, 0x17, 0xe2,
  0xea, 0xd6, 0xf3, 0xf4, 0xfd, 0x25, 0xfa, 0xf4, 0x05, 0xe1, 0x42, 0xfe,
  0x14, 0x11, 0xd4, 0x23, 0xef, 0xfa, 0x0e, 0xbe, 0xd8, 0xf1, 0xf9, 0x05,
  0x26, 0x28, 0xcc, 0x51, 0xec, 0xff, 0x36, 0xf7, 0x0c, 0x16, 0x98, 0x01,
  0x37, 0x2c, 0x55, 0x11, 0xd9, 0x06, 0x46, 0xe0, 0xe4, 0x23, 0xd9, 0xe1,
  0xd6, 0xde, 0xf8, 0x30, 0x07, 0xd7, 0xe8, 0x0d, 0xfd, 0x0a, 0x1d, 0xe3,
  0xff, 0x01, 0xcb, 0x11, 0xe8, 0xf3, 0x15, 0x21, 0xf4, 0xcb, 0x1c, 0xa4,
  0xf1, 0x10, 0xe6, 0xf3, 0x0e, 0xfe, 0xf5, 0xf8, 0xe8, 0x31, 0xbe, 0x1f,
  0x01, 0x38, 0x76, 0xde, 0x2d, 0x7f, 0x21, 0xc3, 0x0b, 0x39, 0x1f, 0x2d,
  0xd1, 0x9e, 0xe6, 0xeb, 0xe5, 0xc1, 0xd1, 0x2f, 0xed, 0x1d, 0xa3, 0x18,
  0xfa, 0x3a, 0x64, 0x19, 0x11, 0xe5, 0xd7, 0xa8, 0x1e, 0x17, 0xfe, 0x3e,
  0xe7, 0x3b, 0xaf, 0x53, 0xed, 0xf2, 0x23, 0x45, 0xe9, 0x19, 0x9f, 0x81,
  0x00, 0x33, 0xd2, 0xf9, 0x02, 0x06, 0xf3, 0x17, 0x33, 0xda, 0x17, 0x26,
  0x34, 0x18, 0x03, 0x13, 0xb7, 0xe6, 0x89, 0xda, 0xbb, 0xe9, 0xd4, 0xf5,
  0x00, 0x1b, 0x95, 0xda, 0x08, 0x1e, 0x1e, 0x1a, 0xe3, 0x3b, 0xcf, 0xf9,
  0xfd, 0xfe, 0x0c, 0xe1, 0xf7, 0x2d, 0x27, 0x68, 0xe6, 0xd6, 0x11, 0x05,
  0xcb, 0x01, 0x08, 0x32, 0x35, 0x05, 0x21, 0xe9, 0x24, 0xe9, 0x03, 0x77,
  0xf9, 0x19, 0xff, 0xfe, 0x18, 0xec, 0x0a, 0xe4, 0xe6, 0x2f, 0x81, 0xe2,
  0xc3, 0xee, 0x1a, 0x1a, 0x23, 0x06, 0xed, 0xbd, 0x4a, 0x38, 0x5e, 0xd7,
  0x1d, 0xf8, 0xe5, 0x13, 0xed, 0xd1, 0x2f, 0x0a, 0x81, 0x35, 0xf4, 0x0b,
  0x06, 0x05, 0x15, 0x38, 0xcb, 0xae, 0xdc, 0x3d, 0xf2, 0xb4, 0xf1, 0xbb,
  0x1e, 0xe5, 0x20, 0x47, 0xff, 0x41, 0xfe, 0x12, 0xca, 0x18, 0x3c, 0x1b,
  0x0d, 0xf0, 0xe6, 0xb8, 0x27, 0xef, 0xe5, 0x11, 0x03, 0xfa, 0x23, 0x0d,
  0xb7, 0xc6, 0xd1, 0x7b, 0xef, 0x04, 0x8c, 0xcb, 0xae, 0xed, 0xfd, 0x3a,
  0xfa, 0x5d, 0xee, 0xee, 0x1c, 0x10, 0x14, 0x2e, 0x3d, 0x40, 0xfa, 0xcb,
  0x0e, 0x97, 0x4d, 0x99, 0x4c, 0x2e, 0x04, 0x59, 0x56, 0xfa, 0x90, 0x29,
  0x2d, 0xd2, 0xf8, 0xf9, 0xe7, 0xeb, 0xa4, 0xb9, 0xff, 0x09, 0xfe, 0xec,
  0x2a, 0x93, 0x9e, 0x6e, 0x1a, 0xb2, 0xa4, 0x19, 0x0d, 0x5b, 0x16, 0x2c,
  0x33, 0xa5, 0xf7, 0x81, 0xfd, 0xdd, 0xf8, 0x25, 0x06, 0x39, 0x47, 0xb3,
  0x59, 0xe1, 0xd2, 0x37, 0xd7, 0x24, 0xb8, 0x9a, 0xbb, 0xf9, 0x1d, 0xc2,
  0xbb, 0x45, 0x0e, 0x61, 0xec, 0x04, 0x2b, 0x4d, 0xd5, 0xbf, 0x5b, 0x44,
  0x15, 0xf3, 0xe1, 0x91, 0xe2, 0x09, 0x3b, 0xc3, 0x0d, 0xfd, 0xcb, 0x99,
  0xe3, 0x29, 0x26, 0x93, 0x21, 0x0a, 0x06, 0x81, 0xeb, 0x24, 0x16, 0x53,
  0xec, 0xfe, 0xaf, 0x23, 0xc0, 0xca, 0x81, 0xa9, 0x37, 0x58, 0x5b, 0x1d,
  0xe7, 0x9d, 0x0f, 0x3f, 0xf4, 0xe5, 0x20, 0x6b, 0x1c, 0x3b, 0xf0, 0xd9,
  0xfc, 0xc2, 0x09, 0xc8, 0x1e, 0xff, 0x59, 0x25, 0x14, 0xea, 0x8f, 0x20,
  0x19, 0x34, 0xdb, 0x26, 0x0d, 0xfa, 0x2e, 0xa5, 0x38, 0x37, 0x45, 0x97,
  0xc1, 0xda, 0x94, 0x3c, 0x14, 0xfe, 0x1f, 0x27, 0x0d, 0x07, 0xaf, 0x7f,
  0x18, 0xe0, 0xcd, 0x06, 0x20, 0x11, 0x51, 0xec, 0xde, 0x35, 0xe8, 0x3c,
  0xf5, 0x14, 0xab, 0xd5, 0xd9, 0x7c, 0xdb, 0x01, 0x1a, 0x1b, 0x14, 0xf5,
  0x0f, 0xff, 0x1c, 0xc6, 0x07, 0xb0, 0x17, 0xd5, 0xf5, 0x1c, 0x34, 0xd2,
  0x18, 0xe6, 0x0c, 0xc2, 0x1b, 0x32, 0xd9, 0xa9, 0xdc, 0x2c, 0xdb, 0xfd,
  0x1c, 0x07, 0xe4, 0x29, 0xf3, 0x1d, 0xee, 0x32, 0xb5, 0xd7, 0xc1, 0x2b,
  0x03, 0xbf, 0xf7, 0xaf, 0x15, 0xd6, 0x30, 0xfe, 0x00, 0x44, 0x2a, 0x2e,
  0x19, 0xc5, 0xda, 0x17, 0x2c, 0xb5, 0xad, 0xe0, 0x08, 0xef, 0x2f, 0xd9,
  0xf4, 0xa9, 0x81, 0x0b, 0xfa, 0xd4, 0x39, 0xf7, 0x0e, 0xe3, 0x02, 0x12,
  0x13, 0x09, 0x34, 0xfc, 0xd5, 0x81, 0x3b, 0xcf, 0xec, 0x08, 0xc1, 0x24,
  0x12, 0xb2, 0x1d, 0xd1, 0xf5, 0xe8, 0x50, 0x2b, 0x04, 0x64, 0xde, 0x0d,
  0xe0, 0x17, 0x01, 0x22, 0x3f, 0x13, 0xa6, 0xf7, 0x17, 0x0d, 0x14, 0x2a,
  0x03, 0x2b, 0xdf, 0x27, 0xfb, 0xe9, 0x1b, 0x3a, 0xa7, 0xf0, 0x00, 0xfc,
  0xfe, 0xee, 0x1a, 0xdc, 0xed, 0x25, 0x2b, 0x08, 0xe7, 0x54, 0x25, 0xeb,
  0xf6, 0x1e, 0xf0, 0xd1, 0xa9, 0xf0, 0xee, 0xe4, 0x12, 0x0e, 0xef, 0x2a,
  0x59, 0x18, 0xea, 0x36, 0x0c, 0x51, 0x00, 0x04, 0xfb, 0x02, 0x22, 0x2c,
  0x34, 0xfe, 0x11, 0x32, 0xd0, 0x0c, 0x0a, 0xce, 0xef, 0x30, 0xd3, 0xfd,
  0x55, 0x1f, 0x3c, 0x45, 0xff, 0x0c, 0xd4, 0x2e, 0xe4, 0x11, 0x06, 0xf4,
  0x00, 0x14, 0x0b, 0xdb, 0x35, 0x9e, 0x15, 0x23, 0x7f, 0xf3, 0x09, 0xd6,
  0x48, 0x1a, 0x62, 0x1c, 0xf3, 0x3e, 0xf2, 0x03, 0x39, 0xfd, 0xf6, 0x39,
  0x0d, 0xd8, 0x39, 0xfb, 0xc7, 0xdd, 0xeb, 0x8c, 0x3f, 0x07, 0xcb, 0x04,
  0xf3, 0xd8, 0xf1, 0x3a, 0xdd, 0x14, 0xf5, 0x1f, 0xdb, 0xda, 0xce, 0xff,
  0xf0, 0xd5, 0x36, 0xdd, 0xe4, 0xeb, 0x51, 0x23, 0xfd, 0x28, 0x50, 0x97,
  0x81, 0x16, 0xfe, 0xe8, 0xdc, 0x9d, 0xb9, 0x15, 0xec, 0x25, 0xdc, 0x2e,
  0xe1, 0x37, 0xfe, 0xf8, 0x1b, 0xfd, 0xcc, 0xb2, 0x14, 0x44, 0xf5, 0xf9,
  0x1c, 0x43, 0x02, 0x9d, 0xe3, 0x50, 0x51, 0x5a, 0x45, 0xc3, 0x12, 0x3b,
  0xe1, 0x26, 0xd9, 0x56, 0x24, 0x4b, 0x40, 0xbb, 0xf9, 0x49, 0xf5, 0x99,
  0xfb, 0x11, 0xca, 0x10, 0xf7, 0xfe, 0x46, 0xa4, 0xbb, 0xee, 0x69, 0x3a,
  0xb4, 0x6a, 0x35, 0xf3, 0xd3, 0xc9, 0xb1, 0xf3, 0x19, 0x2c, 0xec, 0x05,
  0xa8, 0x40, 0x7f, 0x17, 0x01, 0xd2, 0x68, 0xe1, 0xe0, 0x2c, 0x47, 0x07,
  0xc9, 0xcc, 0xeb, 0xfe, 0xd8, 0xe7, 0xf8, 0x04, 0x08, 0x17, 0xf9, 0x35,
  0xfd, 0xef, 0x87, 0x81, 0x23, 0x18, 0xfe, 0xd1, 0xd8, 0xe1, 0xe8, 0x4b,
  0x12, 0xdf, 0xea, 0x16, 0xf3, 0xa5, 0x01, 0x0b, 0x29, 0xdf, 0x2f, 0xe6,
  0xeb, 0xcc, 0xe2, 0x2b, 0x15, 0x33, 0x1b, 0x00, 0xf6, 0xd5, 0x0a, 0x26,
  0x1d, 0xf9, 0x19, 0xc2, 0x11, 0xf8, 0xdb, 0x1f, 0xe3, 0xca, 0xea, 0x2d,
  0x5d, 0x02, 0xfd, 0xee, 0x0b, 0xe9, 0x3e, 0x04, 0xe8, 0x94, 0xf6, 0xee,
  0xfa, 0xfa, 0x12, 0x0f, 0xd0, 0x8d, 0x59, 0x17, 0x0d, 0xf1, 0xba, 0xe2,
  0x1e, 0x81, 0x23, 0xd7, 0xe8, 0x13, 0x3a, 0x58, 0xa3, 0x1c, 0x00, 0xff,
  0x0d, 0xe9, 0xd2, 0x16, 0xe9, 0x24, 0xf9, 0x20, 0x17, 0xf0, 0x3e, 0xe0,
  0x14, 0x17, 0x13, 0xde, 0x30, 0xd8, 0x09, 0xcc, 0x1d, 0xf7, 0xc4, 0xf4,
  0xd7, 0xe8, 0x0a, 0x13, 0xfd, 0xfb, 0x12, 0x3b, 0xf8, 0xfd, 0xc9, 0x24,
  0xba, 0xbd, 0x0d, 0x03, 0x1b, 0xdf, 0x16, 0x48, 0xfc, 0x81, 0x09, 0xd1,
  0xcd, 0x24, 0x16, 0x27, 0xdb, 0xc2, 0xe7, 0x4c, 0xe7, 0xdf, 0xe2, 0xf9,
  0x0d, 0x12, 0xf8, 0xde, 0xe5, 0x0a, 0x73, 0x0c, 0xf7, 0xdb, 0xfc, 0x02,
  0xd9, 0x9f, 0xe6, 0xc3, 0xea, 0x02, 0xdd, 0x0c, 0x05, 0x39, 0x37, 0x0b,
  0xea, 0x49, 0x15, 0x0f, 0x29, 0xc3, 0x02, 0x3a, 0xf5, 0x46, 0x7b, 0xe7,
  0xff, 0x3a, 0x3e, 0x26, 0x57, 0x2a, 0x2e, 0x20, 0xd5, 0x81, 0xa1, 0x09,
  0x20, 0xdc, 0x27, 0xfd, 0xfe, 0x21, 0x1b, 0xc7, 0xe7, 0xea, 0x17, 0x2d,
  0x4f, 0xeb, 0x36, 0xd2, 0x89, 0xf7, 0x4f, 0xf0, 0xf6, 0x65, 0xd7, 0xf3,
  0xe0, 0xe6, 0x1f, 0x43, 0xeb, 0x64, 0xf4, 0xc2, 0xe4, 0x36, 0x3b, 0x03,
  0x4d, 0xc5, 0x13, 0x43, 0x10, 0x22, 0x2b, 0x27, 0x1d, 0xda, 0xe3, 0xe5,
  0x01, 0x3a, 0xc3, 0x20, 0xe4, 0x5e, 0xc1, 0x93, 0x13, 0xf9, 0xf7, 0x01,
  0x03, 0x1d, 0xb1, 0x00, 0x00, 0xb8, 0xe1, 0x26, 0xf9, 0x23, 0xe2, 0xc7,
  0x5c, 0xf2, 0xf7, 0xf5, 0x32, 0x06, 0x1d, 0xe2, 0xf0, 0x25, 0x1e, 0x11,
  0x0d, 0x0f, 0x25, 0xf4, 0xc7, 0xff, 0x2b, 0x38, 0x34, 0x37, 0xfa, 0xe0,
  0xdb, 0x12, 0xea, 0xf4, 0xce, 0xe4, 0x7f, 0xc6, 0xd3, 0xd7, 0x35, 0x3c,
  0x0d, 0x11, 0x12, 0xf6, 0x1e, 0x62, 0xef, 0xf6, 0xff, 0xef, 0xe1, 0xea,
  0x03, 0x19, 0x9e, 0x39, 0x37, 0x3d, 0x81, 0x3c, 0xf7, 0x47, 0x21, 0x3b,
  0x31, 0x0b, 0xe0, 0x4c, 0x08, 0x15, 0x07, 0x90, 0x38, 0xd1, 0x0f, 0x7b,
  0x38, 0x5c, 0xcb, 0x0e, 0x06, 0x23, 0xb0, 0xd5, 0x14, 0x43, 0x78, 0x03,
  0x71, 0x16, 0x07, 0x77, 0x0f, 0xa0, 0xf0, 0x0e, 0x17, 0x2e, 0xdd, 0xcf,
  0x44, 0xc9, 0x4e, 0x3e, 0x10, 0x25, 0x21, 0x40, 0x3c, 0x62, 0x3e, 0x26,
  0x0f, 0x09, 0xe8, 0x60, 0x12, 0x22, 0xad, 0x22, 0x06, 0x1d, 0x26, 0x24,
  0x41, 0x14, 0x8e, 0xe2, 0xf5, 0x07, 0xd7, 0x07, 0xe8, 0x33, 0xd2, 0xda,
  0xe0, 0x14, 0x10, 0x30, 0x3a, 0xff, 0xea, 0xfd, 0xf3, 0x1d, 0x81, 0xa0,
  0x35, 0xf3, 0x4e, 0xec, 0xf1, 0x0f, 0x17, 0xe4, 0xee, 0x01, 0xaa, 0xc6,
  0x27, 0x09, 0xe8, 0x3f, 0xf4, 0x2b, 0xdb, 0x30, 0x15, 0x13, 0x1e, 0xfa,
  0x5e, 0xf2, 0xf4, 0xe7, 0xf2, 0x0f, 0x1f, 0xee, 0xec, 0x32, 0xd3, 0xfe,
  0xf3, 0x41, 0x26, 0xe9, 0x0b, 0xf0, 0x16, 0xf2, 0xd1, 0x0b, 0xd4, 0xdb,
  0xfc, 0xc8, 0xfd, 0x46, 0x26, 0x14, 0xf0, 0x35, 0x1e, 0xd9, 0x44, 0xf6,
  0x68, 0x19, 0xfd, 0xee, 0x4b, 0xda, 0x09, 0x29, 0x45, 0xbe, 0x24, 0x3f,
  0xea, 0xc9, 0xe6, 0xea, 0x14, 0x34, 0x0d, 0x58, 0xdb, 0xe8, 0x23, 0x2e,
  0x04, 0xf2, 0x20, 0x34, 0x7f, 0xf9, 0x32, 0x10, 0xaf, 0x12, 0xc9, 0x1f,
  0xff, 0x20, 0x0f, 0xe9, 0x22, 0x1a, 0x2a, 0x9d, 0xdc, 0xec, 0xc7, 0xe6,
  0xe2, 0xfd, 0xbc, 0xc7, 0x16, 0x02, 0xee, 0x2a, 0x12, 0xb4, 0x2e, 0xf3,
  0x14, 0x00, 0xd3, 0xfd, 0x1f, 0xfa, 0x15, 0x2d, 0x07, 0x09, 0x59, 0x5d,
  0xea, 0x11, 0x81, 0x17, 0xee, 0x15, 0x0e, 0x20, 0x27, 0x41, 0x17, 0x27,
  0x93, 0xf6, 0xf5, 0xeb, 0xbc, 0xba, 0xc1, 0x05, 0xce, 0xee, 0x37, 0xde,
  0x08, 0xe8, 0xe7, 0xcd, 0xf4, 0x05, 0x23, 0x16, 0x21, 0xd6, 0xe0, 0xdf,
  0x2a, 0x05, 0x28, 0xa9, 0x22, 0xe1, 0x26, 0xc1, 0xfe, 0x27, 0x41, 0xb6,
  0xdc, 0x48, 0x05, 0xd0, 0x0f, 0xf4, 0xf0, 0x17, 0xe4, 0x0f, 0xf9, 0x1d,
  0x17, 0x09, 0xfa, 0xa4, 0xfa, 0x2f, 0x10, 0x09, 0x24, 0x22, 0x13, 0x03,
  0xec, 0x0a, 0xe7, 0xc7, 0x2b, 0x39, 0xf9, 0x81, 0xf2, 0x18, 0xc4, 0x0a,
  0xf2, 0xf3, 0x5f, 0xbd, 0x0b, 0x17, 0x19, 0x14, 0x81, 0x94, 0xd1, 0xb6,
  0x18, 0xdd, 0xb1, 0xe0, 0x9b, 0xa0, 0x43, 0x2a, 0x54, 0x30, 0xe6, 0xdc,
  0x3d, 0x13, 0xf2, 0x2b, 0xd6, 0x34, 0xa5, 0xf8, 0x10, 0x0c, 0x1a, 0xe0,
  0xd9, 0xb9, 0x84, 0x0a, 0x3c, 0x20, 0xe4, 0xb4, 0x32, 0xe5, 0x0d, 0xde,
  0xfa, 0xf7, 0x6c, 0x16, 0x23, 0xba, 0xc5, 0xf5, 0xaf, 0xd2, 0x17, 0x56,
  0x5f, 0x33, 0xeb, 0x27, 0x18, 0xe7, 0xed, 0x39, 0xea, 0x58, 0xb4, 0xf3,
  0xb2, 0xf7, 0x22, 0x2d, 0xfb, 0x27, 0xe3, 0x15, 0x8b, 0x20, 0xce, 0x0a,
  0x02, 0xdd, 0x0a, 0xd2, 0xe0, 0xba, 0x32, 0x17, 0x30, 0x94, 0x1e, 0xee,
  0xf2, 0x1b, 0xf6, 0xc7, 0x36, 0xf4, 0x0e, 0x05, 0x81, 0x01, 0xe2, 0xf8,
  0x08, 0xcc, 0x0a, 0xb0, 0x03, 0xd9, 0x07, 0x58, 0xfa, 0x0c, 0xd1, 0xe2,
  0x11, 0x29, 0xe2, 0x04, 0xb7, 0xdb, 0x12, 0x09, 0x31, 0x00, 0x25, 0xf4,
  0xff, 0xd6, 0xf9, 0x32, 0xf0, 0x15, 0x2b, 0xda, 0xeb, 0x29, 0xa3, 0x2e,
  0x62, 0x22, 0xdf, 0x3b, 0x0c, 0x31, 0xd7, 0xd1, 0x24, 0x0b, 0xea, 0xf2,
  0x12, 0x16, 0x13, 0x0e, 0x0c, 0xbd, 0xd4, 0xa3, 0xda, 0xd3, 0xec, 0x25,
  0x7f, 0xdb, 0xd9, 0x13, 0xfa, 0xe4, 0xd5, 0x1b, 0x02, 0x40, 0x17, 0xd1,
  0x08, 0x0d, 0x3e, 0xa9, 0xde, 0xa7, 0xff, 0x07, 0x33, 0xf5, 0x2a, 0x07,
  0x02, 0xb6, 0x08, 0x1f, 0x3b, 0xf1, 0xec, 0x05, 0x06, 0xf3, 0x2f, 0x58,
  0x26, 0x36, 0xd6, 0xcc, 0xe8, 0xa9, 0x0d, 0x27, 0xab, 0xe0, 0x58, 0x15,
  0xcc, 0x1d, 0x35, 0xff, 0x3c, 0xe3, 0xb1, 0x49, 0x00, 0x05, 0x10, 0x32,
  0xfe, 0x31, 0x13, 0x49, 0xf1, 0x2d, 0x3e, 0x63, 0xfb, 0x6a, 0xcc, 0xb0,
  0x81, 0x46, 0xe1, 0x25, 0xc1, 0x2a, 0x3a, 0xdc, 0x16, 0x3c, 0x8d, 0x38,
  0x06, 0xbd, 0x4d, 0xcf, 0xf4, 0xf2, 0x7c, 0xe3, 0x15, 0xa3, 0xfa, 0x14,
  0x4a, 0x05, 0xee, 0xcf, 0xfc, 0xf4, 0xb7, 0x1c, 0x58, 0xd7, 0xfc, 0x1b,
  0xbd, 0x1b, 0x38, 0xee, 0xd3, 0x16, 0x7f, 0x34, 0x11, 0xed, 0x20, 0x5d,
  0x32, 0x15, 0x2b, 0xc8, 0xbe, 0x04, 0xb5, 0x1e, 0x1c, 0x2f, 0x2b, 0x2d,
  0x0e, 0x37, 0xe4, 0x1d, 0x8d, 0xdd, 0x19, 0xfd, 0xd6, 0x19, 0xd4, 0xff,
  0x22, 0xbb, 0xcd, 0x3c, 0x0e, 0xdd, 0x21, 0xbf, 0xf4, 0x3e, 0xfc, 0xfa,
  0xc1, 0xce, 0xab, 0x56, 0xc6, 0xf6, 0xc3, 0x1c, 0x17, 0x0c, 0x0f, 0x26,
  0x14, 0x13, 0xbf, 0xee, 0x09, 0x2e, 0x15, 0xe0, 0xfa, 0xce, 0xc1, 0x1e,
  0xfd, 0xfe, 0xea, 0xee, 0xfb, 0x29, 0xd5, 0x03, 0x1a, 0xb6, 0xf5, 0xfa,
  0xf7, 0xcc, 0xf3, 0x27, 0x23, 0xfb, 0x08, 0xfc, 0xf6, 0x0c, 0x24, 0x23,
  0x24, 0xf4, 0xcc, 0x0f, 0x81, 0x38, 0xf0, 0x1d, 0xd0, 0x05, 0xee, 0xf3,
  0xf9, 0xf0, 0xdb, 0xe9, 0x26, 0xfb, 0x10, 0x03, 0xb7, 0x81, 0x0a, 0xff,
  0xec, 0x10, 0xeb, 0x06, 0xe8, 0xe1, 0xed, 0x0a, 0xef, 0x16, 0xf3, 0xd7,
  0x13, 0x38, 0x14, 0xf8, 0xd9, 0x0f, 0x2a, 0x09, 0xfb, 0x0f, 0xe3, 0xea,
  0xfb, 0xfd, 0xf8, 0xe0, 0x44, 0x1f, 0x4a, 0xfc, 0x13, 0xfe, 0x1c, 0x07,
  0xdb, 0x07, 0x06, 0xfc, 0xbf, 0x2e, 0x0f, 0x24, 0x12, 0x0d, 0xce, 0x0d,
  0x07, 0x0b, 0x18, 0xff, 0xfd, 0xfa, 0xee, 0x0c, 0x24, 0xbd, 0xfe, 0x16,
  0x81, 0xfe, 0xc2, 0xf2, 0x26, 0xc8, 0xda, 0x19, 0xcb, 0x15, 0xf3, 0xf8,
  0x28, 0x12, 0xfc, 0x10, 0x78, 0x16, 0xce, 0x07, 0xec, 0x2c, 0x69, 0xd7,
  0x23, 0xea, 0xd4, 0x9e, 0x26, 0xeb, 0xc1, 0xf8, 0x01, 0x22, 0xe5, 0xf6,
  0x00, 0xca, 0xd4, 0xf2, 0xf2, 0x2c, 0x41, 0xe5, 0x11, 0x13, 0xd0, 0xd8,
  0xce, 0x1b, 0xdb, 0x1b, 0x03, 0xcd, 0x31, 0xd6, 0xdd, 0x1d, 0x2a, 0x48,
  0x0f, 0xff, 0xfe, 0xfa, 0xfe, 0x21, 0xe7, 0x08, 0x28, 0x57, 0x99, 0xe6,
  0x09, 0x0d, 0x15, 0xe0, 0xe2, 0x0e, 0xdf, 0x5d, 0xcf, 0x1b, 0x14, 0xef,
  0xfe, 0x41, 0xa7, 0x0a, 0xcf, 0xeb, 0x16, 0x81, 0xf6, 0xe0, 0x28, 0x17,
  0xce, 0xfe, 0xc0, 0x0f, 0x37, 0x0a, 0xfd, 0xe9, 0xde, 0x10, 0xf5, 0xed,
  0xf1, 0x04, 0xf8, 0xfa, 0xeb, 0x2a, 0xe8, 0x21, 0xf5, 0xfd, 0xe1, 0xea,
  0xf3, 0xba, 0xc0, 0x17, 0xf1, 0x25, 0xf7, 0xed, 0xf2, 0xd0, 0x86, 0x81,
  0x0d, 0x26, 0xe1, 0x32, 0x63, 0xad, 0xcb, 0xad, 0x06, 0xf2, 0x34, 0xe2,
  0xfa, 0x00, 0x2b, 0xb6, 0x1b, 0xf0, 0x03, 0x09, 0x10, 0x9a, 0x2b, 0x2d,
  0x73, 0xb2, 0x0a, 0xef, 0x48, 0xf4, 0x5c, 0x61, 0x38, 0x29, 0x33, 0x1e,
  0x15, 0x16, 0xff, 0xba, 0x1e, 0xe4, 0x44, 0x0f, 0xf7, 0x3a, 0x2c, 0x14,
  0xd5, 0xcb, 0xdd, 0x1e, 0xc2, 0x04, 0x08, 0x02, 0xc9, 0x90, 0xd8, 0xae,
  0xf6, 0x0b, 0xc0, 0x0f, 0xeb, 0xfc, 0x20, 0xf6, 0x51, 0x00, 0x19, 0xf2,
  0xda, 0x25, 0x0a, 0x01, 0xeb, 0x89, 0x19, 0xcb, 0x0e, 0x0d, 0xc0, 0xd2,
  0x03, 0x0d, 0x81, 0xcd, 0x1f, 0xea, 0xdc, 0x92, 0xee, 0x27, 0x1e, 0xfe,
  0x10, 0x0f, 0xb9, 0xf0, 0x0c, 0xda, 0xc8, 0x13, 0xee, 0xa9, 0x18, 0x2d,
  0x1d, 0xbd, 0xea, 0x19, 0xf5, 0xff, 0xec, 0x30, 0x13, 0x11, 0x2d, 0xe2,
  0x16, 0xee, 0x01, 0x39, 0x8c, 0xe7, 0x1f, 0xf2, 0x1d, 0x04, 0xf6, 0x07,
  0x2e, 0xf0, 0x45, 0xee, 0x00, 0xfe, 0x7d, 0x03, 0xf7, 0xbe, 0xf4, 0xd6,
  0xf2, 0xf8, 0xb5, 0x98, 0x79, 0x58, 0xcb, 0xf5, 0xfb, 0x57, 0x42, 0x11,
  0x01, 0x37, 0x00, 0xfc, 0xfd, 0x21, 0x0e, 0x1e, 0xdc, 0x9b, 0xd7, 0x25,
  0x35, 0xcf, 0x21, 0x49, 0x81, 0xd5, 0x2e, 0xe2, 0x3e, 0xfd, 0xd8, 0x46,
  0xac, 0x40, 0xc8, 0x29, 0x46, 0xeb, 0x8d, 0x11, 0x3d, 0x14, 0xe5, 0x05,
  0xe9, 0x11, 0x36, 0xe9, 0xdb, 0x17, 0xea, 0x0b, 0x0f, 0xd6, 0x81, 0x05,
  0x14, 0x01, 0x14, 0xf0, 0xe7, 0xff, 0x27, 0xf9, 0x31, 0x1d, 0x2a, 0x05,
  0x10, 0x18, 0xf2, 0xbc, 0xcc, 0xe8, 0x14, 0x00, 0xfc, 0xfa, 0xff, 0x2f,
  0xda, 0xe2, 0xc3, 0xf4, 0x1d, 0x54, 0xcf, 0xe2, 0x16, 0xe3, 0x44, 0xda,
  0xf8, 0xe9, 0x19, 0xeb, 0x44, 0xf7, 0x18, 0x0c, 0xe2, 0xd4, 0xe8, 0x2d,
  0x0d, 0x04, 0xe4, 0xda, 0xef, 0x44, 0x9e, 0xde, 0xa7, 0x01, 0xd1, 0x96,
  0x17, 0x3a, 0xdc, 0x90, 0xce, 0xca, 0xe2, 0x30, 0x0e, 0x04, 0xee, 0x3e,
  0x11, 0xef, 0xfd, 0x68, 0x2a, 0xf5, 0xb8, 0xf7, 0x18, 0xc6, 0x6e, 0x7f,
  0xd2, 0x47, 0x36, 0x23, 0x11, 0xc7, 0x0c, 0xed, 0xbb, 0xfd, 0x57, 0xcd,
  0xe5, 0xd3, 0x5f, 0xb6, 0x88, 0xd7, 0xe0, 0x26, 0xac, 0x41, 0x0b, 0xfa,
  0x2f, 0x41, 0xf9, 0xd3, 0xfc, 0x1f, 0xcc, 0x17, 0x2e, 0xdc, 0xce, 0xb1,
  0x59, 0xea, 0xda, 0xa3, 0x07, 0xf8, 0x37, 0x01, 0xf2, 0xf8, 0x0b, 0x4d,
  0xc6, 0xf5, 0x67, 0x1c, 0x3e, 0x8b, 0xb6, 0xf0, 0x0c, 0xa7, 0xf3, 0x41,
  0xac, 0x0f, 0x1c, 0x05, 0xd9, 0x46, 0x13, 0x06, 0x02, 0x53, 0xc2, 0x2c,
  0xf7, 0xc3, 0xf8, 0x7a, 0x1a, 0xf6, 0x2a, 0x32, 0xd0, 0xcb, 0x81, 0x01,
  0xf2, 0x28, 0xea, 0xc5, 0xe7, 0xe6, 0x5b, 0xb2, 0x05, 0x2c, 0xee, 0x15,
  0xf4, 0x12, 0xca, 0x19, 0xc9, 0xdb, 0xf6, 0x24, 0xd5, 0xee, 0xcd, 0xd5,
  0x1d, 0xa7, 0x29, 0xdf, 0x49, 0x0e, 0xf9, 0xf3, 0xf8, 0x15, 0x1e, 0x4b,
  0x24, 0xdf, 0xeb, 0xb8, 0xcf, 0x81, 0xeb, 0x07, 0x0a, 0x3c, 0x1a, 0xb0,
  0x10, 0xc4, 0x11, 0xe8, 0xe4, 0x8d, 0x28, 0x11, 0x33, 0xec, 0xe2, 0xe7,
  0xe9, 0x03, 0x1a, 0xed, 0x0b, 0xce, 0x24, 0xf3, 0xcf, 0x11, 0x28, 0xe5,
  0xe6, 0x2c, 0x17, 0xef, 0x1b, 0x3a, 0x31, 0xe4, 0x12, 0xc7, 0xdf, 0xf5,
  0xf8, 0xa7, 0xb1, 0x0d, 0xf3, 0x38, 0xfc, 0x16, 0xec, 0xe4, 0x3b, 0x2c,
  0x07, 0x15, 0xd2, 0x10, 0x12, 0x0e, 0x31, 0xbe, 0x0a, 0x13, 0x0d, 0xe3,
  0xfd, 0xaa, 0xbd, 0xc2, 0xa5, 0xbd, 0x81, 0x08, 0x23, 0x00, 0xc2, 0x20,
  0x03, 0x17, 0xdb, 0xd2, 0xf0, 0xd1, 0xf9, 0x14, 0x39, 0x20, 0x67, 0x04,
  0x02, 0xfb, 0xf1, 0xd5, 0xde, 0xa9, 0xc7, 0x6f, 0xee, 0x18, 0x02, 0xf4,
  0xe1, 0xba, 0xbd, 0x08, 0x04, 0xf2, 0xba, 0x39, 0x27, 0x1a, 0x29, 0xe7,
  0xc1, 0x14, 0x0c, 0x40, 0x07, 0x2e, 0x14, 0x03, 0xe6, 0xd3, 0x1b, 0xaf,
  0x03, 0x81, 0xf6, 0x31, 0x12, 0x2c, 0x1b, 0x9b, 0x17, 0xf2, 0x11, 0x25,
  0xd7, 0x8c, 0xe7, 0xb5, 0xf1, 0x25, 0x1a, 0xfc, 0x3f, 0x32, 0x23, 0xed,
  0xf0, 0x0f, 0xd3, 0xbd, 0xf5, 0xb5, 0x40, 0x00, 0xf7, 0x0a, 0x04, 0x58,
  0x33, 0x2d, 0x3f, 0xa1, 0xb3, 0xb1, 0x29, 0x9f, 0xb2, 0x4d, 0x4b, 0x3b,
  0xc5, 0xee, 0x28, 0x1d, 0xf6, 0xd3, 0xb5, 0x15, 0xfa, 0xc0, 0x38, 0xcc,
  0x21, 0x83, 0xbb, 0x3d, 0xfd, 0xcf, 0x31, 0x84, 0x46, 0x0d, 0xcb, 0x0d,
  0xbf, 0xef, 0x79, 0x42, 0xff, 0xc5, 0xde, 0x00, 0x5f, 0x39, 0x0b, 0x45,
  0x81, 0x7c, 0x86, 0xf0, 0xa5, 0xea, 0x20, 0x2d, 0x44, 0x17, 0xd2, 0x4a,
  0x10, 0x5f, 0x2f, 0xff, 0xe8, 0xf3, 0x4b, 0xe6, 0x0a, 0x36, 0xf4, 0xa4,
  0x1b, 0xd6, 0xe0, 0xae, 0xbd, 0xc7, 0xfb, 0xdd, 0x03, 0xd7, 0x4c, 0x31,
  0xf9, 0x8c, 0x97, 0x9f, 0x24, 0xce, 0xf7, 0x24, 0x33, 0x26, 0xfb, 0x1a,
  0x1b, 0x09, 0xd2, 0x45, 0x18, 0x7f, 0xf1, 0x6e, 0xed, 0x5a, 0xf4, 0xd6,
  0xb9, 0xf6, 0xa9, 0x8d, 0x0f, 0xbc, 0xd1, 0x17, 0xb2, 0x63, 0x26, 0xcc,
  0xe4, 0x42, 0xd2, 0xec, 0x00, 0x07, 0xfa, 0x13, 0xd1, 0x1e, 0xcf, 0xf6,
  0xfd, 0xfa, 0xef, 0xe7, 0xd4, 0xf4, 0xf2, 0xc1, 0xb4, 0xfc, 0x5c, 0xf6,
  0x03, 0xe5, 0xa7, 0xd4, 0xfc, 0x25, 0x0c, 0xf1, 0x07, 0xf8, 0xee, 0x04,
  0xe8, 0xee, 0xdc, 0x31, 0xd8, 0x51, 0x23, 0x12, 0xc7, 0xfa, 0x81, 0xcf,
  0x08, 0x20, 0x90, 0x27, 0x1c, 0x25, 0x09, 0x20, 0xe0, 0x11, 0x12, 0x1a,
  0x11, 0x3d, 0xf6, 0xd1, 0xca, 0xf5, 0xf8, 0xfe, 0x12, 0x11, 0xf1, 0xd2,
  0xd4, 0x88, 0x38, 0xc2, 0xd0, 0xb0, 0x2d, 0x07, 0x38, 0xd2, 0x4a, 0xf7,
  0x18, 0x02, 0xd9, 0x1b, 0x2b, 0xe4, 0x5c, 0xbf, 0xbb, 0x08, 0x1c, 0x0b,
  0xea, 0x0d, 0xf2, 0xed, 0x0f, 0x15, 0x54, 0x30, 0xdb, 0xfd, 0x23, 0xcc,
  0xf3, 0xbc, 0xf0, 0x03, 0x27, 0x0b, 0xfe, 0x15, 0xbd, 0xc3, 0x3c, 0xf8,
  0x14, 0x17, 0x06, 0x1f, 0xd1, 0x0c, 0x27, 0x13, 0x81, 0x04, 0x13, 0x9c,
  0xda, 0x0f, 0xec, 0x18, 0x19, 0xf9, 0x2b, 0xfc, 0xf4, 0x24, 0x27, 0x21,
  0x18, 0xbf, 0x19, 0xf2, 0x11, 0xf3, 0x1e, 0xec, 0xe1, 0x08, 0xe4, 0x81,
  0x28, 0xfc, 0xe3, 0x3f, 0xbc, 0x1c, 0x01, 0x57, 0xe2, 0xd4, 0x01, 0x3d,
  0xfc, 0xe0, 0x66, 0xf8, 0x0b, 0x0c, 0xdb, 0x10, 0x1d, 0x1e, 0xe0, 0xe1,
  0x11, 0x09, 0x27, 0x0a, 0xe5, 0x36, 0x19, 0x22, 0xc0, 0x42, 0xdb, 0xf9,
  0xe7, 0xf4, 0xcf, 0x0c, 0x12, 0x11, 0xbd, 0x51, 0x0b, 0x16, 0xfb, 0x1c,
  0xe7, 0xf5, 0xde, 0x0c, 0x24, 0x0a, 0xbb, 0xe1, 0xcf, 0x16, 0x0b, 0x42,
  0xc8, 0xda, 0x22, 0x01, 0x53, 0x22, 0xc6, 0xe3, 0xf7, 0xc6, 0x02, 0xc1,
  0x25, 0x81, 0x1a, 0xf1, 0x0e, 0x55, 0xc5, 0xfa, 0xfe, 0xd2, 0xe6, 0xd2,
  0x07, 0xfe, 0xcb, 0x34, 0xef, 0x1c, 0x0d, 0x24, 0x41, 0xfd, 0x02, 0xf1,
  0x29, 0xe7, 0xca, 0x23, 0xfe, 0x30, 0x14, 0x1d, 0x61, 0x81, 0x2b, 0x09,
  0x2b, 0xd8, 0xda, 0xe5, 0xfe, 0x31, 0xee, 0x0b, 0x07, 0x14, 0x0f, 0x20,
  0xca, 0xf6, 0x05, 0x15, 0xc8, 0x0a, 0x23, 0x0e, 0x12, 0xae, 0x47, 0x09,
  0x3c, 0x05, 0x3a, 0x0f, 0x42, 0xa8, 0xc8, 0xbb, 0x24, 0xa8, 0xfc, 0x30,
  0xf0, 0xd4, 0x48, 0xf9, 0xea, 0xc4, 0x16, 0x18, 0x90, 0x55, 0xe2, 0xef,
  0xd1, 0x63, 0xf3, 0x22, 0x15, 0xe7, 0x11, 0xe3, 0x2e, 0xd0, 0x0d, 0xe4,
  0x0c, 0x81, 0xed, 0x5c, 0x26, 0x88, 0xd0, 0xbf, 0xcf, 0x17, 0xc0, 0xf4,
  0x1e, 0x1f, 0xe4, 0x65, 0x43, 0x2c, 0x50, 0x6d, 0x02, 0x85, 0xfa, 0xc2,
  0x2a, 0xd4, 0x13, 0x11, 0xfb, 0x2c, 0xf2, 0x99, 0xd3, 0xdd, 0x44, 0xf3,
  0xe1, 0x7a, 0xd8, 0x13, 0xba, 0x11, 0x04, 0xe5, 0x2a, 0x03, 0xcd, 0x33,
  0xcd, 0x19, 0x32, 0x01, 0xf7, 0x2e, 0xe2, 0x14, 0xb2, 0x1e, 0xfa, 0x27,
  0x23, 0xe2, 0x30, 0xfc, 0x0a, 0xc6, 0x00, 0x5f, 0x02, 0xd5, 0x7b, 0x1f,
  0x9e, 0x0d, 0x93, 0xdc, 0x08, 0xca, 0x9b, 0xd1, 0xae, 0xeb, 0x40, 0x42,
  0x31, 0xee, 0xe8, 0x0a, 0x03, 0xfd, 0x23, 0x47, 0x15, 0xfd, 0x30, 0xcd,
  0x32, 0x02, 0x3d, 0x0b, 0xc2, 0x07, 0xae, 0xe9, 0xa0, 0xf6, 0xb3, 0x46,
  0x1d, 0xc5, 0xe7, 0x6a, 0x00, 0x1c, 0x12, 0x5a, 0xd3, 0x60, 0x4a, 0x81,
  0xce, 0x82, 0x8b, 0xd5, 0xd4, 0x05, 0x1a, 0xc2, 0x0b, 0x22, 0x14, 0x56,
  0xd8, 0x18, 0x36, 0xea, 0xe3, 0x06, 0xd9, 0x0d, 0x18, 0x03, 0x06, 0xfd,
  0xe3, 0x00, 0xb8, 0x21, 0xbf, 0x00, 0x97, 0x19, 0xfe, 0x06, 0xb2, 0x06,
  0x09, 0x0b, 0xe0, 0xe1, 0x4c, 0x81, 0x07, 0x3d, 0xf0, 0xdb, 0xee, 0x17,
  0x0c, 0x23, 0xe2, 0xf6, 0xf2, 0x08, 0xed, 0xf1, 0x00, 0xb4, 0x06, 0xfb,
  0x51, 0x57, 0xf0, 0xd5, 0xbe, 0x15, 0x09, 0x03, 0x1a, 0xc5, 0x2d, 0xd4,
  0x05, 0x4e, 0x3a, 0xc9, 0x0f, 0xc3, 0x1d, 0xe9, 0x19, 0xd9, 0x1e, 0x24,
  0xe5, 0x1f, 0x1e, 0x08, 0x32, 0xef, 0x08, 0x32, 0x23, 0xf9, 0xdc, 0xdd,
  0x0c, 0x12, 0xe5, 0x04, 0xd0, 0x27, 0xc7, 0xc9, 0x45, 0xd6, 0x46, 0x35,
  0xdb, 0xbe, 0x03, 0xa8, 0x14, 0xf7, 0x2a, 0x0b, 0x06, 0x06, 0xce, 0xf2,
  0x1f, 0xeb, 0x2e, 0xdb, 0x47, 0xf0, 0xf1, 0x28, 0x41, 0xeb, 0x4e, 0xd9,
  0x1a, 0xcc, 0x81, 0xfc, 0xf4, 0x02, 0x31, 0xca, 0xcd, 0xfb, 0x09, 0x26,
  0x32, 0x30, 0x1f, 0x39, 0x1a, 0xec, 0xf1, 0xf9, 0x2b, 0x1c, 0xf6, 0x3f,
  0xe3, 0xe5, 0x02, 0xc4, 0xe2, 0xef, 0x0c, 0x19, 0x12, 0xeb, 0xfc, 0x16,
  0x1b, 0x0f, 0x1e, 0x36, 0xf1, 0xe8, 0xf2, 0xfa, 0x25, 0xae, 0xf3, 0xec,
  0xd3, 0x29, 0xf2, 0x12, 0xd4, 0xe6, 0x07, 0x15, 0x30, 0xec, 0xf9, 0x2c,
  0x04, 0xfc, 0xde, 0xbc, 0x81, 0xba, 0xd4, 0xe2, 0x22, 0xfe, 0xf4, 0xb3,
  0x49, 0xe5, 0xf5, 0xe7, 0xc5, 0x73, 0x1a, 0x0a, 0xcf, 0x0b, 0xa9, 0xd6,
  0xe3, 0xed, 0xea, 0x0f, 0x1c, 0x11, 0x31, 0x7f, 0x16, 0x16, 0xfe, 0x0c,
  0x29, 0xe0, 0x3d, 0xbe, 0xd0, 0xa7, 0x13, 0xe7, 0xf0, 0x02, 0x1c, 0xeb,
  0x4f, 0x19, 0x39, 0x3a, 0x0b, 0xdd, 0xa5, 0xfe, 0xed, 0xf3, 0xda, 0x2b,
  0x1b, 0xe4, 0x69, 0x19, 0x48, 0x7b, 0x29, 0x10, 0xfe, 0x0b, 0x2d, 0xd2,
  0xf4, 0x0e, 0xd7, 0x16, 0xc9, 0x9b, 0x42, 0xe1, 0x3d, 0x16, 0x54, 0xfa,
  0xba, 0x04, 0x37, 0x1d, 0xb5, 0x0d, 0x4d, 0x36, 0xc0, 0x68, 0xef, 0xe7,
  0xfd, 0x1a, 0x3c, 0xa6, 0xe5, 0xd0, 0xe1, 0x96, 0xbc, 0xd3, 0xc1, 0x1c,
  0xc8, 0x1e, 0x10, 0xf3, 0x2e, 0x04, 0xd7, 0xb7, 0x19, 0xe4, 0xf0, 0x12,
  0xcc, 0xfc, 0xc4, 0x13, 0x01, 0x81, 0xe5, 0xe0, 0xf9, 0xea, 0x53, 0x3a,
  0x3d, 0xd8, 0x9e, 0xab, 0x1a, 0xd2, 0xff, 0xff, 0x04, 0x00, 0x00, 0x00,
  0x00, 0x01, 0x00, 0x00, 0x43, 0xf0, 0xff, 0xff, 0x0e, 0x05, 0x00, 0x00,
  0x5c, 0xf5, 0xff, 0xff, 0x90, 0x00, 0x00, 0x00, 0x38, 0xff, 0xff, 0xff,
  0xea, 0x01, 0x00, 0x00, 0x78, 0x03, 0x00, 0x00, 0x08, 0x04, 0x00, 0x00,
  0x64, 0x06, 0x00, 0x00, 0xc3, 0x04, 0x00, 0x00, 0x41, 0xfc, 0xff, 0xff,
  0x4c, 0x02, 0x00, 0x00, 0xf1, 0xfd, 0xff, 0xff, 0x82, 0x02, 0x00, 0x00,
  0x14, 0x01, 0x00, 0x00, 0x48, 0x04, 0x00, 0x00, 0xb7, 0xf5, 0xff, 0xff,
  0x27, 0x05, 0x00, 0x00, 0x2d, 0xfc, 0xff, 0xff, 0xb0, 0xf0, 0xff, 0xff,
  0x65, 0x05, 0x00, 0x00, 0xcd, 0xfd, 0xff, 0xff, 0xb2, 0x00, 0x00, 0x00,
  0xf0, 0xff, 0xff, 0xff, 0x34, 0xff, 0xff, 0xff, 0xff, 0xf9, 0xff, 0xff,
  0xc8, 0xff, 0xff, 0xff, 0xea, 0xf1, 0xff, 0xff, 0x9c, 0xff, 0xff, 0xff,
  0x0b, 0xfa, 0xff, 0xff, 0xff, 0xfb, 0xff, 0xff, 0xad, 0xf9, 0xff, 0xff,
  0xaf, 0x06, 0x00, 0x00, 0x41, 0x04, 0x00, 0x00, 0xa2, 0xfe, 0xff, 0xff,
  0xa0, 0xeb, 0xff, 0xff, 0xb6, 0xf9, 0xff, 0xff, 0xdc, 0x04, 0x00, 0x00,
  0x23, 0xfe, 0xff, 0xff, 0x2c, 0x04, 0x00, 0x00, 0x13, 0x04, 0x00, 0x00,
  0xb4, 0xfc, 0xff, 0xff, 0x10, 0x02, 0x00, 0x00, 0x94, 0xf8, 0xff, 0xff,
  0x14, 0x04, 0x00, 0x00, 0x2e, 0x00, 0x00, 0x00, 0x7c, 0x00, 0x00, 0x00,
  0xc2, 0x09, 0x00, 0x00, 0xb9, 0x02, 0x00, 0x00, 0x3d, 0x07, 0x00, 0x00,
  0xd3, 0xfc, 0xff, 0xff, 0xd7, 0x01, 0x00, 0x00, 0x7c, 0x03, 0x00, 0x00,
  0x4f, 0xfe, 0xff, 0xff, 0x20, 0x00, 0x00, 0x00, 0x14, 0x05, 0x00, 0x00,
  0xea, 0xfe, 0xff, 0xff, 0x3c, 0xff, 0xff, 0xff, 0xbd, 0x09, 0x00, 0x00,
  0x9f, 0x01, 0x00, 0x00, 0xfb, 0xfa, 0xff, 0xff, 0x97, 0xfd, 0xff, 0xff,
  0x4d, 0x01, 0x00, 0x00, 0x46, 0x04, 0x00, 0x00, 0x26, 0xd3, 0xff, 0xff,
  0x04, 0x00, 0x00, 0x00, 0x40, 0x02, 0x00, 0x00, 0x15, 0x7f, 0x35, 0x7f,
  0x56, 0x12, 0x37, 0x3a, 0x0f, 0x2b, 0x82, 0x5e, 0xc8, 0xd2, 0xd4, 0xf9,
  0xeb, 0xd6, 0x30, 0x0b, 0xf9, 0x15, 0x1d, 0x52, 0xde, 0xb6, 0xe6, 0xd1,
  0x68, 0xec, 0x3a, 0x7f, 0x2b, 0x11, 0x75, 0x7f, 0xc2, 0xbb, 0x18, 0xb2,
  0x81, 0xd6, 0x28, 0x42, 0x29, 0x31, 0xa9, 0x81, 0x41, 0x2b, 0x0a, 0x84,
  0x11, 0xf9, 0xd7, 0x42, 0x67, 0xdf, 0x1a, 0x55, 0x35, 0x7f, 0x44, 0xba,
  0x28, 0x55, 0x37, 0x21, 0x04, 0x24, 0x13, 0x2a, 0xcf, 0x2e, 0xa2, 0xec,
  0xca, 0x0b, 0xe8, 0x18, 0x06, 0xc4, 0xf8, 0x37, 0xf4, 0x2c, 0x0a, 0xf6,
  0xd2, 0xe2, 0x02, 0xeb, 0xff, 0x1e, 0x12, 0x35, 0xc7, 0x10, 0x11, 0x19,
  0xc8, 0x04, 0x21, 0xa7, 0xc0, 0xd9, 0x0a, 0x2a, 0x3f, 0x3d, 0xb0, 0xea,
  0xef, 0x22, 0xca, 0x08, 0x2d, 0xbc, 0x15, 0x22, 0x1a, 0x81, 0xf7, 0xd8,
  0x34, 0x23, 0x0f, 0xb4, 0x61, 0x4e, 0x7a, 0xb5, 0xe8, 0x25, 0x44, 0x7f,
  0x81, 0x61, 0xcf, 0x81, 0xb4, 0x44, 0xfa, 0xeb, 0x7c, 0xb6, 0x81, 0x63,
  0xe1, 0x3b, 0x20, 0x08, 0x13, 0xd5, 0x2f, 0x92, 0x1a, 0x4a, 0x2a, 0xfc,
  0x81, 0xe8, 0x8a, 0xe4, 0xd5, 0x5b, 0x15, 0x81, 0xf2, 0xb9, 0x1a, 0x31,
  0x31, 0x32, 0xa3, 0x2c, 0x19, 0x2f, 0xc6, 0x81, 0x29, 0xb9, 0xfa, 0x5a,
  0xc4, 0xd0, 0x0e, 0x28, 0xf9, 0x54, 0xfb, 0x97, 0xff, 0xed, 0xf4, 0x38,
  0xd4, 0xeb, 0xb4, 0x26, 0xcd, 0x60, 0x81, 0xcc, 0x01, 0x50, 0xf7, 0x19,
  0x01, 0x41, 0xa9, 0x7f, 0x12, 0x81, 0xf1, 0xdc, 0xba, 0xc1, 0x81, 0xea,
  0x7f, 0x81, 0xdf, 0xfb, 0x64, 0x39, 0xd5, 0x16, 0xd0, 0xe0, 0x2e, 0x9c,
  0xb2, 0x4e, 0x0a, 0xbc, 0x21, 0xc4, 0x74, 0xe5, 0x39, 0xf3, 0x81, 0xb7,
  0x25, 0xf0, 0x34, 0x7f, 0xd9, 0x2e, 0x29, 0x4b, 0x64, 0xd2, 0x36, 0xef,
  0x31, 0xce, 0x28, 0x0a, 0xef, 0xcf, 0xbb, 0x30, 0x0d, 0x08, 0x10, 0xae,
  0x09, 0x07, 0x2b, 0x21, 0x07, 0x19, 0xbf, 0x23, 0x44, 0x94, 0xf5, 0xe7,
  0x43, 0x10, 0x97, 0x23, 0x32, 0xa9, 0x20, 0x11, 0x4c, 0xfd, 0x42, 0x53,
  0xda, 0xf0, 0x0c, 0xe8, 0xf3, 0x06, 0x24, 0xe2, 0x08, 0x1a, 0x48, 0x0f,
  0x3f, 0xf5, 0xd9, 0xea, 0x0c, 0x32, 0x19, 0x06, 0x14, 0x07, 0x13, 0xdc,
  0x37, 0x0e, 0xfe, 0xd0, 0x43, 0xd6, 0x41, 0xcd, 0x81, 0xc0, 0xd8, 0x54,
  0x08, 0x01, 0x74, 0xfb, 0x34, 0x39, 0x3f, 0x0c, 0x7f, 0xf3, 0xd9, 0xcc,
  0x7f, 0x94, 0x2f, 0x8b, 0x7f, 0x10, 0xaf, 0x1d, 0x71, 0x1a, 0x26, 0x4a,
  0x0e, 0x5f, 0x21, 0x51, 0x1a, 0x10, 0xf4, 0x25, 0xc0, 0xbf, 0x11, 0x39,
  0x1f, 0x37, 0x7f, 0xe6, 0x55, 0x7f, 0x0c, 0xbb, 0x08, 0x7f, 0x7f, 0x06,
  0x16, 0x3b, 0xe5, 0xce, 0x32, 0xe2, 0x21, 0xfe, 0x35, 0xed, 0xc5, 0xc0,
  0x5a, 0xb2, 0xac, 0xf2, 0x45, 0x81, 0x4f, 0x01, 0x7f, 0x47, 0x04, 0xfc,
  0x3b, 0x6b, 0x0d, 0x5b, 0xc0, 0x0c, 0x7f, 0x4a, 0xeb, 0x77, 0xae, 0x81,
  0x11, 0x03, 0x7f, 0xbc, 0xb0, 0x06, 0xab, 0x6f, 0xc4, 0x7f, 0x06, 0x88,
  0x99, 0x7f, 0x27, 0x7f, 0xaa, 0xc0, 0x18, 0x56, 0xc5, 0x93, 0xdb, 0xe9,
  0x7f, 0x73, 0x09, 0xed, 0x7f, 0xc5, 0x7f, 0x1d, 0x38, 0x45, 0xb6, 0x81,
  0x7f, 0x05, 0x0a, 0xeb, 0x3c, 0xaf, 0x8c, 0xaf, 0x26, 0xc2, 0x2b, 0x1d,
  0x21, 0x3c, 0xad, 0x16, 0xb7, 0x69, 0x40, 0x4b, 0xef, 0xf4, 0xf8, 0xe1,
  0xc6, 0x1f, 0xce, 0xfd, 0xee, 0xb5, 0x2e, 0xb1, 0xaa, 0x14, 0xd0, 0x1e,
  0xbf, 0x2c, 0x3a, 0xf3, 0x35, 0x18, 0x4c, 0x3f, 0x81, 0xfe, 0xfc, 0x5e,
  0xc5, 0xc0, 0xe2, 0xd8, 0x1a, 0x4e, 0xcf, 0xef, 0x0c, 0xf1, 0x0f, 0x37,
  0x18, 0x0e, 0xaf, 0xab, 0x58, 0xba, 0x7f, 0x1f, 0x7c, 0x81, 0x81, 0xe2,
  0x58, 0xc1, 0x79, 0x6a, 0xe5, 0x7f, 0x81, 0x7f, 0x14, 0x7f, 0x92, 0x05,
  0x23, 0xe3, 0x12, 0x7f, 0x93, 0x7f, 0x14, 0x27, 0x6a, 0xf8, 0x49, 0xa7,
  0x8e, 0x7f, 0x7f, 0xdc, 0x81, 0xaa, 0x7f, 0x40, 0xe1, 0x17, 0x7f, 0x2c,
  0x87, 0x7f, 0xc1, 0x2d, 0x81, 0xc2, 0xee, 0xc4, 0x06, 0x01, 0x15, 0xff,
  0x70, 0xd5, 0xcd, 0x7f, 0x7f, 0x02, 0x81, 0xa8, 0x72, 0xd5, 0xff, 0xff,
  0x04, 0x00, 0x00, 0x00, 0x00, 0x01, 0x00, 0x00, 0x5f, 0xfd, 0xff, 0xff,
  0xb2, 0xfe, 0xff, 0xff, 0x1c, 0xff, 0xff, 0xff, 0xe6, 0xfe, 0xff, 0xff,
  0xae, 0xfd, 0xff, 0xff, 0xff, 0x01, 0x00, 0x00, 0x2d, 0x03, 0x00, 0x00,
  0x61, 0xfc, 0xff, 0xff, 0xba, 0xfe, 0xff, 0xff, 0x15, 0xfd, 0xff, 0xff,
  0x37, 0x01, 0x00, 0x00, 0xbf, 0xff, 0xff, 0xff, 0x09, 0xff, 0xff, 0xff,
  0xea, 0xfb, 0xff, 0xff, 0xf0, 0x00, 0x00, 0x00, 0xbf, 0xfc, 0xff, 0xff,
  0xb4, 0xfe, 0xff, 0xff, 0x58, 0xfc, 0xff, 0xff, 0x8f, 0x05, 0x00, 0x00,
  0x78, 0xfd, 0xff, 0xff, 0x8a, 0xfe, 0xff, 0xff, 0x13, 0x04, 0x00, 0x00,
  0xd4, 0xfe, 0xff, 0xff, 0x15, 0xff, 0xff, 0xff, 0x2c, 0x02, 0x00, 0x00,
  0xd8, 0xfe, 0xff, 0xff, 0x63, 0x05, 0x00, 0x00, 0xa3, 0x04, 0x00, 0x00,
  0x70, 0xfa, 0xff, 0xff, 0x1f, 0x01, 0x00, 0x00, 0xd5, 0xfe, 0xff, 0xff,
  0x48, 0xff, 0xff, 0xff, 0x17, 0x01, 0x00, 0x00, 0x26, 0xff, 0xff, 0xff,
  0x96, 0xfe, 0xff, 0xff, 0xe6, 0xfe, 0xff, 0xff, 0x1c, 0x08, 0x00, 0x00,
  0x41, 0xfe, 0xff, 0xff, 0x7b, 0xfe, 0xff, 0xff, 0xd2, 0x03, 0x00, 0x00,
  0xfe, 0x06, 0x00, 0x00, 0xc3, 0xfe, 0xff, 0xff, 0x5a, 0xff, 0xff, 0xff,
  0xb5, 0xfe, 0xff, 0xff, 0xc3, 0xfe, 0xff, 0xff, 0xb5, 0xfc, 0xff, 0xff,
  0x0d, 0xff, 0xff, 0xff, 0xf9, 0xfd, 0xff, 0xff, 0x96, 0xff, 0xff, 0xff,
  0x6e, 0xfc, 0xff, 0xff, 0x90, 0x03, 0x00, 0x00, 0xa0, 0x05, 0x00, 0x00,
  0x82, 0xfd, 0xff, 0xff, 0x06, 0xfe, 0xff, 0xff, 0xe8, 0xfd, 0xff, 0xff,
  0x65, 0xf9, 0xff, 0xff, 0xcd, 0xfe, 0xff, 0xff, 0x6c, 0x02, 0x00, 0x00,
  0x60, 0xfd, 0xff, 0xff, 0x97, 0xfd, 0xff, 0xff, 0xc8, 0xfc, 0xff, 0xff,
  0xf6, 0xfe, 0xff, 0xff, 0xef, 0xfe, 0xff, 0xff, 0x2e, 0x05, 0x00, 0x00,
  0x7e, 0xd6, 0xff, 0xff, 0x04, 0x00, 0x00, 0x00, 0x00, 0x10, 0x00, 0x00,
  0xc6, 0x01, 0xe7, 0xf2, 0xf4, 0xd4, 0xfe, 0xa7, 0x05, 0x23, 0xca, 0x31,
  0x45, 0x30, 0xe0, 0x26, 0x27, 0xa7, 0x1a, 0xd6, 0xa3, 0x08, 0xc7, 0x60,
  0xed, 0x17, 0xf6, 0xf4, 0xc7, 0x2a, 0xcc, 0xd2, 0xf6, 0x8b, 0xc9, 0x98,
  0xe0, 0xe5, 0xc0, 0xbf, 0xc8, 0xd5, 0xc9, 0xe1, 0x81, 0xf8, 0x6a, 0x45,
  0x4f, 0x52, 0xf9, 0xd1, 0x37, 0x0e, 0x00, 0xce, 0xf8, 0xfb, 0x2b, 0xe4,
  0x2b, 0x10, 0x7c, 0xc4, 0x04, 0x88, 0xe0, 0x0e, 0x1d, 0xfb, 0x06, 0x38,
  0xf3, 0xf3, 0xdc, 0x12, 0x53, 0xf1, 0x1e, 0x1e, 0x10, 0xad, 0xe8, 0x18,
  0xe3, 0xb4, 0x18, 0x20, 0xcf, 0xdb, 0xe8, 0x04, 0x1d, 0x0e, 0xec, 0xff,
  0x9a, 0x1d, 0x32, 0x15, 0xce, 0xc6, 0x0f, 0x81, 0xe2, 0xc7, 0xe5, 0x3d,
  0x33, 0xcf, 0xe0, 0xe8, 0x0b, 0x23, 0x22, 0xa8, 0xf1, 0xa1, 0x32, 0x60,
  0x32, 0x11, 0x28, 0xc6, 0xfd, 0x4a, 0x4e, 0xf0, 0xfb, 0xfb, 0x81, 0xa8,
  0x08, 0xa8, 0xfd, 0xfa, 0x12, 0x37, 0xc8, 0x1a, 0xde, 0xd6, 0xaa, 0xde,
  0x14, 0xf8, 0xe7, 0xa7, 0x2f, 0xcd, 0xce, 0x28, 0xef, 0xde, 0xa7, 0xe6,
  0x00, 0xe3, 0x9d, 0xbc, 0xb0, 0xdf, 0x25, 0xd9, 0xbb, 0x2a, 0x00, 0xc2,
  0x29, 0x0d, 0xe0, 0x51, 0xb4, 0xe7, 0xf7, 0xea, 0xbc, 0xc0, 0x11, 0xe3,
  0x25, 0x27, 0xc2, 0xde, 0xe9, 0x0f, 0x19, 0x08, 0xfa, 0x17, 0x3a, 0x1b,
  0xd9, 0x27, 0x3c, 0x31, 0x1a, 0x0c, 0x0b, 0x49, 0xca, 0x23, 0xd8, 0x32,
  0xcb, 0x15, 0xff, 0x14, 0xd2, 0x5d, 0xd3, 0x38, 0x10, 0x06, 0xfc, 0xc1,
  0xe6, 0xf6, 0x9d, 0xba, 0x0e, 0x2b, 0x7f, 0x18, 0xda, 0xe4, 0x1a, 0x06,
  0xe0, 0x23, 0xc3, 0x11, 0x36, 0x00, 0xb2, 0xb0, 0xfd, 0x43, 0xf9, 0x2c,
  0x0c, 0xef, 0x20, 0x8f, 0xc8, 0xde, 0x45, 0x37, 0x0a, 0xcf, 0x53, 0x01,
  0xe0, 0x0a, 0x1b, 0xba, 0x0d, 0xc1, 0xf3, 0xd6, 0xbc, 0xe4, 0x2f, 0x07,
  0xd8, 0xdb, 0x02, 0xf9, 0xf2, 0x13, 0x53, 0xeb, 0x2f, 0xf6, 0xde, 0xff,
  0xbc, 0xba, 0x08, 0x10, 0x05, 0x0f, 0x15, 0x00, 0x19, 0x81, 0xd7, 0xff,
  0xf9, 0xe4, 0x02, 0x06, 0xb2, 0xd7, 0x17, 0xfa, 0x77, 0x00, 0xf9, 0xff,
  0x00, 0x17, 0x11, 0xd3, 0x0a, 0x22, 0x5f, 0x3e, 0xd9, 0x11, 0xdb, 0x13,
  0xfe, 0xf9, 0xf7, 0x21, 0xe8, 0x19, 0xd6, 0xfa, 0xd7, 0xd1, 0x98, 0xe9,
  0xf1, 0x63, 0xed, 0xef, 0xcc, 0xf6, 0x0d, 0x11, 0xd6, 0x19, 0xd5, 0x01,
  0xe2, 0x05, 0xf2, 0x2e, 0x09, 0xde, 0x07, 0xef, 0x00, 0x0d, 0xc3, 0xdd,
  0x1d, 0x29, 0x4a, 0xc6, 0xa1, 0xdc, 0xdb, 0x16, 0x46, 0xf8, 0x3b, 0x1a,
  0xfa, 0x16, 0x8a, 0x29, 0x03, 0x0d, 0xbf, 0xf9, 0x44, 0xcd, 0x12, 0x25,
  0xe1, 0x1b, 0xe6, 0xdf, 0xbb, 0x41, 0x81, 0x9f, 0x39, 0xe4, 0x06, 0x44,
  0xee, 0xf0, 0xfa, 0x9a, 0xf2, 0x06, 0x29, 0xc1, 0xc4, 0x2c, 0xa2, 0xfe,
  0xc2, 0x3e, 0x2d, 0xbb, 0xbc, 0x1c, 0xe3, 0xd9, 0x11, 0xe0, 0x1f, 0xf6,
  0xc9, 0xb5, 0x9d, 0xcd, 0x06, 0xc8, 0x01, 0xf3, 0x38, 0xb4, 0xe6, 0xdf,
  0xc7, 0x60, 0x34, 0x25, 0x2a, 0x11, 0xc5, 0x81, 0xb6, 0x17, 0x01, 0x0b,
  0x04, 0x0a, 0xaf, 0xf9, 0xf6, 0x35, 0xe3, 0x25, 0xc9, 0xf2, 0xf5, 0x3c,
  0xaa, 0xa2, 0x2b, 0x03, 0x81, 0xa5, 0xdc, 0xe8, 0xfe, 0xcf, 0x0f, 0x23,
  0xaf, 0x21, 0xdc, 0xa3, 0xc6, 0x08, 0xcc, 0x01, 0x9f, 0xc9, 0xf8, 0xe4,
  0x2d, 0xed, 0xe8, 0xec, 0xeb, 0xcf, 0xc6, 0xad, 0xd2, 0x47, 0xe2, 0xd8,
  0x2b, 0x0b, 0xd3, 0xf5, 0x0c, 0x2b, 0x3e, 0x22, 0x00, 0x02, 0x9f, 0x09,
  0xf4, 0x0a, 0x08, 0x35, 0xdd, 0x27, 0x16, 0x11, 0xd4, 0xec, 0x02, 0x2d,
  0xdd, 0x1b, 0x10, 0x06, 0xf0, 0x14, 0x0e, 0x25, 0xfb, 0x1f, 0xe0, 0xe8,
  0xf6, 0x3b, 0xca, 0xca, 0x2b, 0x2d, 0xc0, 0x20, 0x23, 0x32, 0x03, 0x14,
  0xc2, 0x8b, 0x01, 0x30, 0x0d, 0x2e, 0x0e, 0xdf, 0xb0, 0x10, 0x8d, 0xc0,
  0xd9, 0x01, 0x58, 0xf3, 0xfa, 0xf4, 0xe7, 0xb7, 0xc2, 0x2e, 0x14, 0xe6,
  0xee, 0xdd, 0x00, 0x4f, 0xb1, 0xe2, 0x32, 0xa6, 0x2a, 0x42, 0xdc, 0x9e,
  0x03, 0xb1, 0x37, 0xa0, 0xc4, 0x18, 0xd6, 0xc9, 0xbc, 0x2a, 0x7f, 0x08,
  0xec, 0xc8, 0x36, 0x04, 0x14, 0x23, 0x21, 0xf1, 0xdf, 0x1c, 0xa8, 0x32,
  0xd7, 0x18, 0x7f, 0xf3, 0x5f, 0xd9, 0xe8, 0x12, 0xd3, 0x20, 0x2d, 0xcc,
  0xd9, 0xd9, 0xf9, 0x05, 0x0e, 0x0b, 0xb9, 0xe4, 0x00, 0xe8, 0xdd, 0x4a,
  0xc9, 0x0b, 0x2a, 0xe2, 0x1c, 0xcd, 0xe2, 0x10, 0xe1, 0x10, 0x21, 0xff,
  0x0a, 0xd7, 0x20, 0x20, 0xed, 0x1c, 0x07, 0x0d, 0x0d, 0xfd, 0xc9, 0x0a,
  0x11, 0x5c, 0x38, 0xde, 0x35, 0x1a, 0x21, 0x0f, 0xbd, 0xfb, 0xf8, 0x45,
  0xf5, 0xe6, 0xde, 0xca, 0xd9, 0x42, 0x0a, 0xb7, 0xc9, 0x50, 0xe2, 0x19,
  0xe1, 0xfc, 0x06, 0xfe, 0xdc, 0x2a, 0xd6, 0xc4, 0x18, 0xff, 0x87, 0xdf,
  0xf0, 0x20, 0xcd, 0x77, 0x38, 0xcf, 0xc4, 0xf7, 0x2c, 0x17, 0xbf, 0x21,
  0x27, 0x40, 0x24, 0xe7, 0x81, 0xf8, 0xe7, 0x7f, 0xfc, 0x97, 0xcd, 0xa6,
  0xdc, 0x23, 0xe2, 0xd7, 0x45, 0x6a, 0x2a, 0xe6, 0xc7, 0xd9, 0xb2, 0x0c,
  0x96, 0x00, 0xf0, 0xdb, 0xff, 0xff, 0x03, 0x10, 0x08, 0x1f, 0x05, 0x6a,
  0xe4, 0xe6, 0xfd, 0x37, 0x26, 0xb9, 0x29, 0x25, 0x22, 0x2e, 0xc5, 0xd7,
  0xb8, 0xc8, 0x47, 0xbf, 0x1c, 0xa1, 0xfb, 0xb3, 0x1c, 0x23, 0x42, 0x8a,
  0x29, 0xf5, 0xf0, 0xf0, 0x73, 0x22, 0x31, 0x28, 0xbf, 0xcb, 0xe3, 0xcc,
  0x81, 0xc5, 0x0f, 0x2a, 0x40, 0xc8, 0xfc, 0xbf, 0x0d, 0x2d, 0xed, 0x24,
  0xfa, 0xc1, 0x38, 0x23, 0x2a, 0x4d, 0x0f, 0x28, 0xe4, 0xe8, 0x02, 0xdb,
  0x0b, 0x35, 0xe3, 0x19, 0xe7, 0xfd, 0xd3, 0x23, 0xc8, 0xe4, 0x1a, 0xcf,
  0x15, 0xc7, 0xb4, 0x1c, 0x03, 0x0f, 0xfb, 0xf1, 0x22, 0x36, 0x05, 0xfa,
  0x1e, 0x5a, 0x54, 0x28, 0x0f, 0x20, 0xfc, 0x0b, 0x27, 0x4e, 0xa3, 0xfa,
  0x81, 0xd1, 0xfa, 0x1d, 0x2a, 0x56, 0xf7, 0xe6, 0x0f, 0x24, 0xe6, 0x0b,
  0x3c, 0x43, 0xfd, 0x7d, 0xfe, 0xce, 0x42, 0xed, 0xf2, 0x54, 0x49, 0x1e,
  0xe6, 0xe7, 0xba, 0x3e, 0xf0, 0x5e, 0x7f, 0x65, 0x12, 0x0a, 0x2f, 0x6c,
  0xcb, 0x2c, 0x3f, 0xc1, 0xf6, 0xe1, 0x05, 0xe7, 0xc4, 0x2d, 0x39, 0xff,
  0x22, 0xcf, 0xd7, 0x10, 0xb4, 0x08, 0x46, 0x0e, 0x45, 0x0c, 0xc4, 0x43,
  0x6b, 0xc5, 0x15, 0x23, 0x78, 0xed, 0x08, 0x36, 0x0f, 0xf2, 0x1c, 0xf3,
  0xc1, 0xbe, 0xb5, 0x35, 0x17, 0x42, 0xe5, 0xc4, 0xbe, 0xf0, 0xeb, 0x01,
  0xf7, 0x1c, 0xec, 0xfd, 0xa8, 0x14, 0x15, 0xc8, 0xf7, 0x1a, 0xe5, 0x31,
  0xf2, 0x0d, 0xb9, 0x12, 0xbd, 0x2a, 0x18, 0xe6, 0xf2, 0xd5, 0xc8, 0xc7,
  0xe5, 0x50, 0x08, 0xd5, 0xb2, 0xc2, 0x22, 0xf9, 0x1f, 0x39, 0x05, 0x1d,
  0xeb, 0x46, 0x81, 0xcd, 0x1e, 0x19, 0xef, 0x31, 0xfe, 0xc4, 0x1c, 0x08,
  0xb4, 0x07, 0xe6, 0x00, 0xcb, 0x07, 0x07, 0x11, 0xf8, 0x02, 0x06, 0x19,
  0x96, 0xe4, 0x2e, 0xa7, 0xe5, 0xa3, 0xf0, 0xea, 0x1c, 0xdc, 0x0c, 0xb6,
  0x16, 0xf8, 0x05, 0xfe, 0x19, 0xb9, 0xd0, 0xda, 0xeb, 0xcc, 0xe2, 0x1f,
  0x00, 0xda, 0xb8, 0xc2, 0xe8, 0xe7, 0xe5, 0xe2, 0xe6, 0xf5, 0x24, 0xe6,
  0xf7, 0x3f, 0xed, 0x08, 0xfa, 0x81, 0xf3, 0xfa, 0xfe, 0x2d, 0xdc, 0xfb,
  0xee, 0x02, 0xdf, 0xdf, 0xff, 0xbb, 0xf9, 0x2c, 0xf9, 0x11, 0x1b, 0x24,
  0x11, 0x28, 0xf7, 0xfe, 0x08, 0x81, 0xff, 0x3f, 0xae, 0x75, 0xff, 0x26,
  0xb0, 0x3c, 0x06, 0xe5, 0xdf, 0xd6, 0xd3, 0x26, 0xa7, 0x41, 0x01, 0xe4,
  0xdb, 0xd9, 0xf6, 0xe2, 0xc4, 0xcd, 0x19, 0xb5, 0x17, 0x29, 0x33, 0x03,
  0x05, 0x08, 0x09, 0xf4, 0xca, 0x24, 0x1f, 0xe7, 0x44, 0xf8, 0xe1, 0x41,
  0xa8, 0x05, 0xdc, 0xf0, 0xc4, 0xec, 0x10, 0x2a, 0x2d, 0x43, 0xd7, 0x52,
  0x20, 0xf3, 0x2c, 0x3f, 0x3c, 0xc4, 0x26, 0x18, 0xb3, 0xf2, 0xcd, 0x12,
  0xdb, 0x1b, 0xba, 0xd0, 0xee, 0x07, 0xf1, 0x3d, 0xef, 0xe2, 0xd1, 0x1a,
  0xcb, 0x3e, 0xee, 0x26, 0xec, 0xe1, 0xe1, 0x3e, 0x1d, 0x0b, 0xd5, 0xaa,
  0x0e, 0xb4, 0x26, 0xfe, 0xde, 0xd7, 0xb3, 0xdb, 0x14, 0x25, 0x40, 0x1f,
  0x32, 0xf0, 0x10, 0xd7, 0xcc, 0x1d, 0xd9, 0x03, 0x1f, 0x03, 0xc7, 0xaa,
  0xfd, 0xcf, 0xc9, 0x1d, 0x81, 0x06, 0xe1, 0x0a, 0xdc, 0x2e, 0x21, 0x25,
  0x81, 0xc4, 0xbd, 0xf9, 0xe0, 0xb6, 0xc5, 0xe2, 0xea, 0xfc, 0x1e, 0x41,
  0x22, 0xcd, 0x0f, 0x31, 0xd4, 0xe3, 0xf9, 0x11, 0xc8, 0x45, 0xf1, 0x2b,
  0xe1, 0x94, 0x94, 0xc6, 0x5a, 0x03, 0x1e, 0x14, 0xc2, 0x00, 0x00, 0xd1,
  0xf6, 0x21, 0xc3, 0xf3, 0x33, 0xe8, 0x26, 0x06, 0x41, 0x1f, 0xc9, 0xf5,
  0xa7, 0x17, 0x97, 0x26, 0xbe, 0xeb, 0xce, 0xf3, 0xbf, 0xfe, 0xe9, 0x02,
  0x26, 0x2a, 0x19, 0xac, 0xe1, 0xa3, 0x0a, 0xcf, 0xce, 0xd1, 0xb6, 0xef,
  0x03, 0x2c, 0xa2, 0x41, 0x44, 0xe7, 0x2a, 0xbb, 0xcb, 0xa9, 0x00, 0xb1,
  0x04, 0x25, 0xb0, 0x40, 0xf3, 0x19, 0x0e, 0x97, 0x08, 0xd5, 0x0b, 0xc4,
  0x0d, 0xb5, 0xa8, 0xb9, 0x0d, 0x3b, 0xe4, 0x1e, 0xf2, 0xd0, 0x15, 0xcd,
  0x38, 0xf5, 0xe7, 0x32, 0x19, 0x05, 0xea, 0xdb, 0x81, 0xc3, 0xd3, 0x52,
  0x08, 0x45, 0x1d, 0x03, 0xe3, 0xde, 0x19, 0x26, 0xe3, 0x1b, 0xd8, 0xde,
  0xe4, 0x46, 0x47, 0xdb, 0xff, 0x45, 0xf8, 0x23, 0xf6, 0x0c, 0xc1, 0xdf,
  0xc9, 0x05, 0xf0, 0xf3, 0xc9, 0x81, 0xfd, 0xf3, 0xfe, 0xf7, 0xe3, 0x96,
  0x02, 0x99, 0x09, 0x04, 0xfd, 0xe7, 0x82, 0xb8, 0xfe, 0x67, 0x32, 0x2e,
  0x6c, 0xcb, 0x01, 0xc8, 0x99, 0xc7, 0x12, 0xfb, 0x37, 0x1b, 0x05, 0xf2,
  0xc6, 0x19, 0xe1, 0x2f, 0xa9, 0x27, 0xe5, 0x25, 0xeb, 0x1c, 0x0c, 0xeb,
  0xfe, 0x21, 0x16, 0x1c, 0x81, 0x4a, 0x44, 0x06, 0xf7, 0xda, 0x63, 0x0a,
  0x24, 0xf6, 0xfb, 0xf6, 0x3a, 0x14, 0xde, 0xd2, 0x96, 0xab, 0xe2, 0xc4,
  0x3a, 0xed, 0x1f, 0x29, 0x1a, 0x17, 0x0b, 0xbd, 0x44, 0xc6, 0xfe, 0x14,
  0x3d, 0xf7, 0xe2, 0x43, 0x2c, 0xb0, 0x0d, 0x5b, 0x1e, 0x09, 0xbc, 0x19,
  0xe4, 0x1a, 0x29, 0xaf, 0xbb, 0xe2, 0xc0, 0x0e, 0x30, 0x11, 0xfc, 0xb5,
  0x3c, 0x0e, 0x23, 0x1c, 0xe3, 0xf3, 0xf2, 0xdd, 0x0b, 0x0e, 0xfc, 0x07,
  0x0a, 0xe0, 0x02, 0x19, 0x11, 0x37, 0x4f, 0xad, 0xe7, 0xf7, 0x0a, 0xd4,
  0xc0, 0x24, 0x06, 0x97, 0x0d, 0x1f, 0xe7, 0xde, 0xdb, 0xe7, 0x81, 0xaa,
  0x12, 0xe7, 0x07, 0xbc, 0xe3, 0x12, 0xc7, 0xcf, 0x06, 0xfc, 0xba, 0xee,
  0xb5, 0xd1, 0x13, 0xf9, 0x16, 0x08, 0xde, 0x20, 0x18, 0x04, 0xf3, 0x1f,
  0x10, 0xf3, 0xf3, 0xbe, 0xea, 0x8f, 0x48, 0xee, 0xbe, 0xfc, 0xda, 0xc1,
  0xd8, 0xf8, 0x81, 0xe3, 0x04, 0xe8, 0xbb, 0x35, 0xf4, 0xee, 0xc5, 0xe9,
  0x02, 0x19, 0x26, 0xac, 0xd6, 0x05, 0xf9, 0xe8, 0x20, 0x32, 0x15, 0xab,
  0x0f, 0xb1, 0xeb, 0xa8, 0x64, 0xed, 0x35, 0xfa, 0x0c, 0xe7, 0xd0, 0x47,
  0x63, 0xb9, 0xc1, 0xdc, 0xe0, 0xec, 0xdc, 0x2b, 0x0e, 0x44, 0xff, 0xef,
  0x26, 0xf7, 0x01, 0x34, 0xd4, 0xcd, 0x19, 0x05, 0xef, 0x0e, 0xbb, 0xeb,
  0x2d, 0x15, 0x7f, 0x0e, 0xd1, 0x13, 0xe3, 0xac, 0xe5, 0x01, 0x09, 0xd6,
  0xed, 0x1c, 0x38, 0xf3, 0xf3, 0x3c, 0xdf, 0x1f, 0x47, 0xc9, 0xed, 0x29,
  0xe4, 0x04, 0x3c, 0xeb, 0x41, 0xcd, 0xe2, 0xf1, 0xc6, 0x0e, 0xee, 0x28,
  0xaf, 0x9c, 0x03, 0xf9, 0x3b, 0x00, 0xf2, 0xe8, 0x6e, 0xb9, 0xcc, 0x2a,
  0xaf, 0xe6, 0x04, 0x2b, 0x07, 0x03, 0xff, 0x12, 0x43, 0x1f, 0xde, 0x1d,
  0x17, 0x03, 0x10, 0xa0, 0xbb, 0x49, 0xf0, 0xde, 0x13, 0xd7, 0xf8, 0x1d,
  0x08, 0xeb, 0xac, 0x1b, 0x28, 0x0e, 0xf4, 0xfc, 0x10, 0x2e, 0x81, 0xd0,
  0x01, 0x3c, 0x2c, 0x03, 0xc5, 0xe1, 0xb8, 0xa0, 0xe0, 0xa1, 0xdd, 0x13,
  0x17, 0xe6, 0xfb, 0x92, 0xbd, 0x01, 0xc0, 0x6b, 0x7d, 0x02, 0xa3, 0x1a,
  0xb4, 0xce, 0x61, 0x28, 0x35, 0x32, 0x53, 0xf3, 0xce, 0xd4, 0x98, 0xf5,
  0x02, 0x50, 0xe5, 0x30, 0xf7, 0x38, 0x27, 0xd6, 0x0f, 0x23, 0xcc, 0x1a,
  0xac, 0x17, 0xd2, 0xf5, 0x08, 0x38, 0xd4, 0xd5, 0xcf, 0xef, 0x14, 0x36,
  0x05, 0xce, 0xa3, 0xda, 0x10, 0xe2, 0xe1, 0xf6, 0x07, 0xd5, 0xbd, 0xee,
  0x98, 0x27, 0xf8, 0xce, 0x40, 0xbe, 0xe8, 0x19, 0x1f, 0x1a, 0xd7, 0xc1,
  0xb4, 0x42, 0xca, 0xf5, 0x22, 0x3e, 0x15, 0x2c, 0xb9, 0x1c, 0x42, 0x32,
  0x81, 0x04, 0xf9, 0x0e, 0x9a, 0x07, 0x11, 0x15, 0x0c, 0x29, 0x1b, 0x05,
  0xf9, 0xcd, 0xcc, 0xbb, 0x00, 0x16, 0x06, 0xe4, 0x04, 0x1c, 0xbc, 0xbf,
  0xf0, 0x0d, 0xb3, 0x2b, 0x16, 0xe4, 0xf1, 0x0a, 0xf4, 0xeb, 0x34, 0x62,
  0xe9, 0x16, 0xba, 0x2e, 0xbd, 0x9b, 0x12, 0xea, 0xd3, 0xc8, 0xed, 0xd0,
  0xcd, 0x4b, 0xb0, 0x59, 0x0e, 0xf4, 0x1a, 0x53, 0xf8, 0xf8, 0xd4, 0x10,
  0xbf, 0x26, 0x26, 0xe8, 0xe3, 0x6e, 0x38, 0x01, 0xfb, 0xf7, 0xc3, 0x81,
  0x48, 0x5c, 0x4d, 0xc4, 0xd6, 0xd5, 0xa4, 0x96, 0x90, 0x13, 0xa3, 0xc4,
  0x1d, 0xae, 0xea, 0x1f, 0xc5, 0x1b, 0xe4, 0x34, 0xd5, 0xe3, 0xf5, 0xca,
  0x26, 0xd5, 0xf3, 0xdf, 0x22, 0x00, 0xb3, 0x9a, 0xbe, 0xf2, 0xf7, 0xbd,
  0x47, 0xdb, 0xdb, 0xdb, 0xe6, 0x16, 0x05, 0xde, 0xef, 0x81, 0x36, 0x06,
  0x27, 0x35, 0x8f, 0xd8, 0xf9, 0x51, 0x0d, 0x06, 0x01, 0xb6, 0x36, 0x19,
  0xfd, 0x94, 0x13, 0xfd, 0xdc, 0x30, 0x0e, 0x49, 0x03, 0xdb, 0xdb, 0xcc,
  0xfa, 0xef, 0xf6, 0xfe, 0x0e, 0x0f, 0xe4, 0xb5, 0xfb, 0xc8, 0xf1, 0xe3,
  0x08, 0x16, 0x19, 0xee, 0x3c, 0x81, 0x2a, 0xa3, 0xd0, 0xa8, 0xba, 0xc2,
  0xed, 0x07, 0x8a, 0x01, 0xa7, 0x11, 0xf8, 0xe2, 0xbb, 0x17, 0x04, 0xc3,
  0x32, 0xf2, 0xe9, 0x43, 0xd7, 0xed, 0x25, 0xfb, 0xf9, 0xf0, 0x4d, 0x08,
  0x0c, 0xdd, 0xd6, 0x04, 0x01, 0x0c, 0xc5, 0xd9, 0xba, 0x0d, 0xf2, 0x26,
  0xfb, 0x00, 0x2b, 0xf9, 0x0e, 0x7f, 0x16, 0x05, 0x05, 0x16, 0xc7, 0x16,
  0xfa, 0x59, 0x0f, 0xf3, 0xcc, 0xe9, 0x26, 0x2b, 0xb3, 0xc7, 0x38, 0xe3,
  0xd1, 0x20, 0x05, 0x4b, 0xe8, 0x0d, 0x20, 0xef, 0x08, 0x56, 0xc3, 0x08,
  0x09, 0xf2, 0x0f, 0xdd, 0x01, 0xc2, 0x01, 0xe0, 0xc5, 0x0e, 0xfd, 0x34,
  0x06, 0xec, 0x0f, 0xd8, 0x2e, 0xab, 0xdd, 0xf5, 0x3b, 0xf5, 0x1b, 0xda,
  0xe8, 0xe1, 0x41, 0x00, 0xed, 0xbc, 0xeb, 0xc0, 0x26, 0xd7, 0xfb, 0x0c,
  0x81, 0x14, 0xdf, 0xc3, 0xd5, 0x11, 0xe5, 0x06, 0xc4, 0xf5, 0x10, 0xf8,
  0xae, 0x9b, 0xc1, 0xff, 0x2c, 0xba, 0xd0, 0xc2, 0xd4, 0x1f, 0xc3, 0xf2,
  0xf2, 0xfe, 0x24, 0xcc, 0xc0, 0xe1, 0x08, 0x3b, 0x0a, 0xf4, 0x21, 0x31,
  0xd8, 0xf4, 0x12, 0xd3, 0xf0, 0xbc, 0x1e, 0x09, 0x1b, 0x0d, 0x14, 0x2b,
  0x16, 0xf1, 0xb6, 0xd7, 0xfa, 0x23, 0x3b, 0x1a, 0xd6, 0x37, 0xcf, 0x0f,
  0x01, 0x35, 0x44, 0x44, 0xd6, 0xf2, 0xf7, 0xc9, 0xd7, 0xd6, 0x03, 0x34,
  0xfc, 0x88, 0xf4, 0x29, 0xed, 0x0f, 0x59, 0xff, 0xd8, 0xae, 0xeb, 0x50,
  0x48, 0xba, 0xee, 0x1b, 0xd6, 0x24, 0x25, 0x55, 0xfc, 0x25, 0xdf, 0x0e,
  0x70, 0xf5, 0x21, 0x37, 0xa0, 0x0a, 0xd6, 0x29, 0x91, 0xfe, 0xd5, 0xf9,
  0x81, 0x3b, 0x37, 0xf5, 0x2d, 0xda, 0x26, 0x27, 0x1e, 0x37, 0xfa, 0x13,
  0x07, 0x08, 0x09, 0x22, 0xdf, 0x1a, 0xef, 0x00, 0x23, 0x0d, 0xac, 0x1e,
  0xed, 0xd9, 0xa5, 0x38, 0x5c, 0xfe, 0x15, 0xb0, 0xe2, 0x24, 0x2f, 0xc7,
  0xfa, 0xf8, 0x0a, 0x64, 0x3a, 0x0b, 0xe0, 0x13, 0x18, 0xfc, 0xd4, 0x2a,
  0xf6, 0x33, 0xeb, 0x00, 0x01, 0xc5, 0x2e, 0xf7, 0x25, 0xfc, 0x9c, 0x1f,
  0xed, 0x0a, 0xf3, 0x06, 0xf4, 0x53, 0xdd, 0x05, 0x35, 0x0d, 0x1f, 0x14,
  0x0a, 0x81, 0x6a, 0x11, 0x28, 0xa1, 0xbd, 0x38, 0x11, 0xed, 0x79, 0x0b,
  0x07, 0xd4, 0x28, 0x2b, 0xdc, 0xef, 0x12, 0xe9, 0xc8, 0x81, 0xba, 0x15,
  0xb9, 0xcf, 0x01, 0x11, 0xca, 0xf2, 0xf6, 0xd6, 0xe9, 0x1b, 0x30, 0x07,
  0x31, 0xd2, 0x03, 0xee, 0xb7, 0x12, 0x00, 0xfc, 0xcf, 0xf5, 0x0a, 0x31,
  0xff, 0xbf, 0xc0, 0xc1, 0x11, 0x13, 0xf9, 0xd8, 0x15, 0xdb, 0x27, 0xf7,
  0xf3, 0x06, 0xc6, 0xcd, 0xd7, 0x0e, 0x46, 0xf8, 0xad, 0xa7, 0x09, 0x35,
  0x1c, 0x41, 0xb5, 0x06, 0xef, 0xe6, 0x0c, 0x38, 0xfa, 0x18, 0x07, 0x2d,
  0xd3, 0x0a, 0xfe, 0x0f, 0xf5, 0x81, 0xf2, 0x3e, 0x29, 0x11, 0xe3, 0xd4,
  0xbb, 0xd9, 0xe8, 0xcd, 0xfb, 0xa8, 0xfb, 0xbb, 0x9e, 0x0c, 0x0b, 0x1f,
  0x08, 0x0b, 0x0a, 0x2b, 0xee, 0x19, 0x06, 0x24, 0xef, 0x06, 0x5f, 0xfe,
  0x1c, 0xe3, 0x27, 0x33, 0xff, 0xa6, 0xdc, 0x10, 0x22, 0x0e, 0x07, 0x8e,
  0xc8, 0x22, 0xd2, 0xb5, 0xf2, 0xaa, 0x90, 0x14, 0x4d, 0xcf, 0xc2, 0x04,
  0x1f, 0x55, 0xb4, 0x36, 0xe4, 0xbd, 0xdf, 0xf7, 0xf8, 0x9e, 0x3c, 0x96,
  0x37, 0x3a, 0xca, 0xbd, 0xf1, 0xe8, 0xe5, 0xa3, 0x03, 0x81, 0xfd, 0xc9,
  0xdc, 0x0c, 0xce, 0xea, 0x49, 0x25, 0xe5, 0x73, 0xe7, 0xa8, 0xf2, 0xe2,
  0x22, 0xe9, 0xe6, 0xe1, 0xeb, 0x20, 0xef, 0x3f, 0x0d, 0x23, 0x08, 0x1f,
  0x36, 0xfb, 0x08, 0x61, 0xfc, 0xd9, 0x12, 0x2a, 0x81, 0x37, 0x01, 0x0a,
  0x02, 0x26, 0x03, 0xe2, 0xe8, 0xf6, 0xe9, 0xd4, 0xce, 0x1a, 0xd7, 0xd8,
  0xfd, 0x2b, 0x92, 0xdf, 0xcf, 0xb4, 0x2a, 0xfd, 0x21, 0xfe, 0x12, 0x08,
  0x42, 0xda, 0x31, 0x02, 0x05, 0xb6, 0x20, 0xfc, 0x07, 0xfa, 0xfb, 0xd6,
  0x24, 0xe9, 0x0c, 0xe5, 0xfc, 0xdf, 0xeb, 0xda, 0x10, 0xc6, 0xc5, 0xf0,
  0x11, 0xfa, 0x03, 0xfd, 0xef, 0x85, 0x02, 0xdb, 0xc2, 0xbb, 0xc6, 0xd0,
  0xfe, 0xd8, 0x54, 0xfe, 0x11, 0xe2, 0xf7, 0x3a, 0x2b, 0xf5, 0x22, 0x19,
  0x81, 0xf1, 0x08, 0x1c, 0xad, 0x09, 0xe1, 0x10, 0x5a, 0x1b, 0x0e, 0xbd,
  0x0d, 0xde, 0xd8, 0xe7, 0xcc, 0x12, 0xcf, 0x9d, 0xeb, 0x1c, 0x8d, 0xd1,
  0x26, 0xa7, 0x2e, 0x09, 0x3b, 0x04, 0xd4, 0xd5, 0x10, 0xab, 0x65, 0x00,
  0x3a, 0xfd, 0x21, 0x15, 0x02, 0x44, 0x16, 0x11, 0xf1, 0xe0, 0x09, 0xa7,
  0x7a, 0x30, 0xd0, 0xe1, 0xdd, 0x0e, 0x2b, 0x1d, 0x59, 0x4b, 0xdf, 0x40,
  0x18, 0xfa, 0x81, 0xdd, 0xc5, 0x67, 0x26, 0xe6, 0xfc, 0xff, 0xf2, 0x64,
  0x32, 0x37, 0x03, 0xda, 0xdb, 0x50, 0x45, 0xc0, 0xf3, 0x3b, 0x2e, 0x1a,
  0x40, 0xfb, 0xd8, 0xca, 0xea, 0x36, 0x07, 0x43, 0xf6, 0x06, 0xfb, 0xfb,
  0x3f, 0xef, 0xf8, 0xf2, 0x0e, 0x42, 0xdb, 0xe7, 0xf8, 0x49, 0xf8, 0x01,
  0xa9, 0x0b, 0x2b, 0xf2, 0xaf, 0xec, 0x25, 0xf1, 0xb6, 0xb3, 0xda, 0xff,
  0xf9, 0x29, 0xe7, 0x10, 0x11, 0x2c, 0x3a, 0x1a, 0xf8, 0xf0, 0xd0, 0xf4,
  0x0e, 0xe8, 0x25, 0x6b, 0x01, 0x97, 0xa2, 0x81, 0x2a, 0xd6, 0xe5, 0xea,
  0x1d, 0xe2, 0xcb, 0xd4, 0xff, 0xda, 0x1e, 0x35, 0x03, 0xc2, 0xdf, 0xe5,
  0xc7, 0xc2, 0xe4, 0x33, 0x1c, 0x5f, 0xf9, 0xf1, 0x53, 0x0c, 0xe8, 0x10,
  0xf8, 0xa4, 0xde, 0xcb, 0x09, 0xe0, 0xd9, 0x06, 0x23, 0xf9, 0x1d, 0xe7,
  0xb2, 0xf8, 0x0c, 0xf6, 0xdf, 0x12, 0x19, 0x0d, 0x1c, 0xc8, 0xfb, 0xff,
  0x6d, 0xc7, 0xd9, 0xde, 0x0d, 0x20, 0x47, 0xda, 0xfb, 0x40, 0xa1, 0x29,
  0xe3, 0xae, 0x50, 0x41, 0x07, 0xf6, 0x12, 0x2e, 0x21, 0xe7, 0x17, 0xd3,
  0x47, 0xf2, 0xc9, 0x16, 0xfc, 0x11, 0x0a, 0x3f, 0xe5, 0x48, 0x55, 0xe9,
  0x7f, 0x4b, 0x1c, 0xf1, 0x89, 0x41, 0xe8, 0xee, 0x0c, 0xbe, 0x27, 0x30,
  0xd1, 0xdd, 0xf1, 0xd2, 0xf8, 0x10, 0x01, 0x22, 0x37, 0x0d, 0xec, 0xfa,
  0x01, 0x48, 0x7f, 0xfd, 0x91, 0x1a, 0x44, 0x34, 0xab, 0xff, 0x08, 0xd9,
  0x03, 0xfb, 0x0b, 0x07, 0x07, 0xfa, 0xbe, 0xa7, 0x47, 0xe2, 0xf3, 0x29,
  0xfb, 0xa7, 0xf3, 0xa8, 0xb0, 0xe6, 0xff, 0x75, 0xea, 0xc6, 0x68, 0xbd,
  0x25, 0x26, 0xf1, 0x59, 0x60, 0xf3, 0xda, 0x19, 0xe9, 0xed, 0xa6, 0xca,
  0x30, 0x21, 0x24, 0xa4, 0x0c, 0xdc, 0xc3, 0xfe, 0xb2, 0x44, 0x3a, 0xf9,
  0x16, 0x28, 0xea, 0x2e, 0x02, 0xf1, 0x15, 0x35, 0xdd, 0x05, 0x27, 0x62,
  0xc3, 0x7f, 0x1b, 0x0f, 0xdb, 0xc9, 0xe8, 0x9b, 0x1a, 0x1d, 0xe4, 0xff,
  0xff, 0xfd, 0x00, 0x05, 0x1a, 0xe6, 0xda, 0xcb, 0x23, 0xe4, 0x15, 0x03,
  0xf3, 0x19, 0x09, 0xdf, 0x2e, 0x34, 0x2d, 0x01, 0x47, 0x1a, 0x06, 0xee,
  0xe5, 0x68, 0xdb, 0xe4, 0x35, 0x2f, 0x27, 0x3e, 0xaa, 0xbb, 0xe6, 0x1f,
  0xae, 0xf3, 0xd8, 0xdb, 0xe3, 0xe6, 0x0a, 0xec, 0x1f, 0x0b, 0x26, 0x55,
  0x22, 0x03, 0x08, 0x99, 0x2c, 0xb6, 0xa3, 0x38, 0x21, 0x49, 0xcf, 0xe1,
  0xe6, 0xec, 0xbe, 0xd5, 0x5b, 0x95, 0x28, 0x0b, 0x26, 0xf6, 0x2f, 0x3e,
  0x23, 0x19, 0xf7, 0x10, 0xb6, 0x56, 0x18, 0x28, 0xda, 0xd3, 0x52, 0x17,
  0xb7, 0xe5, 0x0d, 0xc2, 0xc8, 0x6f, 0x41, 0xd7, 0xa8, 0x81, 0xdd, 0xea,
  0x63, 0xc0, 0x50, 0xee, 0x16, 0xbc, 0x0e, 0x02, 0x7f, 0x37, 0xbf, 0x54,
  0x13, 0xfc, 0x35, 0xf5, 0xf7, 0x9a, 0xa1, 0x01, 0xaa, 0x2c, 0x45, 0xae,
  0xae, 0x39, 0x6c, 0x25, 0x2b, 0xad, 0xf7, 0xa7, 0x01, 0x9f, 0xf2, 0x25,
  0xb5, 0xbf, 0xc9, 0x3d, 0xf0, 0xc0, 0xd8, 0xed, 0x07, 0x24, 0x22, 0x24,
  0xc4, 0x28, 0x0d, 0xcf, 0x0b, 0x3d, 0xec, 0x4c, 0x2a, 0xbf, 0x34, 0x43,
  0x67, 0x69, 0x1c, 0xfc, 0x18, 0x0d, 0x0a, 0xf8, 0xce, 0x7f, 0x06, 0xef,
  0xca, 0x27, 0xcd, 0xf9, 0xe1, 0x6a, 0x24, 0x36, 0xf4, 0xf0, 0xfc, 0x0f,
  0x02, 0xfb, 0x14, 0x32, 0xf8, 0xff, 0xb9, 0xcb, 0xc6, 0x29, 0x1e, 0xfb,
  0xde, 0xfc, 0xf8, 0xd8, 0xc8, 0xf0, 0x1b, 0x05, 0x3b, 0x12, 0xfd, 0x7f,
  0x0a, 0x34, 0xce, 0xe2, 0x10, 0x02, 0x1f, 0xee, 0xd6, 0x16, 0x0a, 0xdb,
  0xf8, 0x0e, 0xdf, 0xd8, 0x27, 0x19, 0x4b, 0x2f, 0xe5, 0xcb, 0xd4, 0xf1,
  0xd3, 0x01, 0x15, 0xce, 0xcd, 0x14, 0xcb, 0x07, 0xad, 0xf2, 0xf1, 0x0a,
  0x81, 0x03, 0xe8, 0xdd, 0xfe, 0xfa, 0x12, 0x0b, 0xaf, 0xcb, 0xea, 0xb3,
  0x16, 0xc2, 0x26, 0xff, 0x26, 0xfb, 0xd0, 0xdf, 0x06, 0x21, 0x13, 0x31,
  0x34, 0xc0, 0x13, 0xf0, 0xe0, 0xac, 0x03, 0x11, 0xeb, 0x28, 0xe2, 0xe8,
  0xe0, 0x30, 0x13, 0xea, 0xf4, 0x3d, 0x09, 0x0d, 0xfb, 0x07, 0x2f, 0x0e,
  0xe8, 0x00, 0xde, 0xb2, 0xf8, 0x07, 0xfb, 0x0d, 0xe4, 0xbf, 0xba, 0xf0,
  0xfb, 0xa0, 0x23, 0xa9, 0x0a, 0x00, 0x04, 0x00, 0xdc, 0x03, 0xca, 0xdc,
  0x0c, 0xce, 0x46, 0x16, 0x8d, 0x11, 0xb0, 0x85, 0xf7, 0xd9, 0x2d, 0xc2,
  0xce, 0xa4, 0x81, 0x15, 0x3b, 0x12, 0x90, 0xaf, 0xcb, 0xeb, 0x0c, 0x18,
  0xc9, 0xc2, 0x28, 0xf1, 0x9f, 0x0b, 0x9d, 0x83, 0xcf, 0xf2, 0xa7, 0x0f,
  0xd4, 0xfa, 0x8e, 0x0d, 0xa6, 0xa5, 0xe0, 0xe9, 0xc3, 0x09, 0x00, 0x00,
  0x3b, 0xdf, 0xac, 0x5d, 0x29, 0x3a, 0x81, 0xcb, 0x0e, 0xef, 0x9a, 0x8e,
  0x47, 0x42, 0xe2, 0xd1, 0x10, 0x42, 0xa2, 0x88, 0xc3, 0x0d, 0x10, 0x9b,
  0x2e, 0xc4, 0x47, 0x00, 0x0d, 0xfa, 0xd9, 0x15, 0x7e, 0xd9, 0xf7, 0x32,
  0x49, 0xe9, 0x1a, 0x56, 0x19, 0xf0, 0x03, 0xed, 0x35, 0xde, 0xcc, 0x53,
  0x19, 0xab, 0xea, 0x11, 0xdf, 0x94, 0xac, 0xef, 0xf7, 0x1b, 0xc7, 0x96,
  0xce, 0xd2, 0x2c, 0x0b, 0xb4, 0x05, 0xd6, 0xd5, 0xef, 0x47, 0xad, 0x0f,
  0xa3, 0x2e, 0x1a, 0x81, 0x03, 0x2b, 0xd2, 0xbe, 0x2b, 0xbd, 0xa2, 0x8d,
  0x0c, 0xdb, 0xce, 0xe9, 0x16, 0xd8, 0x46, 0x02, 0xf3, 0xaf, 0x10, 0xcb,
  0x2a, 0x18, 0xf2, 0x1c, 0xd5, 0x2c, 0xd2, 0x32, 0x01, 0x10, 0x6b, 0xa1,
  0x1f, 0xd9, 0x2c, 0xe0, 0x08, 0xe8, 0xb6, 0x08, 0xc2, 0xd1, 0x35, 0x2e,
  0x30, 0x04, 0x37, 0x07, 0xfa, 0x3a, 0x43, 0x05, 0xf2, 0x0b, 0xb7, 0xdc,
  0x02, 0xe7, 0xc9, 0xd9, 0x31, 0x3a, 0xcc, 0xd0, 0xbd, 0x0d, 0xe8, 0x9a,
  0xd1, 0xe7, 0x26, 0xd1, 0x25, 0x45, 0x38, 0x00, 0x14, 0xec, 0x13, 0x46,
  0x90, 0xe0, 0x24, 0x1d, 0x42, 0x81, 0xf7, 0xe7, 0xfd, 0xef, 0xce, 0xe5,
  0xd9, 0x14, 0x06, 0x3f, 0x2f, 0xcd, 0xda, 0x20, 0x50, 0xe7, 0x0e, 0x6b,
  0xbb, 0xd5, 0xc0, 0x1f, 0x0f, 0x14, 0xd1, 0xf1, 0x14, 0x0e, 0xf8, 0xbf,
  0xf8, 0x2d, 0xef, 0xcb, 0xd0, 0xd8, 0x8c, 0x0c, 0xd8, 0xc0, 0x10, 0xeb,
  0x01, 0x0e, 0xfe, 0x11, 0xf2, 0xb5, 0x0c, 0xc6, 0xd5, 0xc5, 0x0e, 0xed,
  0xeb, 0x11, 0xe1, 0xe0, 0x13, 0xf3, 0xfe, 0xcd, 0xdf, 0xd7, 0xe9, 0xd5,
  0xd4, 0xf4, 0xd7, 0x13, 0xfa, 0x81, 0xd5, 0xf8, 0xe3, 0xe7, 0xc0, 0xcc,
  0xe4, 0x0e, 0xa9, 0xc8, 0xb7, 0x2f, 0xc6, 0xd8, 0xd0, 0x28, 0xd3, 0x1f,
  0x12, 0x19, 0xd5, 0x97, 0x23, 0x19, 0x2b, 0xce, 0x1f, 0x05, 0x5a, 0x73,
  0xe8, 0xe3, 0x09, 0xf9, 0x0c, 0x13, 0xfd, 0xc3, 0x10, 0x92, 0x05, 0xbb,
  0xd2, 0x42, 0x08, 0xec, 0xbb, 0x0b, 0x2f, 0xe3, 0x12, 0x10, 0xb2, 0xcf,
  0x31, 0x31, 0xc8, 0xf3, 0xe2, 0x8c, 0xb5, 0x37, 0x2d, 0xb2, 0x30, 0xf0,
  0x81, 0xbd, 0x07, 0x1f, 0xfd, 0xf9, 0x09, 0xed, 0xd4, 0x40, 0xef, 0x0b,
  0xa3, 0x00, 0xf4, 0xe4, 0x1f, 0x81, 0x32, 0xc8, 0xc3, 0x15, 0xaa, 0xf5,
  0xe8, 0x17, 0xb9, 0x21, 0x05, 0x1a, 0xd4, 0x9c, 0x13, 0xa1, 0x0e, 0x09,
  0x8c, 0x95, 0xe2, 0xb5, 0x2c, 0xed, 0xaa, 0xb0, 0x13, 0x16, 0x46, 0xe6,
  0x03, 0xcc, 0xd9, 0x52, 0x40, 0xe9, 0xff, 0x22, 0x25, 0xf4, 0xf2, 0xe0,
  0xd3, 0x0c, 0x79, 0xa9, 0x13, 0xdd, 0x02, 0x0e, 0xf7, 0x8b, 0x94, 0xad,
  0x0a, 0x2e, 0xcb, 0xdc, 0xb5, 0xb8, 0xe6, 0xe4, 0xd8, 0x5d, 0xea, 0xba,
  0xfc, 0x01, 0xd4, 0x0f, 0xec, 0x6f, 0x39, 0x52, 0xdf, 0xbe, 0xd6, 0x71,
  0x36, 0x2b, 0xe3, 0x08, 0xe4, 0xcd, 0xd7, 0x84, 0x59, 0xf7, 0xc2, 0xca,
  0xcb, 0xd3, 0x3e, 0xef, 0xb4, 0xb8, 0x22, 0x3e, 0x7e, 0x18, 0xc9, 0x64,
  0x10, 0xf0, 0x2a, 0xb4, 0x29, 0x03, 0x1d, 0x02, 0x12, 0x28, 0xa3, 0xf1,
  0xc5, 0xe0, 0xc5, 0x39, 0x6f, 0x3e, 0x2f, 0x7f, 0x81, 0xf9, 0xbd, 0x08,
  0xbb, 0x22, 0x13, 0xc4, 0xe6, 0xc8, 0xdd, 0xff, 0x2c, 0xee, 0xc0, 0x4d,
  0x95, 0x0a, 0xe0, 0x2d, 0x28, 0xe6, 0xe8, 0x29, 0x1b, 0xe0, 0x18, 0xfd,
  0xa0, 0x1c, 0xdd, 0xf8, 0x09, 0xaa, 0x1e, 0xcf, 0x09, 0x4d, 0xf9, 0x1e,
  0x20, 0xf7, 0xac, 0x1a, 0xd3, 0x19, 0x82, 0xf9, 0x28, 0x19, 0xdc, 0xc9,
  0x3d, 0xd0, 0x08, 0x13, 0xe5, 0x2f, 0xfd, 0x09, 0xc3, 0xbf, 0xfc, 0x23,
  0xe4, 0xfd, 0xb5, 0xce, 0x3b, 0x3f, 0xb0, 0x04, 0xb2, 0x5c, 0xe6, 0x3d,
  0x81, 0xcb, 0x44, 0x1c, 0x15, 0xd4, 0xa1, 0xe3, 0x29, 0xd6, 0xfe, 0x02,
  0xfc, 0xb8, 0x22, 0xc5, 0xfe, 0x25, 0xab, 0x97, 0xc6, 0x0a, 0xe8, 0xdf,
  0x38, 0xdf, 0x06, 0xfb, 0xd9, 0x8f, 0xf3, 0x0e, 0x96, 0x38, 0xc1, 0xef,
  0x0f, 0x21, 0xfe, 0xbf, 0x0c, 0x07, 0x36, 0x61, 0xde, 0x16, 0xee, 0xca,
  0xa2, 0xbd, 0xb8, 0x09, 0xde, 0x0f, 0xcc, 0x2f, 0xf1, 0xee, 0xcd, 0xf7,
  0x2a, 0x2a, 0xeb, 0x16, 0xe3, 0xe5, 0x3f, 0x0b, 0x07, 0xc4, 0x04, 0xe8,
  0xde, 0xd4, 0x26, 0x51, 0x41, 0xd5, 0xc2, 0xf6, 0x23, 0xe9, 0x6d, 0x05,
  0xc9, 0xf4, 0xf5, 0x1e, 0x3a, 0xdb, 0x00, 0x9b, 0x20, 0x10, 0x0b, 0xc5,
  0x2a, 0x3c, 0x7f, 0x34, 0xf4, 0x26, 0xd8, 0x1d, 0xc9, 0xfd, 0xea, 0x36,
  0xfa, 0xbc, 0x2b, 0x3d, 0x43, 0x1c, 0xed, 0x4b, 0xda, 0x3f, 0xc8, 0x46,
  0xf0, 0xef, 0x30, 0xf7, 0xb5, 0x33, 0x15, 0x06, 0xaa, 0x3c, 0xcc, 0xd1,
  0x22, 0x2a, 0x18, 0xf0, 0x2f, 0x15, 0xbf, 0x38, 0x07, 0xf8, 0x20, 0xc9,
  0x10, 0x7f, 0x52, 0x97, 0x35, 0xfc, 0x3c, 0xf1, 0xa0, 0xc9, 0xdc, 0x5e,
  0x1e, 0x23, 0x00, 0xcb, 0xaa, 0x4a, 0xbb, 0xf3, 0xba, 0x36, 0x68, 0x14,
  0xfe, 0x10, 0x34, 0x23, 0xf6, 0xe3, 0xf6, 0xf8, 0x1d, 0x33, 0x17, 0x7b,
  0xe4, 0x2a, 0x15, 0x30, 0xf9, 0x96, 0x3e, 0xfa, 0xe5, 0x08, 0x16, 0xb7,
  0xf9, 0xc6, 0xe7, 0x1e, 0xa8, 0x60, 0xf0, 0xff, 0x6e, 0x1b, 0xe0, 0x3d,
  0xdc, 0xcf, 0xfa, 0xdf, 0xce, 0x02, 0x44, 0x8e, 0xaa, 0xd3, 0x03, 0x0e,
  0x55, 0xf0, 0x11, 0xa7, 0xe2, 0x52, 0xb5, 0x03, 0x13, 0x3a, 0x2a, 0x75,
  0x3d, 0xec, 0xfe, 0x7f, 0x07, 0x24, 0xee, 0x37, 0xa2, 0x2c, 0x23, 0xf1,
  0xcb, 0x55, 0xc3, 0xba, 0x03, 0x81, 0xe8, 0x60, 0xea, 0x0f, 0x14, 0xde,
  0xde, 0xd0, 0x0b, 0x39, 0x20, 0x06, 0xed, 0x31, 0xbd, 0xaf, 0xd7, 0x03,
  0x04, 0x2c, 0x2e, 0x16, 0xf8, 0xf9, 0x19, 0xc3, 0xdb, 0x3e, 0xf7, 0xfe,
  0x05, 0xd0, 0x24, 0xaa, 0xbe, 0x0d, 0xde, 0xcb, 0xd8, 0xd6, 0xd6, 0xe9,
  0x01, 0x09, 0x08, 0x88, 0x25, 0xc7, 0xcf, 0xf2, 0x0f, 0xd4, 0xcf, 0x19,
  0xdd, 0x19, 0x14, 0xb7, 0x04, 0xfd, 0x15, 0x35, 0xbe, 0xf0, 0xaa, 0x06,
  0xfc, 0x22, 0x08, 0x08, 0x1c, 0xb6, 0x04, 0xe2, 0xf6, 0x27, 0x04, 0x00,
  0xc2, 0xdf, 0xf6, 0xf5, 0x05, 0x14, 0xef, 0xf4, 0xfe, 0xda, 0xa9, 0x81,
  0xee, 0x0e, 0xe6, 0xa4, 0x04, 0xe2, 0xfb, 0xcc, 0xf0, 0x14, 0xb8, 0x0b,
  0xff, 0xeb, 0xf5, 0xd8, 0x1f, 0x36, 0xec, 0xfb, 0xf6, 0x33, 0x13, 0x11,
  0xee, 0xe6, 0xdc, 0xb4, 0xfb, 0x18, 0xf1, 0xf0, 0xd2, 0xd0, 0xfd, 0xf0,
  0xea, 0x09, 0x29, 0x0f, 0x2b, 0xe2, 0xc4, 0xaf, 0x74, 0x32, 0x26, 0x08,
  0xf4, 0xf2, 0x09, 0x2b, 0x40, 0xef, 0xec, 0x01, 0x40, 0xef, 0xd7, 0x22,
  0xe0, 0xea, 0xeb, 0x06, 0xf8, 0x40, 0x39, 0xea, 0xe8, 0x36, 0xeb, 0xf8,
  0x08, 0xfe, 0x20, 0x2e, 0xaf, 0xdb, 0xcb, 0xe6, 0x59, 0xd7, 0xa5, 0x04,
  0x2f, 0x2c, 0xd0, 0x81, 0x63, 0x3b, 0x3b, 0xf6, 0x31, 0xec, 0x3f, 0x41,
  0xc1, 0xe0, 0x1b, 0x05, 0x8a, 0xe6, 0xff, 0xff, 0x04, 0x00, 0x00, 0x00,
  0x00, 0x01, 0x00, 0x00, 0x60, 0x0a, 0x00, 0x00, 0x0f, 0xfe, 0xff, 0xff,
  0xfa, 0x02, 0x00, 0x00, 0x61, 0xfe, 0xff, 0xff, 0xa7, 0xfd, 0xff, 0xff,
  0x9d, 0x01, 0x00, 0x00, 0x2d, 0x02, 0x00, 0x00, 0x9e, 0x03, 0x00, 0x00,
  0xed, 0x08, 0x00, 0x00, 0xd1, 0xfd, 0xff, 0xff, 0x0b, 0x03, 0x00, 0x00,
  0x1f, 0x03, 0x00, 0x00, 0x6c, 0xf9, 0xff, 0xff, 0x71, 0xf7, 0xff, 0xff,
  0xac, 0x01, 0x00, 0x00, 0x29, 0x04, 0x00, 0x00, 0x35, 0xfc, 0xff, 0xff,
  0xb8, 0x03, 0x00, 0x00, 0x37, 0x00, 0x00, 0x00, 0x4f, 0x03, 0x00, 0x00,
  0x92, 0x00, 0x00, 0x00, 0xa9, 0xf4, 0xff, 0xff, 0x63, 0x05, 0x00, 0x00,
  0xb8, 0xfb, 0xff, 0xff, 0xc8, 0xfc, 0xff, 0xff, 0xa0, 0xfb, 0xff, 0xff,
  0x0f, 0xfe, 0xff, 0xff, 0x32, 0xfd, 0xff, 0xff, 0x8c, 0x05, 0x00, 0x00,
  0x18, 0x00, 0x00, 0x00, 0x7b, 0xf9, 0xff, 0xff, 0x59, 0x00, 0x00, 0x00,
  0xff, 0xf7, 0xff, 0xff, 0xad, 0xf8, 0xff, 0xff, 0x92, 0x01, 0x00, 0x00,
  0x52, 0x00, 0x00, 0x00, 0x67, 0x00, 0x00, 0x00, 0xc9, 0xfa, 0xff, 0xff,
  0xc7, 0xf6, 0xff, 0xff, 0x4f, 0xfc, 0xff, 0xff, 0xd6, 0x08, 0x00, 0x00,
  0xd9, 0xf7, 0xff, 0xff, 0x3d, 0xfe, 0xff, 0xff, 0x55, 0xf6, 0xff, 0xff,
  0x57, 0x00, 0x00, 0x00, 0xb9, 0xf7, 0xff, 0xff, 0xa2, 0xfc, 0xff, 0xff,
  0xf4, 0xff, 0xff, 0xff, 0xee, 0x06, 0x00, 0x00, 0xba, 0x01, 0x00, 0x00,
  0x95, 0x00, 0x00, 0x00, 0xb7, 0xfc, 0xff, 0xff, 0x73, 0x08, 0x00, 0x00,
  0x1e, 0xfd, 0xff, 0xff, 0x01, 0xff, 0xff, 0xff, 0x2e, 0xfe, 0xff, 0xff,
  0x9c, 0xff, 0xff, 0xff, 0xb4, 0x01, 0x00, 0x00, 0xe8, 0xfc, 0xff, 0xff,
  0x49, 0xf5, 0xff, 0xff, 0xf1, 0x01, 0x00, 0x00, 0xbf, 0x01, 0x00, 0x00,
  0xab, 0x0b, 0x00, 0x00, 0xcd, 0x00, 0x00, 0x00, 0x96, 0xe7, 0xff, 0xff,
  0x04, 0x00, 0x00, 0x00, 0x40, 0x02, 0x00, 0x00, 0x4f, 0xcb, 0x50, 0xd1,
  0xad, 0x6f, 0x7f, 0x72, 0x7c, 0xa9, 0x9b, 0xfb, 0x9d, 0x81, 0x4e, 0x60,
  0x41, 0x60, 0x5c, 0x5b, 0x5e, 0x4d, 0xf3, 0x7a, 0xce, 0x49, 0x66, 0xaf,
  0x68, 0x65, 0x81, 0x6d, 0xbc, 0x81, 0x7e, 0x49, 0x6c, 0x5a, 0x75, 0xfb,
  0x46, 0xe8, 0xe3, 0x7b, 0x73, 0xf8, 0x4d, 0x7a, 0x7f, 0x76, 0x7f, 0x33,
  0xc0, 0x5d, 0x67, 0xa1, 0x7f, 0x6d, 0x82, 0x59, 0x35, 0x6a, 0x0f, 0x32,
  0x35, 0xc4, 0x31, 0xd8, 0xbb, 0x34, 0x46, 0x31, 0x0f, 0xd3, 0x82, 0xdc,
  0xc2, 0xb4, 0x24, 0x25, 0x0d, 0x3d, 0x23, 0x0c, 0x39, 0x31, 0x07, 0x39,
  0xae, 0x16, 0x34, 0xa6, 0x28, 0x2d, 0x8a, 0x20, 0x91, 0x91, 0x28, 0x2a,
  0x34, 0x47, 0x37, 0xe9, 0x2f, 0xf7, 0xc2, 0x9a, 0x39, 0xd9, 0xd0, 0x23,
  0x39, 0x26, 0x3a, 0x37, 0xdc, 0x0d, 0x26, 0xad, 0x38, 0x3e, 0x99, 0x2a,
  0x28, 0x38, 0x0d, 0x10, 0x39, 0xaf, 0x5b, 0xce, 0xbe, 0x5f, 0x77, 0x56,
  0x7f, 0xad, 0x81, 0xdc, 0xbf, 0xb2, 0x5d, 0x75, 0x30, 0x59, 0x71, 0x5c,
  0x69, 0x7f, 0xe2, 0x73, 0xa7, 0x43, 0x6b, 0xb8, 0x6e, 0x6e, 0xac, 0x4b,
  0x82, 0x87, 0x4e, 0x7f, 0x5a, 0x60, 0x72, 0xf3, 0x77, 0x01, 0xcc, 0x86,
  0x59, 0xf7, 0xa2, 0x6c, 0x6a, 0x6d, 0x67, 0xc3, 0xc5, 0x70, 0x5c, 0x9e,
  0x7a, 0x70, 0xd6, 0x6d, 0x3f, 0x7f, 0x60, 0x34, 0x7f, 0x4a, 0x6f, 0x1e,
  0x81, 0x7f, 0x7e, 0x7f, 0x6c, 0x81, 0x53, 0x14, 0x99, 0x2e, 0x60, 0x62,
  0x88, 0x67, 0x5e, 0x68, 0x6f, 0x35, 0x7e, 0x7f, 0x27, 0x65, 0x73, 0xa9,
  0x77, 0xe3, 0xad, 0x7f, 0x97, 0xea, 0x7d, 0x42, 0x7c, 0x7f, 0x7d, 0xd9,
  0x5d, 0xd9, 0x0c, 0x76, 0x81, 0x84, 0x33, 0x7f, 0x36, 0x7c, 0x62, 0x37,
  0x7f, 0x70, 0x63, 0x81, 0x69, 0x77, 0x21, 0x7c, 0xf6, 0x73, 0xa2, 0xe2,
  0x65, 0x1f, 0x2d, 0x21, 0xc6, 0x26, 0x48, 0x2d, 0x27, 0xb8, 0x32, 0xc7,
  0xda, 0x39, 0x24, 0x2f, 0x92, 0x3a, 0x29, 0x0a, 0x3f, 0x37, 0x23, 0x3e,
  0x19, 0x21, 0x33, 0xb8, 0x30, 0x1b, 0xaa, 0x33, 0x9c, 0x01, 0x40, 0x29,
  0x2e, 0x54, 0x48, 0x81, 0x27, 0xe5, 0xcf, 0x9a, 0xa6, 0x94, 0xb6, 0x37,
  0x24, 0x25, 0x29, 0x23, 0x44, 0x12, 0x21, 0xcc, 0x3e, 0x4a, 0x44, 0x3e,
  0x06, 0x36, 0xf2, 0x02, 0x76, 0x2b, 0x7f, 0x37, 0xba, 0x67, 0x7d, 0x51,
  0x73, 0x9d, 0x45, 0x81, 0x9b, 0x45, 0x66, 0x7f, 0x81, 0x62, 0x7f, 0x5f,
  0x71, 0x6d, 0x7f, 0x7c, 0x48, 0x46, 0x6c, 0xdf, 0x7f, 0xd1, 0xb4, 0x61,
  0xcc, 0x0d, 0x74, 0x7e, 0x7f, 0x68, 0x79, 0x9c, 0x7f, 0xd4, 0xa3, 0x8d,
  0x87, 0x81, 0x81, 0x7d, 0x08, 0x6e, 0x53, 0x96, 0x79, 0x74, 0x66, 0x05,
  0x55, 0x77, 0x39, 0x7f, 0xf8, 0x7e, 0x7f, 0x08, 0x11, 0xc1, 0x40, 0x81,
  0xc8, 0x7b, 0x62, 0x78, 0x65, 0xc9, 0x91, 0x45, 0xb9, 0x9d, 0x75, 0x6c,
  0xbf, 0x7f, 0x57, 0x7b, 0x7f, 0x22, 0xcc, 0x61, 0x9f, 0x7f, 0x7f, 0x81,
  0x6e, 0x6a, 0xf7, 0x6e, 0x81, 0x9c, 0x7f, 0x44, 0x68, 0x99, 0x73, 0xc2,
  0x55, 0xae, 0x81, 0x40, 0x51, 0xe5, 0x16, 0x5f, 0x2c, 0x7e, 0x64, 0x01,
  0xc1, 0x7f, 0x7f, 0x10, 0x6e, 0x7f, 0x81, 0x69, 0x81, 0x7b, 0xd4, 0x90,
  0x20, 0xa4, 0x2f, 0x9b, 0xd9, 0x15, 0x3e, 0x2f, 0x1c, 0xf9, 0xa6, 0x2d,
  0xd6, 0xbe, 0x2c, 0x29, 0xe7, 0x40, 0x27, 0x1b, 0x3e, 0x1c, 0xef, 0x37,
  0x81, 0x33, 0x3c, 0xb6, 0x26, 0x2b, 0xb3, 0x25, 0xc1, 0x8a, 0x4b, 0x26,
  0x2f, 0xe7, 0x34, 0x9f, 0x22, 0x81, 0xbb, 0xb7, 0x36, 0x10, 0xa2, 0x21,
  0x07, 0x2c, 0x34, 0xba, 0xdb, 0x0f, 0x2d, 0x11, 0x3c, 0x46, 0xea, 0x46,
  0x8c, 0x43, 0xb1, 0x9e, 0x38, 0x81, 0x5b, 0xa8, 0xd9, 0x76, 0x6d, 0x5a,
  0x2e, 0xcf, 0xa2, 0x15, 0x81, 0xc0, 0x7f, 0x78, 0xf3, 0x63, 0x75, 0x7f,
  0x64, 0x59, 0xd2, 0x6a, 0x84, 0x58, 0x7c, 0xbc, 0x7b, 0x7f, 0x9f, 0x5f,
  0xb5, 0x83, 0x78, 0x59, 0x7e, 0xbf, 0x7f, 0xac, 0x5a, 0x82, 0xd0, 0x81,
  0x77, 0x32, 0x97, 0x70, 0x11, 0x7f, 0x7d, 0x81, 0xda, 0x6a, 0x76, 0x26,
  0x76, 0x71, 0xf3, 0x67, 0x87, 0x7f, 0x21, 0x81, 0xe2, 0xe9, 0xff, 0xff,
  0x04, 0x00, 0x00, 0x00, 0x00, 0x01, 0x00, 0x00, 0x95, 0xf3, 0xff, 0xff,
  0x58, 0x01, 0x00, 0x00, 0x34, 0xff, 0xff, 0xff, 0x16, 0x02, 0x00, 0x00,
  0x0b, 0x03, 0x00, 0x00, 0x3d, 0xfa, 0xff, 0xff, 0x6e, 0xff, 0xff, 0xff,
  0x66, 0xfe, 0xff, 0xff, 0x41, 0xf4, 0xff, 0xff, 0xb5, 0x05, 0x00, 0x00,
  0x73, 0xff, 0xff, 0xff, 0x3e, 0xff, 0xff, 0xff, 0x1c, 0x08, 0x00, 0x00,
  0x18, 0x02, 0x00, 0x00, 0x54, 0xfd, 0xff, 0xff, 0x98, 0xfe, 0xff, 0xff,
  0x05, 0xfd, 0xff, 0xff, 0x28, 0xfe, 0xff, 0xff, 0x7b, 0xff, 0xff, 0xff,
  0x5f, 0xfe, 0xff, 0xff, 0x1b, 0xff, 0xff, 0xff, 0xfe, 0xfe, 0xff, 0xff,
  0x98, 0xfe, 0xff, 0xff, 0x78, 0xff, 0xff, 0xff, 0x49, 0x02, 0x00, 0x00,
  0x2d, 0xff, 0xff, 0xff, 0xda, 0xfe, 0xff, 0xff, 0xc7, 0x01, 0x00, 0x00,
  0x33, 0xff, 0xff, 0xff, 0x7a, 0xff, 0xff, 0xff, 0x27, 0x07, 0x00, 0x00,
  0x41, 0xff, 0xff, 0xff, 0x6c, 0x08, 0x00, 0x00, 0x8c, 0x06, 0x00, 0x00,
  0xe9, 0xfd, 0xff, 0xff, 0xd7, 0xfd, 0xff, 0xff, 0xfe, 0xfd, 0xff, 0xff,
  0xd3, 0xff, 0xff, 0xff, 0xba, 0xff, 0xff, 0xff, 0x4a, 0xff, 0xff, 0xff,
  0x25, 0xfa, 0xff, 0xff, 0x31, 0xff, 0xff, 0xff, 0x75, 0x02, 0x00, 0x00,
  0x80, 0x01, 0x00, 0x00, 0xaa, 0xfc, 0xff, 0xff, 0x45, 0x02, 0x00, 0x00,
  0xd5, 0x03, 0x00, 0x00, 0x95, 0xff, 0xff, 0xff, 0x97, 0xf8, 0xff, 0xff,
  0x57, 0xfe, 0xff, 0xff, 0x3d, 0xff, 0xff, 0xff, 0xee, 0xff, 0xff, 0xff,
  0x28, 0xff, 0xff, 0xff, 0x77, 0xfd, 0xff, 0xff, 0xc0, 0xff, 0xff, 0xff,
  0xe2, 0x03, 0x00, 0x00, 0x73, 0xfd, 0xff, 0xff, 0x02, 0xff, 0xff, 0xff,
  0xef, 0x00, 0x00, 0x00, 0xba, 0xfc, 0xff, 0xff, 0x89, 0xfc, 0xff, 0xff,
  0xb0, 0xfe, 0xff, 0xff, 0xe4, 0xfd, 0xff, 0xff, 0xfd, 0x01, 0x00, 0x00,
  0xee, 0xea, 0xff, 0xff, 0x04, 0x00, 0x00, 0x00, 0x00, 0x10, 0x00, 0x00,
  0xfb, 0x30, 0x69, 0xcd, 0xfc, 0xf3, 0xd9, 0xf4, 0x0f, 0xfe, 0x7f, 0x99,
  0x12, 0x1f, 0xe2, 0xe6, 0x0c, 0x46, 0x2d, 0x28, 0xc6, 0xd2, 0xf6, 0xeb,
  0xfc, 0xed, 0xfa, 0x16, 0xb6, 0x47, 0x01, 0x12, 0xf3, 0x5d, 0xcc, 0x2e,
  0xe7, 0x39, 0x17, 0xf8, 0x43, 0xf2, 0x0a, 0x0e, 0x03, 0xfe, 0x67, 0xee,
  0xf6, 0x27, 0xc9, 0x01, 0x04, 0xcb, 0xe9, 0x26, 0xf1, 0x3e, 0xda, 0x11,
  0x00, 0xe0, 0xcc, 0x0b, 0xf2, 0xe1, 0xce, 0xfd, 0x2c, 0x37, 0xf5, 0xc7,
  0x43, 0x3a, 0xd0, 0xe6, 0x11, 0x36, 0x06, 0xcd, 0xe0, 0x3b, 0xee, 0xbe,
  0x2f, 0x1b, 0x0b, 0x74, 0xff, 0x01, 0xd1, 0xeb, 0x48, 0xe8, 0x4b, 0x23,
  0x10, 0xd9, 0x17, 0xe7, 0xfe, 0xb7, 0x88, 0xf1, 0xbf, 0xdd, 0x58, 0x07,
  0xf5, 0xfd, 0x7f, 0x11, 0xe7, 0xd8, 0xd2, 0xbc, 0x14, 0x17, 0xd1, 0x12,
  0x0f, 0x14, 0xc5, 0x1f, 0xf7, 0xce, 0x34, 0xba, 0x06, 0x59, 0x00, 0x35,
  0xf7, 0x22, 0xe9, 0x04, 0x02, 0x0d, 0x2c, 0x09, 0x25, 0x60, 0x0e, 0x00,
  0x2f, 0x46, 0x28, 0xe1, 0x3d, 0xd2, 0x05, 0xcb, 0x58, 0x10, 0xbb, 0xc1,
  0xf6, 0xc0, 0xda, 0xff, 0xd0, 0xf0, 0x2b, 0xf6, 0xcb, 0xd0, 0xa8, 0x00,
  0x1a, 0x07, 0x41, 0xc8, 0x0b, 0x0b, 0x12, 0x7f, 0x06, 0xfc, 0xec, 0xdf,
  0x12, 0xad, 0x54, 0xd9, 0x02, 0xc7, 0xd7, 0xe7, 0x3f, 0xe1, 0x2e, 0x0c,
  0xee, 0x37, 0xe2, 0x4a, 0x09, 0x25, 0x50, 0x61, 0x03, 0xd6, 0x0a, 0x00,
  0xd9, 0xd7, 0x7f, 0x3b, 0xdd, 0xcc, 0xf4, 0xb6, 0xd7, 0x2b, 0x34, 0x3e,
  0xe8, 0xc8, 0x09, 0x34, 0xc7, 0xe8, 0x1e, 0x13, 0xed, 0x4d, 0x1d, 0xd6,
  0xfb, 0xac, 0xf0, 0x05, 0xfc, 0x00, 0x07, 0x00, 0xee, 0x3e, 0x3b, 0x4a,
  0x2b, 0xeb, 0xcc, 0xa2, 0x1b, 0x06, 0xd6, 0xef, 0x21, 0xd3, 0xb1, 0xc7,
  0xce, 0xd2, 0x22, 0x03, 0xff, 0xce, 0xf8, 0xe5, 0xf9, 0xc4, 0xfc, 0x0d,
  0x01, 0xf6, 0xd0, 0xf1, 0x21, 0xea, 0xc8, 0xf8, 0x36, 0xf2, 0xff, 0x17,
  0xd6, 0xe0, 0xe6, 0xec, 0x01, 0xf0, 0x16, 0x1f, 0x34, 0xe4, 0x3b, 0xe4,
  0x29, 0x20, 0xc5, 0x00, 0x02, 0x0d, 0x47, 0x18, 0xc5, 0x2e, 0x0b, 0x51,
  0x0e, 0x24, 0xd5, 0xd9, 0x0e, 0xc8, 0x7f, 0xfe, 0xf9, 0x3a, 0xf7, 0xe9,
  0x00, 0xe9, 0x26, 0x14, 0xd6, 0x61, 0xf3, 0x40, 0x10, 0x5c, 0xeb, 0x34,
  0xeb, 0xf5, 0x63, 0x25, 0x1d, 0x38, 0x0a, 0x23, 0x4c, 0x55, 0xbd, 0xdb,
  0x69, 0xeb, 0x7f, 0xc4, 0xaf, 0xd7, 0xf8, 0x48, 0xd7, 0xf8, 0x1f, 0x26,
  0x14, 0xdc, 0x08, 0xab, 0x48, 0x56, 0x23, 0xd8, 0x49, 0xf4, 0xe0, 0x08,
  0xf7, 0xec, 0x4f, 0x6e, 0x13, 0x0e, 0xca, 0x05, 0xe4, 0xb0, 0xd7, 0xde,
  0x02, 0xe3, 0x7c, 0xee, 0xe4, 0x00, 0x08, 0xaf, 0x38, 0x6f, 0xbf, 0x1b,
  0x09, 0x1d, 0x2d, 0x0e, 0xe8, 0x09, 0x7f, 0x19, 0xc8, 0x2b, 0x15, 0xff,
  0x40, 0x32, 0x0b, 0x2e, 0xfe, 0xa9, 0xb4, 0xd8, 0xf5, 0x09, 0x1b, 0x64,
  0x03, 0x00, 0xea, 0xf8, 0xbc, 0x48, 0xd6, 0x04, 0x31, 0x2c, 0x0f, 0xeb,
  0x19, 0xb5, 0x24, 0x17, 0xfc, 0xef, 0x56, 0x15, 0xf1, 0x61, 0x02, 0x45,
  0x29, 0x51, 0xea, 0xdb, 0x0f, 0xa0, 0xd7, 0xfe, 0xf2, 0xe3, 0xc3, 0xd1,
  0x29, 0xe4, 0x11, 0x11, 0x06, 0x28, 0x5d, 0x27, 0x08, 0xb7, 0xd0, 0x25,
  0x39, 0x11, 0xc3, 0x1d, 0xfb, 0x0e, 0xe5, 0xec, 0x02, 0xdc, 0xdf, 0xf6,
  0xba, 0xca, 0x01, 0x6b, 0xf8, 0xb9, 0x29, 0x5b, 0x13, 0xe8, 0x53, 0xab,
  0x60, 0x59, 0xf3, 0xea, 0x2e, 0xc6, 0x4b, 0x0a, 0xb1, 0xf8, 0x4b, 0x64,
  0x14, 0x20, 0xfa, 0x2d, 0xe7, 0x3d, 0xe8, 0x10, 0x0a, 0xc4, 0xf0, 0xef,
  0xff, 0xdd, 0x1b, 0xfe, 0x0f, 0x7f, 0xe4, 0x33, 0xf8, 0x32, 0xa4, 0x24,
  0x06, 0x21, 0x1c, 0x29, 0x03, 0xc3, 0xe0, 0xd9, 0xd0, 0x2c, 0x78, 0x47,
  0x04, 0x2a, 0xde, 0xab, 0x1f, 0xeb, 0x27, 0xc0, 0x22, 0xc3, 0xdb, 0x2e,
  0x0c, 0xbd, 0x3c, 0x29, 0xf6, 0x25, 0x51, 0xb4, 0xd0, 0xc4, 0xce, 0xe1,
  0xfc, 0xf9, 0x20, 0xcb, 0x01, 0x2b, 0xf3, 0x71, 0xed, 0xfb, 0x6e, 0xbc,
  0x16, 0x1d, 0xdb, 0x00, 0x0e, 0xbd, 0xc9, 0xdd, 0xe7, 0xc1, 0x7f, 0xf8,
  0xf2, 0x5f, 0x70, 0xe9, 0xe6, 0x2e, 0xd3, 0xdf, 0x4e, 0x22, 0x38, 0x83,
  0x56, 0x0b, 0x46, 0x2b, 0xca, 0x25, 0xae, 0xde, 0x04, 0x9e, 0x28, 0xfd,
  0x05, 0xad, 0x09, 0xf8, 0xb1, 0x7f, 0x39, 0x6b, 0x2d, 0x39, 0xb7, 0x0f,
  0x33, 0xe3, 0xb8, 0x09, 0xe4, 0x0f, 0x05, 0xbd, 0xe0, 0x10, 0x7d, 0x2c,
  0xdd, 0x12, 0xb5, 0xc5, 0x1a, 0x33, 0xc6, 0x42, 0x18, 0x70, 0xe4, 0x0e,
  0x97, 0xb6, 0xd6, 0xe1, 0xf9, 0xfc, 0xee, 0x02, 0x24, 0x22, 0xd9, 0xe2,
  0x30, 0x08, 0x11, 0xda, 0xef, 0x2e, 0x17, 0xee, 0xec, 0x44, 0x04, 0xd0,
  0x1b, 0xff, 0x04, 0x3b, 0x01, 0xff, 0xe4, 0x0c, 0x0c, 0x0d, 0x11, 0x2e,
  0xc9, 0x12, 0x0d, 0x0b, 0xd4, 0xd1, 0xb2, 0xe0, 0xe8, 0x07, 0x38, 0xe0,
  0xf5, 0x0b, 0x7f, 0x1f, 0xfe, 0xff, 0xd6, 0xde, 0x0b, 0xf8, 0xe9, 0x2f,
  0x0c, 0x26, 0xbe, 0x10, 0xeb, 0xcc, 0x18, 0xc9, 0x1a, 0xe7, 0xdf, 0xd5,
  0xfc, 0x0b, 0x01, 0xe5, 0x0d, 0x06, 0xff, 0xca, 0x2e, 0x10, 0xfb, 0x1f,
  0x1a, 0xf1, 0x0e, 0x2a, 0xe7, 0xd5, 0xf1, 0xf2, 0xec, 0xdf, 0x06, 0xdc,
  0x15, 0xd9, 0x3f, 0xea, 0x2b, 0x00, 0xd1, 0xea, 0x40, 0x19, 0xeb, 0x0e,
  0xe8, 0x2c, 0x02, 0x68, 0x03, 0x14, 0x0e, 0xdf, 0x05, 0xcd, 0xe5, 0xf0,
  0xf3, 0x4f, 0x7f, 0x25, 0x0c, 0xf2, 0x0d, 0x0f, 0xc9, 0x31, 0x0a, 0xd9,
  0x5f, 0x0b, 0x79, 0xd1, 0x2b, 0xa1, 0xc8, 0xca, 0x36, 0xf5, 0x43, 0xab,
  0x28, 0x34, 0xd1, 0xd8, 0xe2, 0x22, 0xaa, 0x6a, 0x30, 0xd3, 0x15, 0xb7,
  0x51, 0x0e, 0xd9, 0xbe, 0x1e, 0x57, 0xc5, 0x0c, 0x02, 0x07, 0xb0, 0x1b,
  0x12, 0x4c, 0x22, 0x8b, 0xfc, 0xea, 0xd6, 0x34, 0x5b, 0xfa, 0x0d, 0x0e,
  0xd1, 0x07, 0xdf, 0x05, 0x38, 0xec, 0x29, 0xe9, 0x33, 0x18, 0x08, 0x05,
  0x06, 0xf8, 0x81, 0x18, 0x02, 0xe5, 0x1e, 0xfa, 0xfa, 0x9a, 0xc4, 0x01,
  0x10, 0x32, 0xe2, 0xde, 0x26, 0x7f, 0xca, 0x1e, 0xf6, 0x57, 0x93, 0xf0,
  0x37, 0x2e, 0x0e, 0x39, 0x79, 0xde, 0xdd, 0x39, 0x1b, 0xde, 0x54, 0x13,
  0x26, 0x3f, 0x1f, 0xba, 0xf9, 0xbe, 0xf8, 0x09, 0xda, 0x0f, 0x2a, 0xdd,
  0xf7, 0x37, 0x41, 0x34, 0xfe, 0x57, 0x7c, 0xd6, 0x0d, 0xd6, 0xc3, 0x35,
  0x0b, 0xe1, 0xba, 0x33, 0x0d, 0xb7, 0xf8, 0xda, 0x0a, 0x1b, 0x39, 0x25,
  0xfe, 0xed, 0xc8, 0x52, 0xfd, 0x19, 0xee, 0x2c, 0x0f, 0xc5, 0x4a, 0x53,
  0xc0, 0xe4, 0xea, 0xe8, 0xc0, 0x0d, 0x11, 0x26, 0x1a, 0xaf, 0x53, 0x54,
  0x12, 0xde, 0x1c, 0xec, 0x11, 0x7f, 0x0c, 0xa9, 0xeb, 0xb5, 0x4c, 0x0e,
  0xdb, 0x08, 0x2c, 0xec, 0x09, 0x29, 0xe7, 0x29, 0x01, 0x1d, 0x4a, 0xca,
  0x08, 0xf2, 0xcf, 0xe0, 0x14, 0xb8, 0xf9, 0xf6, 0xc3, 0x1f, 0x3d, 0x28,
  0x03, 0x45, 0x0f, 0xf3, 0xf9, 0x00, 0xd5, 0x06, 0xf3, 0x20, 0xf3, 0xe4,
  0x22, 0xf7, 0x11, 0x16, 0xed, 0xe2, 0x14, 0xcd, 0xf5, 0x00, 0x09, 0x3e,
  0x2b, 0xd4, 0xda, 0x0c, 0x0b, 0xd0, 0x3d, 0x0f, 0x12, 0x30, 0xfe, 0xa4,
  0xff, 0xd9, 0x09, 0xfe, 0x0a, 0x09, 0x12, 0x28, 0x04, 0x1d, 0x2d, 0x1d,
  0x02, 0x19, 0x52, 0xdf, 0x07, 0xef, 0x7f, 0x02, 0x02, 0xfe, 0x09, 0x09,
  0xbf, 0xed, 0x00, 0x00, 0x2e, 0xdb, 0xf2, 0x0f, 0x0b, 0xa7, 0xd5, 0xc7,
  0x15, 0x0c, 0x38, 0xde, 0x10, 0x46, 0xb9, 0xc0, 0xe0, 0x3a, 0xa5, 0x7f,
  0x34, 0xe9, 0xf6, 0xbe, 0x5d, 0x31, 0xdb, 0x9f, 0x2d, 0xff, 0xdc, 0x06,
  0xeb, 0xc3, 0x00, 0x12, 0xf5, 0x19, 0xef, 0xbc, 0xe8, 0xea, 0xdc, 0x17,
  0x1c, 0x03, 0xed, 0x21, 0xe8, 0x15, 0xdf, 0xef, 0x19, 0xe6, 0x05, 0xea,
  0x31, 0xed, 0xe5, 0x11, 0x10, 0xf4, 0xae, 0x10, 0x02, 0x2d, 0x0e, 0x10,
  0xdf, 0xda, 0xd1, 0x2f, 0xe3, 0xec, 0xd9, 0xe1, 0x12, 0xd7, 0x57, 0x23,
  0xd1, 0x01, 0x15, 0xe8, 0xd5, 0xe9, 0x19, 0xc5, 0x04, 0xc7, 0x52, 0x49,
  0xe1, 0x37, 0x4c, 0x6c, 0xca, 0x7f, 0xf7, 0x06, 0xba, 0xee, 0x29, 0x04,
  0x12, 0x24, 0x0d, 0xbd, 0xda, 0x0a, 0xec, 0x2a, 0x16, 0xde, 0x40, 0xe7,
  0x0c, 0x3a, 0xac, 0xbf, 0x0a, 0x28, 0xdd, 0xfa, 0x9d, 0xc3, 0xfa, 0x78,
  0xff, 0x02, 0xe1, 0x2e, 0xde, 0xbc, 0xea, 0x2b, 0x10, 0x05, 0xe5, 0xcc,
  0x37, 0xda, 0x3b, 0x23, 0xe4, 0x19, 0x3e, 0xe5, 0x96, 0xd4, 0x17, 0xe8,
  0xc6, 0xcd, 0x7f, 0xf6, 0x0e, 0xe8, 0x2c, 0xf6, 0x41, 0x60, 0x0f, 0x14,
  0xdf, 0xd5, 0x32, 0x2f, 0x02, 0x01, 0x0e, 0x51, 0xff, 0x18, 0xc4, 0xd8,
  0xf1, 0xca, 0xf9, 0xbe, 0x08, 0x49, 0xcf, 0xdf, 0x0d, 0xf1, 0xed, 0xdd,
  0xb4, 0x4a, 0x03, 0x43, 0x11, 0x22, 0xea, 0x0c, 0x0d, 0xf5, 0xf6, 0xdb,
  0x1b, 0x09, 0x40, 0xc6, 0x28, 0x1d, 0xd4, 0xe1, 0x22, 0x50, 0x56, 0x0a,
  0xc7, 0xea, 0xde, 0xe4, 0xfb, 0x07, 0xf8, 0xdf, 0x12, 0xeb, 0x0a, 0xe6,
  0x0a, 0xf2, 0x11, 0x0b, 0xc9, 0x25, 0xd9, 0xf1, 0x23, 0x08, 0x28, 0x7f,
  0x0d, 0xf9, 0x25, 0xd8, 0xf2, 0x08, 0xf8, 0xf3, 0xf2, 0xd3, 0x41, 0x11,
  0x01, 0xfa, 0x02, 0xfe, 0x09, 0xfe, 0xea, 0xed, 0x01, 0x6e, 0xe8, 0x0a,
  0xef, 0xb7, 0x1d, 0x1f, 0xf8, 0x91, 0x47, 0xe4, 0x21, 0xe4, 0xd0, 0x2d,
  0xe5, 0xd3, 0x19, 0x19, 0x12, 0xdc, 0x44, 0xdb, 0x38, 0x38, 0xa4, 0xbd,
  0xe6, 0x1e, 0xc0, 0xdf, 0x01, 0x23, 0xe8, 0xf1, 0x5e, 0x0b, 0xda, 0xf2,
  0x34, 0x06, 0x85, 0xb2, 0xe8, 0xd8, 0xd9, 0x1e, 0x1c, 0xdd, 0xe2, 0xd8,
  0x7f, 0xdf, 0x4c, 0xb4, 0xc9, 0x5e, 0xf5, 0xa2, 0xaf, 0xef, 0xab, 0x05,
  0xff, 0x68, 0x7f, 0xfc, 0xfc, 0xc0, 0xec, 0x12, 0x2d, 0x38, 0x04, 0xee,
  0x38, 0x3f, 0xcc, 0xe9, 0x1e, 0xe8, 0x0a, 0xe3, 0xb0, 0xc8, 0xf8, 0x08,
  0xdf, 0xd8, 0x16, 0x16, 0xfc, 0x42, 0x34, 0xd3, 0x32, 0x27, 0x0b, 0xf9,
  0x11, 0x12, 0x14, 0xf9, 0x19, 0xf7, 0x06, 0x4a, 0x0e, 0xfc, 0x0f, 0x1a,
  0xec, 0xe1, 0xce, 0xee, 0xf7, 0xfb, 0x44, 0xfc, 0xe3, 0x3f, 0x11, 0xe1,
  0x31, 0x5f, 0xcb, 0xeb, 0x7f, 0xe4, 0x10, 0x05, 0x37, 0xc4, 0xed, 0xf6,
  0x12, 0x13, 0xd2, 0xf6, 0x02, 0x20, 0xd1, 0xeb, 0xec, 0x11, 0xc9, 0x49,
  0xf1, 0xe9, 0x06, 0xd9, 0x41, 0x21, 0xfc, 0xdb, 0x2d, 0xcc, 0xe1, 0xce,
  0xe4, 0xcf, 0xd5, 0x03, 0xf0, 0xf3, 0x0e, 0xd3, 0xf9, 0x1c, 0xcd, 0x3b,
  0x4a, 0x01, 0xc4, 0x08, 0xc5, 0xf1, 0xce, 0xfb, 0x1b, 0xfd, 0x4d, 0xc8,
  0x41, 0xe8, 0x0a, 0xf4, 0xff, 0x33, 0xa0, 0x1d, 0xf9, 0x47, 0xf5, 0x7f,
  0x00, 0xee, 0x09, 0x1d, 0x1f, 0x1f, 0x06, 0x09, 0x1a, 0x20, 0xf7, 0xd4,
  0x19, 0x22, 0xf7, 0xcc, 0x0a, 0xf3, 0x10, 0x47, 0xfb, 0x0e, 0xf0, 0x04,
  0x17, 0xf4, 0x28, 0xe0, 0x1d, 0x12, 0x34, 0x14, 0xaa, 0xd3, 0xf0, 0x17,
  0xdf, 0xfc, 0x2d, 0x0c, 0x02, 0x24, 0xd9, 0x74, 0xe6, 0xe4, 0xe5, 0xec,
  0x06, 0xb8, 0xcf, 0xd6, 0xfd, 0xdf, 0xc6, 0xec, 0x54, 0x18, 0xea, 0x2f,
  0xfe, 0x50, 0x6e, 0xf8, 0xfb, 0xbd, 0xf7, 0x05, 0x4a, 0x3a, 0xfa, 0xdf,
  0x37, 0x5f, 0xad, 0xe1, 0x06, 0xe8, 0x03, 0xe9, 0xc2, 0xcb, 0xf0, 0x25,
  0xe3, 0xe0, 0x05, 0x1b, 0x06, 0x70, 0x2a, 0xe2, 0x47, 0x1f, 0xe7, 0xfe,
  0x23, 0x1c, 0xf7, 0xff, 0x0e, 0xf1, 0x09, 0x7f, 0x0d, 0x1a, 0x03, 0xfa,
  0xef, 0xbc, 0xb8, 0xf8, 0xda, 0x29, 0x48, 0x0d, 0xe5, 0x5f, 0x10, 0xe6,
  0x2e, 0x7b, 0xce, 0xcf, 0x00, 0x13, 0xd5, 0xf8, 0x0b, 0x0f, 0x6c, 0x0d,
  0xd0, 0xdf, 0xe4, 0xee, 0xea, 0xf9, 0xc6, 0x5d, 0x1c, 0xc3, 0x40, 0xe7,
  0xf0, 0xdd, 0xff, 0xbb, 0x3f, 0xf7, 0xd6, 0x1a, 0xff, 0xdf, 0x6a, 0x15,
  0x02, 0x2d, 0x18, 0xdd, 0x3c, 0xf8, 0x04, 0x17, 0x10, 0x2f, 0xf1, 0xdc,
  0xcf, 0xd5, 0xf0, 0xe0, 0x13, 0xbd, 0x7f, 0xfb, 0x01, 0xfc, 0x36, 0xca,
  0xdd, 0xf0, 0x1c, 0xdb, 0xd2, 0xd6, 0x2f, 0x24, 0x00, 0xe6, 0xcc, 0x12,
  0xec, 0x2e, 0x34, 0xe0, 0xdc, 0xfc, 0x3e, 0xea, 0x08, 0x29, 0xe9, 0x27,
  0x26, 0x08, 0xd0, 0x07, 0x7f, 0xdc, 0x1a, 0xc0, 0x66, 0x14, 0xb6, 0xde,
  0xfd, 0xdd, 0xf3, 0x0f, 0xc3, 0xf9, 0x21, 0xed, 0x19, 0xca, 0xd4, 0xc7,
  0x0e, 0xe8, 0x07, 0xc9, 0xc1, 0xcc, 0xf6, 0x18, 0x22, 0xf9, 0xeb, 0xcd,
  0x0b, 0xdc, 0xf2, 0xb2, 0x05, 0xe2, 0xe0, 0xed, 0x19, 0xd4, 0x47, 0x12,
  0x06, 0xef, 0xee, 0xd2, 0xdf, 0x0c, 0xca, 0xe6, 0xcf, 0xf1, 0x32, 0xc9,
  0x01, 0xfb, 0x04, 0x4b, 0x34, 0xd4, 0xf2, 0x5c, 0x17, 0x9d, 0x15, 0xec,
  0x36, 0x09, 0xfd, 0xdf, 0xec, 0xda, 0x0f, 0xda, 0x17, 0x12, 0xce, 0x09,
  0x20, 0x1c, 0x42, 0xef, 0xf9, 0x2b, 0x03, 0xf0, 0xf2, 0x12, 0x1f, 0xf0,
  0x2d, 0x7d, 0xcf, 0xe0, 0xf1, 0xc3, 0x7f, 0xd8, 0x09, 0xdb, 0x08, 0x27,
  0xd2, 0xc8, 0xfe, 0x39, 0x0a, 0xed, 0xc2, 0xfc, 0x17, 0x29, 0x7f, 0xfe,
  0xec, 0x22, 0x1b, 0x09, 0x3a, 0x18, 0xed, 0x58, 0x2e, 0xa2, 0x36, 0xd6,
  0xef, 0xde, 0xff, 0x7c, 0x18, 0xf5, 0xc2, 0x04, 0xf1, 0xd9, 0x11, 0xf4,
  0x5e, 0xfd, 0x05, 0xcc, 0x55, 0xe6, 0xf2, 0x11, 0xe5, 0x0f, 0x23, 0x0d,
  0xe2, 0x2c, 0x07, 0xf1, 0x12, 0x1d, 0xbb, 0xec, 0x06, 0xb9, 0x7b, 0xeb,
  0xf1, 0xed, 0x17, 0xfc, 0x12, 0xe2, 0xf9, 0x09, 0xf3, 0xcb, 0xc9, 0x29,
  0x03, 0xf5, 0x7e, 0xf8, 0xe6, 0x2d, 0x1b, 0x01, 0xfb, 0x47, 0xb7, 0xf6,
  0x1f, 0x1c, 0xc8, 0xf2, 0x2c, 0x2e, 0xc3, 0x4d, 0x14, 0x28, 0xb1, 0xa9,
  0x1a, 0x0c, 0x41, 0xee, 0xb4, 0xf9, 0x1a, 0x1a, 0xed, 0x95, 0xc7, 0x13,
  0xf4, 0xdf, 0x20, 0xff, 0xc2, 0xe3, 0x02, 0x05, 0xfb, 0xee, 0xd8, 0xad,
  0x14, 0xe9, 0xc1, 0x94, 0x0d, 0xdb, 0x81, 0x13, 0x62, 0xe9, 0x58, 0x1b,
  0x0a, 0xf4, 0x16, 0x06, 0xe5, 0xf4, 0xf0, 0x5b, 0x12, 0x0c, 0xbe, 0x29,
  0x65, 0xaf, 0x51, 0x6a, 0xb4, 0xe0, 0xf0, 0xca, 0xb4, 0x08, 0x10, 0x66,
  0xfb, 0x9c, 0x55, 0x5e, 0x37, 0xe5, 0x2c, 0xc9, 0x70, 0x6f, 0x12, 0x99,
  0x22, 0x8b, 0x43, 0x19, 0xa8, 0x26, 0x2a, 0x62, 0x03, 0x31, 0xee, 0x02,
  0x0a, 0xe0, 0x3e, 0xa3, 0x15, 0x53, 0xad, 0xef, 0x1c, 0xc7, 0x13, 0xf2,
  0x92, 0x7f, 0x32, 0x1c, 0x02, 0x17, 0xfd, 0xce, 0xff, 0xf5, 0xd9, 0xfd,
  0xe6, 0x0a, 0xfe, 0xe1, 0x06, 0xec, 0x0b, 0x40, 0xce, 0xdc, 0x17, 0x12,
  0x0b, 0xbd, 0x16, 0xaa, 0x41, 0xfe, 0x00, 0x06, 0x0c, 0xc2, 0x26, 0x0d,
  0x00, 0x14, 0xfd, 0xd6, 0x12, 0x17, 0x10, 0x03, 0x03, 0xeb, 0xea, 0xeb,
  0xf3, 0x00, 0x27, 0xfc, 0x1e, 0xd6, 0x7f, 0x04, 0xfc, 0xfb, 0x71, 0xdb,
  0xf4, 0xf0, 0x22, 0xfb, 0xb1, 0xdf, 0xf9, 0x29, 0x72, 0x44, 0x17, 0x50,
  0x1d, 0xd3, 0x90, 0xfb, 0x20, 0xfe, 0xdd, 0x16, 0xf9, 0x59, 0xcd, 0xd6,
  0x47, 0x11, 0xfd, 0x05, 0xff, 0xc7, 0xde, 0xf3, 0x51, 0x17, 0xf3, 0xaa,
  0x40, 0xbd, 0xcb, 0xb5, 0x02, 0xad, 0x0d, 0xc8, 0x15, 0xbc, 0xc0, 0x09,
  0xfa, 0x21, 0xfe, 0x5b, 0x4f, 0xfd, 0xba, 0x75, 0xc5, 0xe3, 0xb9, 0xd4,
  0xcf, 0xc8, 0x7f, 0xd2, 0x2d, 0xdc, 0xf1, 0xf2, 0x39, 0x4f, 0x98, 0x27,
  0xe0, 0xd0, 0xc9, 0x29, 0xc4, 0x54, 0x42, 0x29, 0xb4, 0xce, 0xc1, 0xc6,
  0x31, 0xdb, 0x16, 0x7f, 0x64, 0xcd, 0xd8, 0x5d, 0x1b, 0xb6, 0x14, 0xd1,
  0x15, 0xf4, 0x17, 0x4a, 0xe6, 0xf3, 0x19, 0x0e, 0xe9, 0x33, 0xcb, 0xfa,
  0x14, 0xcf, 0x31, 0x26, 0x03, 0x01, 0x14, 0x05, 0xdc, 0x7c, 0xd4, 0xe7,
  0x08, 0xec, 0xeb, 0xc3, 0x0a, 0x17, 0xd7, 0xbf, 0x60, 0xca, 0xe3, 0xfc,
  0xca, 0xd4, 0x1a, 0x2d, 0xf2, 0x7f, 0xe4, 0x1f, 0x07, 0x56, 0x3c, 0x1d,
  0x05, 0xc9, 0x2e, 0xcc, 0xd1, 0x18, 0x7a, 0x40, 0xe6, 0x08, 0x2f, 0xbd,
  0xb1, 0xc9, 0x3c, 0xea, 0xcd, 0xcb, 0x0e, 0x19, 0xae, 0x06, 0xf9, 0x5a,
  0x08, 0x63, 0x07, 0xd4, 0x12, 0xe8, 0xcd, 0x03, 0x2a, 0x23, 0x25, 0x9a,
  0xe7, 0x0f, 0x5a, 0x2c, 0xfe, 0xe8, 0xcd, 0xbf, 0x21, 0x13, 0x26, 0xf0,
  0x18, 0x3b, 0xaa, 0xc6, 0xbf, 0xd4, 0x19, 0x06, 0x09, 0x43, 0x3a, 0x14,
  0xfa, 0xea, 0x7f, 0x3f, 0xc9, 0x20, 0x02, 0xfc, 0x14, 0xfa, 0x01, 0x1e,
  0xed, 0xae, 0xe7, 0xca, 0xe3, 0xfd, 0x17, 0xfa, 0x1c, 0xd3, 0x0f, 0x39,
  0xb2, 0x08, 0x38, 0x31, 0x46, 0x32, 0x30, 0xd5, 0x05, 0xc5, 0x41, 0x17,
  0x1d, 0x15, 0x23, 0xf3, 0xf3, 0xd7, 0xee, 0x38, 0xf1, 0x11, 0x77, 0xdc,
  0x05, 0xcc, 0xf4, 0xcf, 0xdb, 0xe2, 0xe5, 0xa3, 0x0f, 0xe9, 0x2f, 0x13,
  0x0a, 0x01, 0xe3, 0x1f, 0xe1, 0xc1, 0x40, 0x05, 0xe8, 0xd6, 0x31, 0xe2,
  0x0a, 0xd7, 0xcf, 0x0a, 0x05, 0xdd, 0xff, 0x20, 0x0d, 0xf2, 0xb4, 0xe3,
  0x18, 0x1a, 0xca, 0xd0, 0xfc, 0x28, 0x07, 0xf8, 0xe5, 0xee, 0xf5, 0x05,
  0x46, 0xe2, 0xe3, 0x1f, 0x15, 0xe1, 0x9e, 0xd7, 0xc6, 0xbc, 0xce, 0xf6,
  0x1b, 0xef, 0x05, 0xdf, 0x7f, 0x02, 0xf4, 0xc5, 0xe6, 0x2d, 0xe2, 0xd9,
  0xc2, 0xfb, 0xe1, 0x17, 0xfe, 0xd2, 0x09, 0xce, 0xfa, 0xfd, 0xf5, 0xee,
  0xde, 0x25, 0x56, 0xd9, 0x16, 0x2d, 0xca, 0x17, 0xfc, 0xf3, 0xc5, 0x49,
  0x17, 0xd7, 0xd4, 0x09, 0x3a, 0x0b, 0xf2, 0xe9, 0xf1, 0x0d, 0x1b, 0x01,
  0x10, 0x09, 0xcc, 0x25, 0xfb, 0x06, 0x23, 0x1c, 0x17, 0x07, 0x34, 0xf6,
  0xd9, 0x27, 0x24, 0xec, 0x04, 0x7f, 0xd4, 0xe2, 0xf1, 0xcd, 0xf4, 0xf2,
  0x13, 0xf0, 0xf5, 0x35, 0xfe, 0xdc, 0xd7, 0x2a, 0xe3, 0x48, 0x06, 0x78,
  0x1e, 0xf5, 0xbf, 0x27, 0x45, 0x2e, 0xaa, 0xf6, 0x24, 0x28, 0x2f, 0xe2,
  0x0e, 0x22, 0x11, 0xa3, 0xe5, 0x18, 0x18, 0x7f, 0x02, 0xcf, 0x0f, 0x09,
  0x39, 0xe7, 0x18, 0xbf, 0x50, 0x4b, 0x40, 0xc2, 0xe2, 0xc8, 0xdb, 0xf5,
  0xe3, 0xfc, 0x3d, 0x65, 0x09, 0x28, 0xda, 0x42, 0xe4, 0xa0, 0xed, 0xc6,
  0x0e, 0x0b, 0xfd, 0xff, 0x0c, 0xfe, 0xec, 0xcc, 0x19, 0x4d, 0x1a, 0x2b,
  0x18, 0x6f, 0xf5, 0x5b, 0xe8, 0xc8, 0x37, 0x32, 0xf6, 0xa1, 0xec, 0xf6,
  0x16, 0xfa, 0xe0, 0xea, 0x10, 0xde, 0xef, 0xf6, 0x15, 0xf3, 0x5f, 0xeb,
  0x2e, 0x2c, 0xc1, 0xfd, 0xfc, 0x3a, 0xf1, 0xfd, 0x24, 0x32, 0x14, 0xfa,
  0x2c, 0xda, 0xe3, 0xe5, 0x36, 0xed, 0x8a, 0xb7, 0xe0, 0xb7, 0xc9, 0x77,
  0xff, 0xd3, 0xee, 0xdc, 0x7f, 0xf3, 0xe1, 0xb1, 0xeb, 0x40, 0xb2, 0xa7,
  0xe9, 0x0c, 0xfb, 0x29, 0xea, 0x19, 0x2a, 0x75, 0x2b, 0xbe, 0xa2, 0xfa,
  0x3b, 0x30, 0x81, 0xcc, 0xe2, 0x42, 0xdb, 0xed, 0x32, 0x48, 0x95, 0x41,
  0x14, 0xdb, 0xfd, 0xdd, 0x36, 0xeb, 0x11, 0x44, 0x49, 0xdc, 0x28, 0xbf,
  0xed, 0x3b, 0xf6, 0x27, 0xdf, 0xb1, 0x3b, 0x1e, 0xd9, 0xf3, 0x30, 0x4b,
  0xfb, 0x29, 0x0f, 0x54, 0xbf, 0x45, 0xc5, 0xed, 0x08, 0xd4, 0xf1, 0xf4,
  0x1d, 0xbe, 0xce, 0x0e, 0xf4, 0x1a, 0x01, 0x56, 0x00, 0x5d, 0xa3, 0x62,
  0xd1, 0xea, 0x7f, 0x75, 0xca, 0xf3, 0x23, 0x10, 0x3f, 0xe3, 0x1f, 0x3b,
  0x0b, 0x8e, 0x15, 0xc6, 0xd4, 0xf3, 0x21, 0xe7, 0xe2, 0xf1, 0x34, 0x29,
  0xa0, 0x74, 0x43, 0x4f, 0x32, 0x32, 0x0c, 0x13, 0xe2, 0xba, 0x1d, 0x17,
  0x44, 0x16, 0xf8, 0xc5, 0xdd, 0xc3, 0xed, 0x2f, 0xef, 0xc4, 0x30, 0xb8,
  0x2d, 0x1c, 0xbf, 0xb6, 0x03, 0x17, 0xa6, 0x93, 0xd7, 0xe8, 0x1f, 0x06,
  0xf9, 0xfc, 0xf4, 0xd3, 0xdc, 0xf9, 0xff, 0x2b, 0xdc, 0xf8, 0xb4, 0xfa,
  0xf7, 0xe2, 0xf6, 0x21, 0x94, 0xf3, 0xee, 0xcb, 0x0f, 0x4d, 0x37, 0x7d,
  0x16, 0xdc, 0xba, 0x0f, 0xf8, 0x7f, 0x31, 0x74, 0x40, 0x64, 0xea, 0xfe,
  0xe9, 0xa1, 0xde, 0x1c, 0xe9, 0xf0, 0x2d, 0x8a, 0xd5, 0x4c, 0x08, 0xd5,
  0x19, 0x08, 0x4d, 0xcb, 0x11, 0x37, 0xa5, 0xf2, 0x0e, 0x38, 0xc2, 0x0b,
  0xe3, 0xc4, 0x12, 0xfb, 0xf4, 0xc7, 0xf1, 0xfd, 0xfa, 0x02, 0xdc, 0xf1,
  0xd6, 0x17, 0xf9, 0xc0, 0xeb, 0x47, 0xeb, 0x16, 0x1d, 0x30, 0xa9, 0x4b,
  0x36, 0xe6, 0xec, 0xc9, 0x4a, 0x05, 0xfb, 0x0f, 0xff, 0xe7, 0x18, 0xfa,
  0xe8, 0x21, 0xdc, 0x17, 0xf8, 0xf6, 0x2a, 0xf7, 0x18, 0x1f, 0x0b, 0xfd,
  0xdc, 0x34, 0x30, 0x0c, 0x00, 0x7f, 0xe0, 0xbb, 0x02, 0xda, 0xee, 0x25,
  0x1a, 0xd8, 0xb8, 0x37, 0x0e, 0xcc, 0x1f, 0x35, 0xf5, 0x31, 0x1a, 0xc3,
  0xf1, 0xfb, 0xfd, 0xfb, 0xf2, 0x04, 0xb3, 0xe6, 0x11, 0x1a, 0xf1, 0x19,
  0x95, 0xeb, 0xf4, 0xcc, 0x05, 0x37, 0x34, 0x52, 0x01, 0xdf, 0xc5, 0xff,
  0xf5, 0x3f, 0x4f, 0x7f, 0xf3, 0x6d, 0x05, 0xdc, 0x04, 0xba, 0xd7, 0x04,
  0x21, 0x01, 0x1b, 0xab, 0xcc, 0xe4, 0x27, 0xc3, 0x22, 0x14, 0x4d, 0xba,
  0x0e, 0x23, 0xd9, 0xef, 0x00, 0x55, 0xcf, 0x00, 0xd6, 0xc9, 0x14, 0xfd,
  0x05, 0xe5, 0xda, 0x13, 0x1e, 0x0f, 0xcf, 0xc7, 0x22, 0x22, 0xf9, 0x90,
  0x28, 0x0c, 0x11, 0xfa, 0x4e, 0x7f, 0x11, 0x53, 0xf6, 0xc8, 0xf8, 0xb4,
  0x19, 0xf9, 0x0a, 0x15, 0x21, 0xdd, 0x14, 0xf2, 0x06, 0x06, 0xe9, 0x11,
  0xfa, 0x2a, 0xfc, 0xe4, 0x0f, 0x12, 0x01, 0x44, 0xe2, 0x03, 0x6f, 0xe3,
  0xe6, 0x18, 0xd7, 0xd4, 0xfc, 0x06, 0x4c, 0x28, 0x20, 0xeb, 0xe6, 0x1d,
  0xf5, 0xc7, 0x11, 0x1a, 0xde, 0x0a, 0x0c, 0x49, 0x38, 0x95, 0xbf, 0xdd,
  0x4c, 0x33, 0x81, 0xf3, 0xe1, 0x6f, 0xff, 0xd1, 0x52, 0x47, 0x98, 0xe2,
  0x34, 0xf0, 0x02, 0x4b, 0x65, 0xe4, 0xb2, 0x1a, 0x7e, 0xd1, 0x09, 0xb6,
  0x32, 0x2d, 0x1c, 0xf8, 0xdb, 0xf9, 0xc8, 0x0c, 0xa2, 0x29, 0x3a, 0x60,
  0x12, 0xff, 0xd1, 0x5b, 0xdf, 0x07, 0x66, 0xda, 0xff, 0x16, 0xd7, 0xf3,
  0x07, 0xc5, 0xd7, 0x13, 0xf6, 0x49, 0x0b, 0x41, 0x03, 0x6e, 0x73, 0xf0,
  0xea, 0xfa, 0xd8, 0x08, 0x05, 0x24, 0x20, 0xda, 0x09, 0x0c, 0x0e, 0x0d,
  0x0c, 0xd2, 0x02, 0xd1, 0xd1, 0xd2, 0x0a, 0xfb, 0x2b, 0xe0, 0x1a, 0xfe,
  0xe1, 0xe2, 0x12, 0xe6, 0x12, 0x40, 0x0d, 0xd3, 0x09, 0x15, 0x22, 0x04,
  0x0e, 0x04, 0x08, 0x18, 0x09, 0xf7, 0x36, 0x49, 0x12, 0x1c, 0x03, 0xea,
  0x06, 0xc2, 0x7f, 0x16, 0xff, 0xf8, 0xed, 0xf0, 0xf4, 0x0c, 0x09, 0x1b,
  0xfd, 0x46, 0x07, 0x3e, 0xfb, 0x0b, 0xe6, 0x27, 0xfe, 0xf4, 0x25, 0x0d,
  0xd7, 0x41, 0x31, 0x0e, 0x12, 0x21, 0x00, 0xd9, 0x13, 0xea, 0x12, 0xeb,
  0x20, 0xfb, 0xed, 0xfd, 0xd5, 0xee, 0xfc, 0xfa, 0xe2, 0x1d, 0x21, 0x01,
  0xda, 0xde, 0xea, 0xf8, 0xfa, 0x09, 0x1e, 0xe0, 0xff, 0x09, 0x1c, 0x7f,
  0x02, 0xfe, 0xee, 0xe3, 0x0f, 0xce, 0xe5, 0x02, 0x07, 0xe5, 0xda, 0xef,
  0x2b, 0xe4, 0x1c, 0x05, 0x3b, 0xef, 0xfe, 0xdf, 0x22, 0x94, 0xf1, 0xe5,
  0x07, 0xe2, 0xc9, 0xdf, 0x2f, 0x02, 0xe7, 0xf4, 0x11, 0x11, 0xcf, 0x4b,
  0x0a, 0xf1, 0x44, 0x9c, 0x27, 0xfd, 0xee, 0xb4, 0x1f, 0xe1, 0x2c, 0x0b,
  0x08, 0xd8, 0xed, 0xd1, 0x24, 0x17, 0xf0, 0xe1, 0x00, 0x12, 0xc0, 0x14,
  0x64, 0xe3, 0xd7, 0xe5, 0xea, 0xc1, 0x7f, 0xfb, 0x03, 0x0e, 0x27, 0xd6,
  0x1d, 0xe3, 0x1f, 0x04, 0xd0, 0x09, 0xd2, 0x37, 0xf7, 0xfe, 0xde, 0x0f,
  0xe8, 0xfc, 0xee, 0x11, 0xf0, 0xd7, 0xe8, 0xdf, 0x45, 0xd3, 0x1a, 0x20,
  0xd4, 0xff, 0x2c, 0x05, 0xcc, 0xee, 0xfb, 0xd4, 0xed, 0xc9, 0x31, 0x05,
  0x1a, 0x39, 0x52, 0x34, 0x11, 0x46, 0xde, 0x09, 0xd9, 0xf8, 0x04, 0x13,
  0xf0, 0x17, 0xef, 0x03, 0xcd, 0x00, 0xd5, 0xd2, 0x14, 0xc4, 0x36, 0xf0,
  0xff, 0x7f, 0xc5, 0xe5, 0x03, 0x2b, 0xf3, 0x0d, 0x99, 0x00, 0xe8, 0x57,
  0xf2, 0xdf, 0xc7, 0x14, 0xfa, 0x13, 0x53, 0x09, 0x95, 0x2a, 0x17, 0xf4,
  0x2e, 0x66, 0xed, 0x33, 0x5b, 0x0e, 0x8a, 0x4a, 0x41, 0xee, 0x0f, 0xc2,
  0x53, 0x1f, 0xe1, 0xe1, 0xea, 0xf2, 0x14, 0xff, 0xd8, 0x31, 0xfa, 0x1d,
  0xf3, 0xab, 0x22, 0xde, 0x1b, 0x12, 0x3d, 0xee, 0xe6, 0x64, 0xc4, 0x33,
  0xfa, 0x6a, 0xd6, 0x81, 0x0e, 0xb1, 0xbc, 0xc8, 0x1e, 0xbe, 0xb4, 0x1f,
  0x56, 0xe6, 0x29, 0x48, 0xf3, 0x09, 0xec, 0x71, 0x0a, 0xe8, 0xdc, 0xff,
  0x2e, 0x2f, 0xd9, 0xd2, 0x1d, 0x2e, 0xcf, 0xd0, 0x37, 0x63, 0x2e, 0xe2,
